<pad>
<unk>
<D>
<0x00>
<0x01>
<0x02>
<0x03>
<0x04>
<0x05>
<0x06>
<0x07>
<0x08>
<0x09>
<0x0A>
<0x0B>
<0x0C>
<0x0D>
<0x0E>
<0x0F>
<0x10>
<0x11>
<0x12>
<0x13>
<0x14>
<0x15>
<0x16>
<0x17>
<0x18>
<0x19>
<0x1A>
<0x1B>
<0x1C>
<0x1D>
<0x1E>
<0x1F>
<0x20>
<0x21>
<0x22>
<0x23>
<0x24>
<0x25>
<0x26>
<0x27>
<0x28>
<0x29>
<0x2A>
<0x2B>
<0x2C>
<0x2D>
<0x2E>
<0x2F>
<0x30>
<0x31>
<0x32>
<0x33>
<0x34>
<0x35>
<0x36>
<0x37>
<0x38>
<0x39>
<0x3A>
<0x3B>
<0x3C>
<0x3D>
<0x3E>
<0x3F>
<0x40>
<0x41>
<0x42>
<0x43>
<0x44>
<0x45>
<0x46>
<0x47>
<0x48>
<0x49>
<0x4A>
<0x4B>
<0x4C>
<0x4D>
<0x4E>
<0x4F>
<0x50>
<0x51>
<0x52>
<0x53>
<0x54>
<0x55>
<0x56>
<0x57>
<0x58>
<0x59>
<0x5A>
<0x5B>
<0x5C>
<0x5D>
<0x5E>
<0x5F>
<0x60>
<0x61>
<0x62>
<0x63>
<0x64>
<0x65>
<0x66>
<0x67>
<0x68>
<0x69>
<0x6A>
<0x6B>
<0x6C>
<0x6D>
<0x6E>
<0x6F>
<0x70>
<0x71>
<0x72>
<0x73>
<0x74>
<0x75>
<0x76>
<0x77>
<0x78>
<0x79>
<0x7A>
<0x7B>
<0x7C>
<0x7D>
<0x7E>
<0x7F>
<0x80>
<0x81>
<0x82>
<0x83>
<0x84>
<0x85>
<0x86>
<0x87>
<0x88>
<0x89>
<0x8A>
<0x8B>
<0x8C>
<0x8D>
<0x8E>
<0x8F>
<0x90>
<0x91>
<0x92>
<0x93>
<0x94>
<0x95>
<0x96>
<0x97>
<0x98>
<0x99>
<0x9A>
<0x9B>
<0x9C>
<0x9D>
<0x9E>
<0x9F>
<0xA0>
<0xA1>
<0xA2>
<0xA3>
<0xA4>
<0xA5>
<0xA6>
<0xA7>
<0xA8>
<0xA9>
<0xAA>
<0xAB>
<0xAC>
<0xAD>
<0xAE>
<0xAF>
<0xB0>
<0xB1>
<0xB2>
<0xB3>
<0xB4>
<0xB5>
<0xB6>
<0xB7>
<0xB8>
<0xB9>
<0xBA>
<0xBB>
<0xBC>
<0xBD>
<0xBE>
<0xBF>
<0xC0>
<0xC1>
<0xC2>
<0xC3>
<0xC4>
<0xC5>
<0xC6>
<0xC7>
<0xC8>
<0xC9>
<0xCA>
<0xCB>
<0xCC>
<0xCD>
<0xCE>
<0xCF>
<0xD0>
<0xD1>
<0xD2>
<0xD3>
<0xD4>
<0xD5>
<0xD6>
<0xD7>
<0xD8>
<0xD9>
<0xDA>
<0xDB>
<0xDC>
<0xDD>
<0xDE>
<0xDF>
<0xE0>
<0xE1>
<0xE2>
<0xE3>
<0xE4>
<0xE5>
<0xE6>
<0xE7>
<0xE8>
<0xE9>
<0xEA>
<0xEB>
<0xEC>
<0xED>
<0xEE>
<0xEF>
<0xF0>
<0xF1>
<0xF2>
<0xF3>
<0xF4>
<0xF5>
<0xF6>
<0xF7>
<0xF8>
<0xF9>
<0xFA>
<0xFB>
<0xFC>
<0xFD>
<0xFE>
<0xFF>
▁t
he
▁a
in
▁the
▁s
re
▁o
▁w
er
nd
at
ou
on
▁b
ed
▁c
it
is
en
▁f
ing
▁m
▁h
or
es
▁to
an
▁p
▁of
ar
▁and
▁d
al
▁in
as
▁th
▁l
om
ic
ll
▁I
▁n
▁he
le
ion
▁e
▁g
ly
ad
ot
▁be
ut
ve
st
ow
id
ent
▁re
ac
et
im
▁y
ld
▁on
▁that
▁T
se
gh
▁was
ay
ro
▁you
▁u
▁st
ver
▁it
ur
ir
▁for
▁S
▁A
am
ith
▁as
▁wh
▁is
ri
▁"
▁with
▁we
ct
oo
ce
ter
▁an
ke
▁H
her
▁M
▁his
▁C
ch
▁ha
ght
il
if
▁B
ation
▁The
ould
."
▁se
▁at
ra
▁had
▁her
▁me
ill
ol
ge
▁W
▁not
ul
us
pp
ore
▁fr
▁sh
▁P
ant
ers
▁con
ess
▁de
▁k
ain
▁ne
red
th
ist
▁li
▁or
est
pe
un
and
ome
▁my
▁from
em
um
res
▁L
▁she
el
▁ex
▁_
ab
▁(
ust
▁do
▁sa
rou
ate
▁G
▁D
qu
▁have
ie
▁but
▁v
os
▁so
▁E
ig
▁ch
▁F
▁su
ack
▁are
all
▁al
out
ard
▁R
▁r
op
▁ab
art
▁com
od
▁this
▁by
▁J
hen
▁him
▁int
ight
▁▁
ook
▁out
nt
▁le
ive
▁N
▁j
▁all
▁wor
▁pro
▁they
▁were
▁up
ally
ity
,"
ind
**
one
ap
ak
ort
▁He
ck
our
▁said
ast
▁kn
▁can
ies
ide
ud
▁one
The
▁would
ood
ment
ong
ven
ry
ous
ag
▁pl
ure
ich
ost
▁who
▁your
ci
▁O
▁their
▁about
own
ame
ell
ine
ect
▁them
pt
▁cl
ther
ew
▁like
ake
ace
▁man
au
?"
iv
ice
very
▁go
▁us
ear
▁into
▁been
▁could
ime
pl
▁what
ff
og
hed
act
are
hing
▁more
▁no
▁when
ep
▁did
ick
▁tr
▁there
▁im
ans
▁ag
age
iz
ond
▁ro
▁Th
ink
▁some
▁en
ated
▁It
▁un
ass
ress
ber
▁over
way
▁Y
▁sp
▁ar
▁if
▁other
ions
▁back
per
▁look
▁any
sel
av
ose
▁K
▁which
▁pr
ence
▁time
ical
▁off
▁will
▁qu
▁bl
ary
▁tw
▁dis
▁,
▁know
▁In
▁fl
▁ac
ove
other
▁ad
ite
ere
itt
ough
▁cont
end
▁just
able
urn
ue
▁'
ble
▁bec
ip
ound
ire
ked
ile
reat
▁pe
here
▁than
▁comp
▁then
round
ance
ach
▁has
▁co
▁too
ings
ish
▁She
ang
so
ory
▁get
fter
ult
hat
▁sm
▁sc
▁way
ved
▁hand
▁Ch
ru
rough
ild
mer
▁how
▁St
self
▁fe
ree
ia
▁app
int
▁down
ark
ade
▁ri
▁want
▁part
ater
▁.
we
nder
ull
▁our
▁po
▁see
▁again
irst
▁res
ations
▁per
▁only
▁U
▁say
wn
bl
ord
fore
ft
cl
▁even
▁te
ause
ople
ife
ign
▁through
orm
▁But
▁work
▁spe
▁pre
▁gr
▁V
oc
▁bet
▁now
ian
ather
▁think
omet
▁two
rit
vel
ount
ial
ase
ens
ath
▁sl
▁first
▁people
oy
▁its
ne
ious
▁under
uch
▁des
▁day
ual
ition
xt
iff
ered
ought
).
▁don
ving
▁every
▁after
ction
▁rem
▁am
▁imp
▁before
▁need
ors
ob
▁long
▁also
▁right
▁year
oll
▁new
ning
▁att
ons
▁br
ward
▁And
▁where
old
ents
vers
ict
ied
iss
),
ily
▁call
ph
cess
▁should
ren
oth
gg
▁much
ave
▁didn
ail
ful
ces
▁ke
▁rec
▁ey
▁somet
man
▁most
He
ise
▁made
▁rel
▁good
ple
ting
▁make
▁head
du
ss
▁because
ty
pped
alk
ock
▁own
You
aking
▁around
igh
ced
▁thought
▁comm
▁They
led
▁here
▁turn
▁em
ves
ittle
▁You
▁these
les
▁very
▁ear
▁act
uck
ont
▁may
▁diff
▁ph
hes
▁still
▁We
ness
ms
▁ra
oss
te
▁bel
▁This
be
▁gl
▁ev
▁well
▁gu
▁ind
▁never
▁rep
ah
▁little
air
.'
olog
▁life
▁car
▁An
side
▁going
ared
▁got
▁let
pect
▁gen
ps
▁seem
ert
ates
gin
▁bu
ating
▁ser
▁wr
read
ib
▁sec
ower
▁those
thing
ism
▁something
▁real
pen
▁many
▁sur
▁ent
ried
ange
form
▁might
li
ks
▁read
▁end
ody
ics
cial
▁away
▁wom
get
▁take
ouse
▁inv
ween
ner
▁war
▁years
▁hel
the
▁being
▁As
▁inter
ng
It
▁child
iew
ible
▁come
▁cr
ters
▁pers
▁feel
▁looked
meric
ject
aw
▁set
▁min
▁sy
▁eyes
gan
▁such
▁pres
▁world
▁acc
ually
▁same
▁Re
▁between
cept
▁does
▁old
▁start
▁che
ee
ular
riend
▁If
##
▁mo
▁happ
ork
▁–
ited
▁cons
imes
▁men
▁asked
ative
▁point
ident
▁fam
▁came
ross
▁found
▁face
ool
ways
ys
▁room
▁Americ
▁tell
▁another
ows
▁word
▁str
▁fin
▁differe
▁pol
▁**
▁find
▁open
▁tra
▁put
ern
▁God
ched
▁ob
▁use
▁each
▁left
▁supp
.,
ific
ever
ubl
▁while
▁Un
▁help
ted
up
▁cre
▁Al
▁cle
▁inst
▁took
ank
▁ass
any
▁told
ix
▁ref
▁add
▁great
less
▁dec
▁ret
▁few
▁sim
▁both
▁trans
owing
Th
az
ub
▁cour
als
▁unt
▁book
atch
▁must
▁went
tern
In
▁against
▁beh
▁place
ized
▁light
▁friend
▁sub
ince
its
▁inc
..
▁foll
▁door
,'
▁reg
ists
▁night
▁disc
▁always
owed
uth
uring
▁Wh
▁knew
▁hum
!"
hip
▁though
▁mom
▁home
oh
att
▁three
▁cor
▁There
cc
ane
▁last
▁sk
elt
ret
▁hard
akes
▁run
arch
▁belie
What
▁small
ined
▁bo
ars
cy
▁ed
▁met
iet
ger
der
▁New
amp
▁love
ric
ished
▁exp
▁person
ution
ene
▁until
oice
rib
ten
▁When
She
lect
▁el
▁exper
ins
▁pass
ale
▁dist
ened
clud
▁form
▁ter
rist
▁far
▁things
ec
▁really
▁mother
ention
▁used
dd
▁play
ities
ures
▁sw
We
▁high
▁eff
▁without
▁conf
▁house
ton
▁keep
ense
▁So
▁saw
▁fact
▁def
▁care
▁char
▁stud
▁gra
ash
▁called
▁vis
▁try
▁different
irl
▁mod
ased
▁talk
arr
▁enough
▁mean
▁That
▁side
▁underst
▁ide
nce
▁wa
ments
▁next
und
ned
ote
▁mon
▁Fr
▁himself
ically
ants
▁water
▁num
▁lar
to
ably
osed
▁felt
ility
orn
▁Ar
▁stand
▁sure
most
▁For
outh
▁expl
▁sign
med
▁produ
▁mar
▁cent
▁rest
ature
ised
ead
aring
▁Is
▁turned
▁kind
▁mem
▁gener
ize
▁father
▁ext
ience
▁quest
▁dra
ural
▁hands
ley
▁later
._
son
▁wasn
br
▁thing
iness
▁ever
▁wanted
uss
ier
land
▁dire
ired
hap
▁mind
And
▁ins
▁dr
▁import
ages
ute
arent
▁det
▁poss
▁count
▁His
▁toward
pr
▁mat
▁second
io
day
cent
▁cur
But
ets
▁once
▁woman
▁lo
alf
▁cou
ling
ason
ream
▁better
ational
ug
▁▁▁▁
▁Christ
▁moment
▁body
com
▁coll
ield
▁publ
ts
ately
anc
▁sound
▁hist
▁young
ohn
reen
▁exam
▁nothing
▁wind
▁cap
oot
▁pat
stem
▁bus
▁De
▁What
ertain
▁family
ying
▁mor
ivers
▁pur
ering
▁air
▁dri
▁best
ently
▁girl
▁seemed
▁inf
velop
gr
▁partic
▁power
▁bre
ged
ither
▁course
ives
▁name
▁why
▁almost
▁fil
ices
_.
Wh
▁voice
▁lead
▁Be
▁black
ues
▁York
ully
▁says
▁includ
ines
▁med
ology
▁anything
▁since
▁less
▁Cl
▁understand
▁comple
▁How
app
▁Mr
▁near
ird
ata
▁children
ready
▁days
▁move
▁return
gether
▁together
▁give
ott
▁My
▁seen
ained
▁tri
▁behind
augh
▁Mar
inn
ided
ung
No
erest
ital
...
▁Sh
▁contin
▁dark
▁fore
▁Le
rew
ann
▁big
ler
▁past
▁along
▁kill
▁sat
▁resp
▁across
ER
▁view
oney
ax
used
▁wee
▁John
▁already
▁close
ison
?'
▁At
▁American
▁land
ames
ract
▁sch
▁bed
▁human
ember
▁occ
▁often
▁dem
ruct
iven
rop
ury
That
▁pain
▁sn
▁prov
▁began
erv
▁eas
▁arm
ots
▁writ
▁words
oke
uff
▁four
rol
▁hour
idd
▁Then
▁clear
▁art
▁front
▁ho
▁leg
▁pull
▁pri
omm
▁done
ina
ured
▁half
▁system
▁Se
▁develop
▁heart
▁large
rn
▁es
▁proble
▁col
▁story
▁lear
▁important
▁bit
yp
▁least
▁var
▁else
▁polit
▁hold
igure
▁val
▁mark
▁Her
▁grou
▁All
olution
▁during
▁adv
gy
aken
▁couldn
part
▁direct
▁early
▁par
▁interest
▁top
ides
▁sil
ape
▁show
▁Con
▁looking
▁gave
view
▁boy
▁Q
▁white
This
right
▁someone
ories
▁commun
alked
king
utes
▁list
▁heard
ressed
apter
▁mil
iting
▁ans
▁others
▁deep
by
▁cult
▁tem
enty
over
▁spec
bs
▁case
▁number
▁report
ider
▁become
▁begin
▁company
ior
▁lot
▁death
oon
▁sit
▁bro
▁Bl
ustom
▁desc
▁certain
▁doing
not
though
▁opp
ony
▁sle
erm
▁yet
▁women
▁wond
▁inform
▁hair
▁blood
▁build
reet
ex
▁sal
uc
▁process
ike
▁social
▁aw
▁fun
▁Ad
▁On
ogra
▁Brit
nal
▁tre
▁bra
oor
ush
ains
rnest
▁whe
▁plan
▁prom
light
me
▁effect
ection
▁pos
▁loc
▁full
ians
▁food
pend
▁times
▁present
lf
bers
▁stra
ached
▁ste
▁meet
aper
▁data
selves
▁whole
▁av
ery
▁chang
▁rather
chn
ining
ued
▁parent
atic
As
que
▁Ph
▁idea
▁relations
▁started
▁quick
▁question
bed
▁line
ision
aster
▁dead
▁wall
bert
▁having
ization
ator
ien
▁friends
▁making
▁Ed
▁fall
ude
▁War
▁No
▁appro
els
▁sever
There
▁trying
▁inside
irt
▁table
iversity
▁conc
▁lay
aces
▁everything
con
▁Or
▁sent
▁step
vious
▁within
aut
▁bad
▁aff
▁myself
If
▁stay
ron
haps
▁cut
▁const
ister
aves
ient
aced
▁stood
▁prot
▁short
When
vern
iled
▁believe
▁Ind
▁order
▁money
ats
▁Sp
▁known
▁cond
ump
▁main
▁Tr
▁pop
▁business
▁several
▁particular
rie
▁sense
ears
▁ple
▁walk
bably
▁school
▁red
aim
▁tried
▁breat
ggest
▁One
▁law
▁example
▁|
▁Ernest
▁change
ement
▁fing
▁ele
alth
▁*
ards
▁To
▁pick
▁soon
▁hear
aul
▁feet
▁bas
fully
▁sing
▁requ
aid
ript
▁suggest
▁month
▁minutes
▁taken
orth
mb
aj
row
▁pract
▁sum
▁pay
ored
▁fire
sy
▁Not
uthor
ination
▁doesn
of
▁watch
They
▁Z
iter
▁able
enn
ising
pping
▁ground
▁result
ression
▁reason
▁expect
▁won
▁either
vent
ik
rodu
ogn
▁self
▁gone
tt
▁tou
▁test
itting
▁given
▁squ
▁aud
ality
▁serv
▁matter
ald
ivid
fe
▁leave
▁ve
▁using
ium
▁Ger
▁custom
fort
head
▁repl
eth
▁imag
▁bar
▁morning
ones
▁trad
▁upon
▁relationship
▁experience
▁became
My
▁govern
cle
aly
ety
ograph
cially
▁miss
sh
ov
▁Jes
where
▁control
▁swe
▁outside
▁coming
▁history
itions
room
▁May
▁true
▁class
itus
,_
▁mag
▁cir
▁equ
ges
So
▁probably
IN
ional
▁ident
ries
ids
▁mus
idence
▁among
wh
oint
▁grow
▁information
ply
na
ases
▁—
▁prof
▁University
▁group
▁however
▁mouth
odd
▁suc
▁held
arl
ams
▁getting
ral
▁organ
wer
▁ant
cient
▁public
▁support
▁stop
###
uro
▁adm
ring
iron
oun
▁dro
rought
▁living
▁Jew
iving
▁quite
▁After
▁free
▁techn
▁arg
▁level
How
▁ori
angu
ches
ening
▁fell
oose
An
▁possible
▁[
▁entire
aur
▁itself
▁state
▁remember
aught
ended
▁live
▁ca
ances
body
▁dou
▁low
▁incre
▁fra
▁pot
reed
▁prop
▁bring
▁problem
co
▁floor
iver
▁est
itive
▁makes
▁charac
▁Press
▁ask
▁means
▁herself
▁ill
▁pie
▁phot
▁foc
ev
▁Will
innitus
▁wouldn
▁country
ls
▁strong
omp
▁div
▁surpr
▁rece
▁sto
▁account
my
▁hor
▁fur
overed
etic
▁pret
▁working
arm
▁offic
▁needed
▁author
▁thinking
ken
amed
▁bene
▁With
▁walked
eter
▁deal
▁city
▁Sc
▁obs
undred
for
▁themselves
aby
irit
St
aving
▁happened
▁brought
▁speak
▁five
ological
Yes
▁job
▁hur
▁discuss
▁wife
▁fill
oud
▁Eng
yn
▁rad
▁Br
▁stat
resent
▁sun
▁arri
▁plant
ror
▁sex
▁Some
airs
▁lost
ividual
▁creat
▁cross
▁hot
▁fight
pecially
like
rench
▁iss
▁British
▁news
ified
ived
▁sleep
ency
eng
▁Pro
▁eng
▁crit
HE
▁actually
▁hours
▁mill
▁alone
▁Pr
▁taking
▁soft
▁late
Oh
gar
▁Jesus
▁Paul
por
▁kept
▁political
eed
▁above
istic
▁longer
▁paper
▁press
par
▁eye
ode
▁window
ilar
▁parents
▁conn
▁invol
▁narr
▁Gu
:**
aged
▁Af
▁text
▁moved
▁mess
▁break
ulation
▁hundred
cum
▁arms
ilt
▁Mc
de
het
empt
▁whether
use
▁film
▁wrote
bo
▁twenty
▁dev
medi
▁hadn
▁slow
▁wrong
▁simply
lish
band
atural
alm
▁subject
ift
ze
ype
▁post
▁individual
ney
▁aut
▁German
▁record
▁common
▁check
ili
oes
icult
▁success
▁phys
acy
ushed
▁complete
For
▁mot
eral
lled
▁jo
▁oper
▁sold
▁field
tain
idge
▁langu
▁stri
▁town
▁anyone
ournal
▁hope
ential
▁finally
dden
▁suff
▁gun
af
▁anim
ploy
▁bott
▁today
▁abs
ration
▁buy
eared
▁event
--
▁cold
▁Now
▁clos
▁camp
▁ten
une
▁pan
▁phone
gged
▁enc
ondon
▁tinnitus
▁mur
▁son
▁beaut
▁origin
action
▁conv
arp
oe
▁lim
▁dep
▁comes
.)
▁sudden
▁rese
ental
▁drink
---
▁saying
ples
▁proper
unt
▁ways
lu
sych
▁modern
▁Ro
ON
▁quickly
▁nature
ging
▁sort
▁pulled
iding
▁fa
▁bur
urch
▁age
▁attack
itor
ousand
▁claim
ected
ication
▁activ
▁describ
▁Pl
soci
▁Can
uh
inc
▁Ex
▁heav
owers
ique
▁difficult
osp
▁sol
▁following
▁dest
▁talking
▁perf
rom
▁area
▁appear
ma
▁These
▁cra
▁government
▁attention
ara
▁feeling
aughter
anger
▁six
unch
atched
▁brother
book
▁week
▁recogn
▁di
ief
Well
▁whis
▁office
▁ran
val
▁Man
▁object
irty
▁onto
▁king
gs
▁fut
▁elect
▁dam
erson
ster
iddle
▁exact
ips
▁opened
▁general
▁Fl
urope
▁especially
▁ener
▁Mac
▁win
▁pict
anced
▁French
▁invest
itten
▁cop
▁seems
▁typ
▁Was
▁including
▁road
izing
▁America
ext
▁box
▁smile
▁answer
▁months
▁meant
Not
▁everyone
▁Qu
resh
rent
▁glass
iod
ajor
▁accept
▁isn
uation
▁draw
▁stopped
▁single
usband
▁stru
▁forward
▁ago
attle
irm
▁followed
▁product
▁wood
▁apart
antly
▁Even
▁specific
atin
▁reached
udd
itted
▁super
▁Per
▁fuck
Ch
▁thousand
▁Mary
RE
asp
▁Co
ously
▁trou
▁treat
▁market
▁cell
vie
fer
itc
ius
lling
▁ready
▁sometimes
▁Afric
▁whose
▁env
▁key
mbol
atever
▁cannot
▁rev
▁fail
▁ord
pper
▁quiet
▁concern
▁vers
▁Europe
▁Ab
ires
work
▁character
▁likely
▁ce
▁non
▁writing
▁sour
▁immedi
ishing
bled
asure
▁secret
▁Chapter
▁maybe
ledge
▁instead
▁language
sc
—"
ani
▁letter
▁teac
ctor
▁ris
itional
▁design
orld
ingly
▁truth
lev
▁exist
▁Gr
rying
▁fav
iling
▁By
iny
▁er
ively
Why
▁warm
▁fear
▁foot
lier
▁led
itch
kay
▁Ge
▁percent
▁ann
▁building
▁focus
▁breath
▁husband
New
▁Je
▁running
▁lab
iction
▁Pol
iced
▁position
▁space
ox
ify
▁occur
▁perhaps
▁decided
▁detail
▁perform
▁special
cience
yond
▁port
▁Just
oph
▁dream
▁Par
▁except
▁baby
but
ission
▁wonder
▁health
wo
Don
▁et
amm
▁Pe
▁sens
AR
mp
▁cook
▁rock
ett
▁exc
▁usually
▁burn
▁future
▁similar
▁Do
ipped
▁eight
ha
unn
▁tend
▁lif
▁del
All
got
see
▁United
▁skin
▁vol
iers
▁died
▁nodd
▁seed
▁London
▁looks
▁consider
ky
▁yourself
iful
▁Lu
▁hit
▁compan
▁grand
▁ep
ciety
▁eat
▁histor
▁passed
ays
▁mater
▁States
▁study
hers
▁standing
▁role
ham
▁waiting
ills
let
▁behav
▁shot
Al
rief
▁compl
▁worked
▁fraud
▁represent
▁mass
▁convers
ables
▁priv
usion
hood
▁wide
▁employ
▁period
▁continued
ume
line
▁leaves
ey
▁symbol
▁sor
▁perfect
▁Bill
AN
▁major
▁touch
owd
▁sett
▁sus
▁earth
AT
arb
▁prep
▁ver
▁cover
▁pretty
▁disapp
▁Christian
ivil
▁ang
▁brain
cing
▁Ann
▁West
▁slight
ironment
▁comb
▁lives
▁value
▁coun
apt
ients
▁easy
▁straight
een
▁Comm
▁jud
▁necess
▁spread
iol
▁books
cious
To
mber
▁smiled
▁intell
joy
▁meaning
conom
ocked
▁create
▁further
lex
▁fre
▁liter
▁concept
▁natural
▁Don
ais
▁energy
▁project
▁evidence
ixt
▁development
▁Dav
ability
▁track
At
▁spirit
▁fine
▁thr
▁bag
itz
▁fif
▁hon
▁mid
▁effort
uly
ibility
▁green
ady
▁hop
▁written
Then
oid
▁visit
ecause
omes
▁street
atter
▁blue
▁mine
ES
▁dig
aling
EN
▁mis
▁norm
▁killed
▁chapter
▁hall
▁couple
▁exactly
▁whom
▁attempt
▁kiss
▁cost
▁nodded
▁clot
▁search
▁clim
▁summer
rig
ask
▁closed
ray
rif
▁guess
▁local
▁Let
▁appl
▁Peter
▁century
▁happy
ston
▁fingers
▁clean
▁figure
▁dry
▁Thom
itary
▁Ben
ule
▁Sch
reg
▁However
unk
▁mention
alc
▁caught
▁spoke
▁emot
▁lean
▁personal
▁serious
▁bow
▁associ
ites
On
▁influ
omb
add
now
▁beyond
▁page
▁meth
zz
ording
▁Gen
▁Dr
▁force
▁material
▁bi
▁signific
▁reve
▁travel
kes
▁Willi
▁takes
arv
port
▁opt
▁party
rupt
ences
▁shook
▁sitting
▁prim
▁respons
▁laugh
▁simple
▁und
▁Jack
AP
▁returned
uge
icha
▁chair
▁novel
▁action
▁reading
erence
▁Me
▁middle
ops
▁Rep
▁suddenly
face
▁El
Cl
aven
ises
that
▁imm
eah
▁enjoy
hel
▁sister
▁vict
▁questions
▁watched
▁based
ille
▁Every
▁earlier
inary
▁send
▁z
▁mir
▁experien
bt
▁oil
how
▁psych
▁struct
▁Vir
▁respect
▁round
▁Am
▁poor
▁English
▁esc
riage
▁spent
▁la
▁dim
▁million
▁emer
▁separ
aint
▁memory
itchen
TER
▁drive
▁repe
▁weeks
apers
▁contain
▁Inst
▁needs
ees
▁surv
▁fresh
Do
OR
▁nearly
▁learned
uit
▁Latin
▁appeared
ades
ests
aded
orge
▁third
isted
▁Your
▁indic
!'
aled
ana
aug
▁dom
▁ess
alyt
▁fast
▁learn
ama
enth
ially
▁demand
inct
▁Cal
▁mix
▁president
lying
▁wait
▁relig
oted
▁anal
▁ones
▁loved
▁added
▁write
Is
▁cam
▁raised
ateg
▁cup
▁neck
hern
▁shall
▁James
lyn
▁bes
):
▁Car
▁game
▁purp
▁follow
▁although
▁determ
aff
pite
▁guy
▁comfort
▁image
oul
rey
▁beautiful
▁log
▁chance
▁command
ules
▁hig
go
▁immediately
ators
▁pray
▁mer
▁lived
▁obvious
▁yell
▁beginning
▁note
ruction
▁acqu
▁pack
▁Ser
▁dress
▁share
▁remind
▁kitchen
▁crowd
▁estab
▁danger
ension
▁threat
ai
just
▁heat
▁remain
umb
▁emb
ager
▁Why
▁meeting
ris
▁amount
iment
▁heavy
▁community
▁arrived
▁members
▁tot
acing
▁store
dom
men
▁stories
▁shoot
rap
After
▁stuff
▁Ne
▁hang
CH
▁shoulder
play
mon
str
▁situation
ford
▁changed
tim
ortun
▁realized
▁favor
▁environment
▁wild
▁Black
▁final
▁worth
":
rael
▁moving
off
▁smo
▁World
▁Col
▁feed
▁below
▁type
▁mult
Be
▁path
▁terms
IS
onse
▁supposed
ems
ailable
hington
▁plants
▁Russ
▁See
▁Sm
uct
▁mount
▁works
▁Cur
hem
▁smell
ocr
▁ir
▁prin
ING
.**
▁stick
▁progr
aps
▁center
▁econom
etry
well
aked
aniel
▁slowly
▁corner
aign
▁police
bid
Sh
▁strange
▁church
▁init
▁whatever
▁viol
ublic
ground
▁South
▁introdu
▁fair
▁offer
▁contr
cise
▁bare
▁tight
wood
▁gold
come
rest
lo
▁replied
asion
▁thick
▁happen
▁described
▁ur
▁hosp
▁spend
▁cool
▁kids
▁ign
▁indust
▁den
▁US
irth
ysis
▁court
inal
▁safe
▁benef
rel
▁previous
bling
▁knows
▁compet
▁term
▁select
sidered
▁current
▁considered
▁tar
▁pred
▁docum
▁empt
▁behavior
▁dog
isc
▁movement
▁clearly
▁depend
▁evening
▁leaving
AL
rage
astic
eming
▁service
▁companies
ceed
▁Rich
ession
▁watching
▁Wil
lease
▁lips
lin
▁click
▁access
▁regard
▁pen
▁growing
sequ
▁directly
▁reality
Let
▁goes
▁mist
▁piece
inner
▁Lord
▁Israel
iety
▁Sam
▁vari
ales
ament
▁ball
▁cand
One
//
gment
zy
arden
▁aware
▁problems
arily
▁chest
bing
lection
▁strugg
▁changes
bor
▁created
▁decl
▁knowledge
teen
▁method
lman
iring
arth
alytics
yle
▁particularly
anks
▁oppos
ichael
▁audience
▁Maybe
▁En
▁Buck
aurie
oming
▁band
▁ice
gress
▁various
ese
▁unc
▁crew
▁mach
▁yes
Now
cer
ument
▁hung
▁hurt
▁THE
▁pattern
sing
iles
rill
▁scen
▁color
aughed
OU
---|
▁Res
▁rou
year
▁mut
fl
ffic
rina
▁laughed
▁research
ny
▁Hist
▁parts
▁shout
NA
ival
erved
▁edge
▁brief
rely
▁Em
▁provide
▁Lind
▁holding
asc
reme
more
▁grab
▁picked
▁legs
▁cause
▁scream
▁theory
▁team
Chap
oved
▁culture
▁die
▁involved
▁bird
▁link
▁expression
rand
▁Ste
▁sea
▁sorry
▁Mor
▁giving
▁App
iliar
▁daughter
▁sight
▁scient
▁capital
ipp
▁nor
▁David
▁built
icy
▁bright
▁music
▁nice
▁picture
▁certainly
▁Cass
uhlman
▁steps
▁events
esh
▁demon
▁filled
▁completely
▁fem
▁spot
▁fig
▁coff
▁girls
▁Thomas
▁tool
▁available
ibly
ari
rect
nces
▁da
▁Ma
▁respond
zen
▁af
▁wit
▁stage
▁hell
▁tast
Chapter
▁address
▁GA
▁faith
▁trees
▁Cor
ective
cript
▁published
▁approach
wise
▁impro
▁Jewish
▁Washington
▁Cent
▁ble
ugust
▁ju
▁peace
LE
://
erve
▁desk
gle
▁op
▁battle
▁practice
ada
▁refer
▁trust
▁slightly
▁huge
▁reflect
▁showed
alled
▁From
▁fold
▁named
▁purch
▁explain
ilos
▁redu
▁easily
▁presence
▁Jan
cip
▁cat
itation
▁comput
▁Cont
▁While
▁extra
▁Americans
ek
▁Mad
▁enem
▁wish
annah
▁brown
▁i
▁chall
chie
reng
▁bottom
▁ap
atives
▁assum
);
gel
▁Like
▁contact
▁Jim
IT
pered
▁telling
aries
▁thirty
ville
▁Here
▁response
▁Har
▁sweet
▁Pat
▁society
ners
▁frequ
▁finished
▁trouble
▁tro
▁interp
ancing
ensive
▁understanding
▁lines
ification
ming
▁stared
▁Kuhlman
estern
what
▁lack
▁Book
▁complex
▁doubt
▁First
▁spring
uel
ault
▁walls
▁received
▁firm
▁shows
▁manage
▁tree
bit
▁popular
hered
▁moral
roy
itude
▁size
▁evolution
▁thus
▁civil
▁movie
▁points
▁fat
▁star
▁lower
With
▁opportun
emb
ope
▁Ibid
▁covered
▁minute
asing
▁inn
▁married
▁Ke
▁military
▁Jews
▁scene
▁hy
▁streng
▁target
▁expected
▁necessary
▁neigh
icked
▁believed
▁older
raid
▁function
▁."
▁risk
▁sand
▁liked
▁cru
▁host
igen
▁arch
▁carried
▁regular
▁weight
▁George
gen
▁shut
▁customer
_**
lls
▁shad
▁section
oses
▁colle
▁Most
▁allow
▁offered
▁pointed
aze
▁Te
▁ut
Yeah
▁army
▁dise
oman
▁empty
she
▁price
▁surface
amb
uted
▁shape
urity
▁bank
▁deli
▁Sim
▁arr
▁Somet
▁dropped
▁Although
▁direction
idden
▁dough
▁ideas
▁Robert
▁block
▁Eve
board
▁source
▁model
▁reach
▁campaign
▁fund
raft
▁ahead
yl
noon
▁wants
▁William
Figure
▁North
eal
▁forms
▁cast
▁Ap
oyal
▁net
▁rose
▁physical
emingway
▁surround
oring
▁prison
May
▁Paris
▁boys
▁wearing
▁sick
inist
▁clothes
▁Gl
▁difference
▁beside
▁agreed
▁Mrs
▁fle
▁Frank
▁rights
urs
▁Jer
eg
▁places
ole
▁thro
▁breast
onn
umn
▁neg
▁loss
rible
ashed
vert
▁wound
▁choose
▁stepped
▁engine
▁France
▁van
asons
▁Michael
▁disp
▁salt
▁sky
▁Conf
▁rub
▁sac
▁birth
His
▁higher
▁attract
iah
▁More
▁miles
▁allowed
▁letters
▁born
▁analysis
cles
▁weak
▁powerful
▁Comp
▁seat
▁guard
▁counter
▁bull
▁grew
ww
▁fix
aching
▁House
▁catch
▁doll
▁soldiers
che
ibr
icle
reek
▁Are
▁Bro
▁park
alse
atur
obal
ori
▁capt
▁gets
uts
itler
olute
▁tall
▁Nor
▁series
▁broad
▁issue
▁August
▁Ev
ength
▁broken
▁conversation
▁Fe
▁jump
epend
▁dinner
▁throughout
field
▁Richard
▁seeing
▁seven
era
▁thin
▁walking
iant
ulated
▁original
cend
ancy
www
ilities
▁cry
apped
▁afraid
▁groups
▁purpose
oices
▁sell
▁flowers
▁understood
plic
▁Ant
▁noticed
See
ram
edd
▁King
levision
▁Jud
▁names
▁protect
▁distance
▁former
▁afternoon
▁finger
▁familiar
oles
▁sugar
▁depart
▁worse
▁rich
▁Green
▁Intern
▁message
APTER
▁cultural
time
ectual
you
▁screen
▁marriage
tered
▁national
▁temper
Who
▁choice
▁base
▁vill
hold
▁growth
phas
▁cases
▁African
▁beneath
▁god
iously
▁coffee
▁silence
▁Sec
▁north
▁Des
▁pal
sp
▁bowl
▁doctor
set
▁Once
▁stro
ords
ereot
omen
▁paid
▁private
▁Face
▁perm
▁San
▁context
look
▁Laurie
▁Jul
▁belong
▁board
▁played
▁loud
▁ul
▁White
▁images
▁tiny
▁pushed
▁Coll
osch
▁pun
ech
▁version
▁stre
▁fro
▁therefore
oly
icks
▁kid
▁Other
▁nose
▁eventually
▁eth
▁Part
▁stress
inet
▁sad
▁song
ography
▁ability
lam
▁encou
Of
ttp
▁Ag
▁luck
▁liber
▁sounds
▁flat
▁aspect
berg
craft
▁avoid
▁frame
▁closer
▁challen
olf
oop
▁Bar
alter
▁date
Your
▁okay
▁display
▁suggested
▁normal
with
▁cab
▁imagine
▁pock
▁forest
▁master
Just
ights
####
▁Who
osing
▁helped
▁Jos
▁Sy
▁card
▁hospital
antic
ulate
▁fish
▁stret
▁remained
..."
atory
ibert
wered
▁feat
▁Street
▁unf
▁shown
▁bread
▁defin
▁greater
▁tom
',
▁cream
▁wondered
ague
▁achie
▁haven
▁waited
▁whispered
▁Mus
ching
▁tears
▁technology
uke
▁Mat
▁Because
oogle
▁Jeff
kn
▁blind
▁include
ok
▁shit
▁("
▁tit
▁educ
▁talked
▁numbers
▁none
▁potential
uses
▁continue
isf
uman
lim
▁Mark
ctions
▁hardly
egr
ading
▁murder
▁historical
hab
▁ton
▁hun
▁ring
▁Su
▁forced
▁bath
▁anyway
resp
▁Hig
vey
▁issues
▁turning
▁trip
▁interview
lebr
▁river
ica
▁Cong
▁tour
icated
▁train
▁medium
Ar
▁Mer
▁emphas
▁imposs
IC
▁Win
ented
▁crack
ustr
▁review
vi
▁playing
Le
▁appears
▁remark
▁thoughts
▁fant
▁Deane
asy
▁soil
inated
▁Their
▁surprised
Are
▁desire
▁indeed
▁bal
▁bod
▁shoulders
iqu
▁stone
uing
▁Our
▁forget
▁genetic
pro
▁II
aches
ending
▁larger
▁mad
▁virt
▁weren
▁Buckley
▁prepared
▁notice
arsh
▁gent
▁suit
▁results
abor
▁Father
▁impact
▁traditional
▁Rem
▁animals
actions
ril
▁cred
▁speed
atively
▁deb
iforn
▁asking
▁Hemingway
▁Tor
ivity
ounced
▁Tim
using
▁profess
▁worry
ushing
▁Alex
▁philos
▁science
▁conditions
ropri
▁significant
aped
▁bound
sec
Re
▁gives
▁Of
▁aren
▁Curry
▁strength
▁influence
cell
▁fucking
▁Facebook
itual
▁shru
▁establ
ball
▁spl
▁tradition
gest
▁Mon
▁adult
▁Val
▁placed
▁fit
▁quar
embered
orrow
ago
▁Char
inally
▁journal
hetic
attered
▁apparent
▁television
▁required
alt
▁match
▁answered
chan
attie
▁fort
▁button
▁Lou
▁lie
▁deg
Where
▁Mother
▁aim
ander
▁fol
raw
lear
▁fac
▁ship
▁effects
ait
▁throat
▁pp
▁egg
ifornia
▁History
▁computer
rict
▁forces
rs
▁witness
▁Pre
▁attach
urg
ares
▁nav
▁fully
▁carefully
anding
AS
By
mm
▁grad
▁lose
▁interesting
Ph
▁rate
ware
eenth
▁leaned
▁systems
pir
back
▁Miss
▁towards
▁bell
▁alive
▁butter
ero
▁bill
▁Evelyn
▁appre
▁correct
▁Conn
▁associated
▁station
▁knowing
▁becomes
▁relationships
Some
▁Hitler
▁amb
▁snow
▁beat
▁grin
▁usual
'.
cil
▁false
▁range
▁celebr
▁explained
▁City
▁subst
▁garden
ran
▁rain
▁teeth
▁connect
▁managed
▁included
▁apartment
▁length
iber
▁south
▁Hel
▁Int
▁weap
ario
▁broke
▁reasons
▁activity
▁population
Did
bles
▁Life
uary
▁leaders
▁politics
oned
▁Many
▁People
▁Virgin
▁remembered
Ex
▁Guibert
▁transl
"—
▁smoke
▁express
▁humans
ups
▁Med
▁dru
▁Well
▁stock
▁program
▁save
▁Earth
mar
▁Bet
De
sey
acle
▁winter
▁ancient
▁stereot
ribe
▁areas
▁Ber
▁basic
▁calling
▁radical
ores
▁please
▁concent
▁types
▁Add
ses
▁file
▁surprise
▁Tw
▁content
▁investig
▁Ac
ctic
▁Edd
▁extreme
▁wet
▁resour
AC
oms
▁Acc
▁ritual
illed
▁California
▁anx
▁revolution
▁;
odern
▁Che
▁Phil
▁absolute
▁interested
ads
▁Cr
▁produce
aging
▁hearing
▁temple
▁March
▁serve
▁Hannah
▁writer
▁reb
lement
lict
▁comment
▁according
▁knife
▁official
▁Instead
▁due
▁contrib
▁intellectual
▁destroy
▁reports
▁Cam
▁reven
▁fighting
▁impossible
kin
▁sin
▁disease
▁reported
Her
oby
▁media
tr
▁machine
▁rap
▁gest
▁leading
▁entirely
▁Act
▁ens
▁truly
▁keeping
▁DNA
▁wine
▁belief
gil
aum
▁Figure
▁Perhaps
▁staring
▁site
ID
▁pa
▁carry
▁suspect
▁transform
urt
▁prevent
org
▁Hen
aming
osition
▁tables
▁Republic
▁decision
▁cloud
▁occup
▁connection
anged
izes
▁speaking
▁dear
▁independ
▁flour
▁uns
▁opening
▁odd
geant
▁evil
itution
▁forgot
ouses
▁Pres
▁species
isions
imp
ulf
ingu
▁ultim
ception
▁milk
▁legal
▁shared
▁developed
ront
reedom
?_
aker
ogan
▁Indian
▁contro
▁measure
▁Great
pective
▁pieces
cher
▁hero
▁drop
▁calls
ocol
▁contrast
▁Cap
utions
▁lights
▁Germany
ula
▁remains
aph
▁square
ilies
imate
▁ended
▁repeated
▁positive
ternal
▁foreign
▁patients
▁/
order
▁realize
▁structure
gu
▁farm
gl
▁sixt
▁touched
▁Britain
▁dut
▁rid
ancial
▁nerv
▁General
▁willing
▁instruct
illy
▁increase
▁troops
olly
▁lying
▁prefer
▁Mag
gun
▁rise
▁Google
▁animal
▁central
▁Two
▁somewhere
▁cal
▁drawing
night
▁tong
▁mechan
▁Madison
▁▁▁
▁spo
▁calm
▁vision
▁entered
▁windows
▁dust
▁studies
▁standard
▁x
ashion
▁smooth
▁states
friend
▁circum
▁tired
▁priest
▁opportunity
▁mirror
▁provided
ED
▁fed
outhern
▁double
▁customers
key
▁resist
▁neither
▁pressure
pet
uous
▁newsp
▁sales
▁sharp
rab
▁faces
▁mentioned
▁pet
▁code
▁National
▁students
▁darkness
▁Africa
▁sides
▁barely
▁satisf
▁produced
▁narrative
▁id
▁Red
▁tone
▁Congress
▁career
▁famous
▁TV
▁cit
▁exch
▁noted
▁turns
▁silent
▁Virginia
ION
▁spiritual
▁listen
▁mob
▁season
opher
▁gray
▁enemy
▁property
ND
ya
▁motion
▁starting
CHAPTER
▁Mike
▁exer
▁wore
▁worried
▁conscious
▁interpret
▁statement
▁Aust
ivation
▁grown
▁Count
▁Since
▁bought
▁hat
▁photograph
vere
▁guys
▁angry
▁tonight
▁occasion
▁discovered
uce
▁charge
▁quality
▁learning
▁Any
▁Islam
▁conserv
▁happens
▁tele
▁antic
ino
▁feelings
▁Yet
ooper
▁mostly
▁somehow
▁moon
Can
ails
cies
▁Law
ighed
▁assist
▁der
▁goal
porary
▁despite
▁particip
▁details
▁services
IL
new
---|---
▁bodies
▁sexual
▁horse
respond
min
host
roud
▁mel
▁tax
▁Smith
▁join
▁jour
▁pale
▁autom
▁tells
▁altern
▁ordered
▁argument
▁critical
▁Dem
▁Park
▁purs
▁obl
cknow
▁magn
▁drove
▁joined
▁enter
▁forth
▁recent
isters
▁layer
▁Sept
▁pu
▁treatment
iot
essed
▁print
▁gentle
▁transm
rain
▁Naz
▁gri
▁taste
win
house
which
▁pound
▁victim
▁yellow
▁distinct
▁oz
aret
▁Reb
itute
▁vide
▁heaven
bridge
icious
▁Lucy
▁highly
▁industry
▁religious
▁Cassius
hib
▁princi
▁flo
stone
▁reject
▁bedroom
▁concerned
aved
anish
▁total
▁inj
known
▁setting
Good
▁internal
▁grass
▁ec
▁putting
▁contem
eping
▁conce
▁metal
▁pages
▁caused
▁terrible
anted
▁intern
Maybe
under
▁collect
▁conclud
▁dressed
▁document
▁production
▁actions
▁instance
▁rob
arian
▁April
▁labor
▁shock
▁levels
icro
▁views
isms
▁harm
▁colon
▁fellow
Bl
▁Franc
nds
▁Lee
▁laid
▁consum
▁security
▁established
▁wra
▁schol
▁seeds
▁Spe
▁soul
▁nut
▁blank
▁require
▁radio
▁ge
elve
orter
▁Trans
▁camera
ae
upid
inger
▁rele
▁Latino
▁dangerous
▁rules
▁lady
▁solid
▁Mattie
▁fiction
▁moments
▁gro
▁actual
▁authority
OM
▁Squ
▁served
▁streets
▁gently
arn
▁buyer
▁thank
▁glanced
▁individuals
▁Bel
▁trem
▁doors
▁heads
icago
▁task
cember
▁aircraft
▁Only
▁Where
osen
▁pocket
▁integr
▁nation
▁European
▁opposite
▁pil
ested
inking
▁fifty
▁descript
▁construct
oured
▁wonderful
**.
iverse
▁digital
▁-
▁Munn
▁poetry
▁useful
▁lit
▁member
raham
▁plastic
▁condition
▁Had
▁aside
▁flower
▁global
▁leader
owned
▁Rand
▁speech
▁unique
▁shouted
▁coal
▁England
▁bomb
▁begins
▁eating
▁demonstr
rid
▁pin
▁advant
▁justice
▁generally
claim
omach
▁Cons
▁rule
▁forty
▁Western
▁restaur
▁ru
▁pure
▁sounded
▁teaching
IG
illip
▁plat
▁cried
▁hidden
▁appreci
EL
mas
▁wis
earch
▁grabbed
fess
rate
▁Joe
▁hes
▁Did
▁Que
▁notes
▁consist
▁aband
▁favorite
hy
icate
▁exec
▁affect
▁addition
Un
azine
▁cere
▁circle
▁lifted
▁separate
▁OF
▁Mel
▁Canada
ita
▁unlike
Look
eding
▁anti
atically
▁tea
▁vot
▁stayed
▁families
▁transaction
▁consequ
▁recall
▁Im
kins
mann
▁drew
▁basis
▁▁▁▁▁▁
ulations
uk
▁uses
▁stomach
▁glad
▁River
izz
uries
▁multip
▁intellig
▁progress
asm
▁Henry
▁style
▁manner
▁successful
▁Nove
▁coat
▁meas
rigori
▁flesh
▁becoming
US
aud
▁wel
verage
▁stairs
▁dial
▁hide
▁stream
▁background
gging
▁bear
▁dism
▁burst
▁financial
ios
▁Ow
▁missing
▁promise
ober
▁Old
▁Rev
▁Fitz
▁sequ
earing
sson
based
▁promised
__
five
▁crazy
http
▁Each
▁lock
▁shif
▁categ
▁neighbor
hand
▁roll
▁relax
▁flight
▁pressed
anda
gels
▁Over
apping
olm
▁headed
▁passage
▁Mur
▁Kent
▁thousands
▁wear
▁taught
▁Sometimes
▁hotel
▁suppose
▁gather
▁finding
orted
▁rough
▁shirt
▁appropri
▁trade
no
igned
▁fool
▁fruit
▁desper
▁Jackson
Se
ibrary
▁Carol
▁critic
▁escape
▁narrow
▁recently
ils
▁ing
▁recomm
ola
▁maintain
▁Leo
▁agree
▁alt
▁copy
▁iron
▁lunch
▁rolled
▁ourselves
——
▁silver
do
ENT
▁Rob
lands
▁Mart
▁hoped
▁gotten
ught
▁shop
▁analytics
▁experienced
▁cy
▁gaze
▁pair
▁emp
▁webs
ipping
uments
▁Bosch
Okay
▁tongue
onna
▁ears
ctober
▁anger
pre
Every
itely
▁Walter
▁bottle
Here
enny
▁male
▁disci
▁mental
▁sacrif
▁primary
▁showing
▁Com
▁Dar
▁bud
olic
▁otherwise
▁management
▁failed
ka
fast
▁Karp
▁knees
▁quietly
▁creating
▁)
▁plane
▁union
▁discussed
cm
sed
▁East
▁juice
▁handle
▁conflict
▁contract
cont
▁jack
tering
mo
▁twice
clusion
▁officers
▁lad
▁joy
▁intended
eled
▁Jean
▁laws
▁stir
▁truck
mark
▁Max
▁threw
▁selection
▁ban
don
was
▁Pal
▁Louis
iveness
▁opin
▁Charles
isp
zed
▁Art
▁Good
ifying
▁visual
aron
▁wedd
▁push
▁emotional
▁Sw
▁Wilson
▁Russian
▁matters
ida
athy
ship
ounce
▁forg
▁hate
▁medical
▁refused
▁related
**_
cho
ein
uci
agan
▁damage
▁divine
▁precise
▁September
Mr
bre
orks
▁meat
▁roof
▁initi
Because
▁easier
▁region
▁shadow
▁nervous
▁perspective
▁lob
eling
Americ
▁stupid
▁seconds
▁suffering
goti
▁Stud
▁drag
▁scar
▁Arctic
ux
▁dozen
▁Winston
▁race
▁shel
▁dollars
▁December
itect
wards
▁Times
▁magic
po
azing
▁medic
▁anymore
▁workers
▁somewhat
adem
▁officer
▁pleasure
lor
▁Code
abb
▁Eric
▁Daniel
▁careful
▁freedom
ki
hens
▁eld
▁feels
▁inher
▁crossed
▁scenario
▁citiz
▁struck
▁west
▁prior
▁spect
▁adjust
▁features
▁training
▁countries
▁Oh
▁dance
▁veget
▁boat
ocolate
OT
pel
▁phen
▁purchase
▁correspond
▁recognized
▁hole
▁Bur
▁wid
▁Social
▁June
▁delight
▁smaller
▁attachment
illa
roll
▁forever
▁readers
▁rapid
aks
ella
▁elements
ulous
▁Adam
▁Mist
▁busy
itable
▁noise
▁experiences
stairs
erences
▁Spirit
▁products
▁rum
phone
▁paint
▁pra
while
▁accident
▁Po
olved
▁saf
▁economic
olid
▁circ
▁philosoph
war
exic
athered
ette
otic
▁dad
▁cann
▁importance
yr
IV
usal
▁Use
▁Jose
bru
▁je
rial
Tr
inem
▁acknow
▁tomorrow
ypes
place
▁July
▁fallen
▁hanging
▁describe
▁gas
eness
icient
▁birds
▁drawn
▁stuck
▁college
▁improve
spect
gments
▁female
▁Sergeant
▁carrying
bb
▁Dep
▁Tem
▁cho
▁ends
▁smart
▁video
▁answ
▁predict
▁deeply
▁values
▁Francis
arc
▁fly
▁libr
▁identify
▁happening
ourt
▁unless
▁signs
▁murd
▁loose
▁recognize
▁Rub
▁fault
▁staff
▁handed
▁conduct
▁user
looking
▁obviously
▁organization
▁Charl
▁arrest
▁receive
▁scr
▁Cult
anch
▁Hall
▁Mess
▁efforts
▁wire
▁identity
▁Look
illing
▁attend
apan
▁cig
▁tick
▁Union
orthern
▁Journal
bruary
▁stead
▁kissed
ategy
▁January
▁mission
▁La
icles
▁comfortable
eds
▁Ver
▁tim
oston
▁Commun
▁settled
uf
▁Mom
▁pill
▁patient
▁younger
▁circumst
ograp
▁fields
▁collection
ynam
▁Those
▁kinds
▁Review
▁increased
▁sword
▁Muslim
Journal
▁editor
▁strategy
▁discussion
father
▁items
▁panel
▁honest
▁status
▁Carl
▁honor
▁merely
▁convention
▁liqu
▁Alice
▁shoes
Even
▁Annie
▁worst
▁designed
say
▁rul
iform
ption
itated
▁defend
olit
▁root
▁equal
▁container
▁upper
▁sighed
▁Helen
▁platform
▁spr
icing
usted
▁journey
▁shrugged
Or
▁twelve
▁characters
othy
▁lawy
da
ga
arry
inate
▁asks
▁entr
▁compar
Thank
ointed
issa
ourse
▁negoti
cest
▁rot
▁High
▁cock
▁Mexic
gn
▁east
▁multiple
eder
▁policy
▁burning
▁du
term
▁Bible
▁village
▁education
▁dram
leep
▁phr
▁judge
▁bitter
▁accepted
▁listening
nic
▁rac
▁fought
rees
▁oven
fortun
▁plans
▁slipped
zan
▁Ob
▁cro
gypt
▁Test
▁occurred
▁childhood
From
▁nine
▁qual
▁Brown
▁offers
▁univers
▁Pet
erves
arrass
▁fifteen
▁drinking
▁generation
▁responsible
oom
▁Both
▁miners
▁essential
▁resources
Will
▁sem
▁teasp
▁cells
▁Chicago
▁November
▁bom
▁spir
▁capac
▁judgment
▁Work
▁active
▁variety
▁notion
▁Ice
▁struggle
▁performance
asant
xford
▁Jones
▁papers
▁Phillip
down
▁flav
▁innoc
▁wedding
clus
▁Reg
▁myth
▁driving
▁Its
mother
▁State
▁hoping
▁possibly
AM
▁rout
▁limited
▁memories
iance
▁calc
▁advantage
rence
▁Evie
▁buildings
orts
alcolm
umbled
▁daily
▁sheet
▁Confuci
▁fashion
▁partner
▁suggests
rog
▁hill
▁ghost
▁Virgil
▁claimed
mond
▁Japan
▁houses
▁bathroom
water
▁cars
▁throw
▁title
▁decide
▁orders
entially
▁October
▁surprising
andy
▁diss
▁flying
▁Profess
▁effective
▁temperature
▁vac
urance
▁smiling
▁forgotten
▁Go
oday
▁Min
▁helps
▁network
▁religion
can
▁Before
▁Christmas
▁ske
▁Though
▁somebody
acles
▁balance
▁apparently
olt
▁skills
▁provides
spe
born
cast
▁Step
archais
ala
▁Fil
▁sou
ilian
▁sevent
▁Library
▁victory
▁greatest
aumarchais
▁habit
▁trial
▁formed
athaniel
urb
icken
▁degree
OL
leg
▁Sar
▁cas
▁Egypt
▁paused
▁perfectly
▁differences
ements
▁storm
▁height
ht
ped
anging
▁accounts
▁additional
acks
▁doct
▁finish
▁falling
AF
▁discover
▁Books
▁entry
▁Another
▁healing
▁Sea
▁gar
▁cash
▁hors
▁Democr
▁accomp
▁defe
▁thanks
▁embarrass
▁appearance
▁determined
▁Gold
▁coast
▁remove
▁aspects
▁gathered
emon
▁chap
▁numer
▁achieve
▁presentation
▁vend
idents
ighter
▁shaking
▁exercise
▁Dead
▁gift
roduction
▁AND
▁plate
ensions
Darv
ours
▁tag
Darvid
▁student
▁introduced
den
▁myst
▁tent
▁Adams
▁advert
▁desert
▁fright
▁removed
▁negative
Ab
▁pink
▁relief
▁Lev
▁studio
▁wealth
▁focused
ogue
▁bab
ties
lessly
Pro
▁Still
▁observed
ixture
▁fixed
▁gonna
▁advice
▁nobody
▁warning
Come
▁proud
▁pictures
▁President
▁scientists
▁Fred
▁lies
▁Greek
▁teacher
Me
Book
icon
▁existence
ompl
▁strateg
inder
century
▁nearby
oln
▁sen
▁vul
▁impl
▁Society
▁Day
▁Ital
▁missed
▁thinks
OS
▁Ken
▁Sab
▁Marl
▁proceed
▁breathing
▁unw
▁possibility
God
sem
van
agon
▁weather
▁violence
▁tal
▁unus
▁inner
▁mixed
Ed
▁chief
▁crime
▁descend
▁mas
▁commit
ications
▁Clara
▁Polit
▁anywhere
tta
▁gain
▁uncom
▁administ
▁mountain
inese
▁Line
▁territ
▁uniform
▁Bal
)—
ache
▁Arn
▁wooden
▁sam
ether
▁funny
▁roots
Pe
▁Gar
▁ride
▁literary
THE
▁beauty
▁release
▁circumstances
apes
cons
▁**_
▁rat
▁tor
isher
ginson
▁starts
▁experiment
bel
ipe
▁poet
▁resc
▁location
▁suck
ateful
▁February
▁insisted
▁Analytics
yal
▁blow
▁rear
▁laughing
▁approached
rich
itter
▁pref
▁changing
,**
weh
▁McC
▁cow
▁flag
▁driver
▁prayer
▁painting
▁TH
▁Big
raged
▁susp
▁explan
onom
▁Sav
▁Stan
▁wave
▁greet
▁swall
▁Dis
▁navig
▁allows
ints
oral
▁Mill
▁elev
▁pool
▁vast
▁strike
▁everywhere
zi
ender
▁Lady
▁Scott
usiness
▁safety
▁arrange
▁library
▁bringing
▁forehead
▁Ly
anche
▁Mont
▁adop
▁beer
▁assumed
▁benefit
▁closely
▁intense
▁wrapped
▁architect
law
▁plain
▁squee
▁column
▁credit
▁Yes
▁rice
▁remaining
▁absolutely
elf
▁Bo
urse
iders
▁bless
▁trick
artment
▁presented
ye
▁gall
American
▁Dad
▁rent
▁sail
▁dying
▁accompl
▁passing
hest
incoln
▁incred
▁visible
ums
erry
rated
orical
▁chann
▁extract
▁sleeping
agn
vis
▁Bart
▁boss
▁photo
▁Second
▁imagined
▁revealed
real
▁vent
standing
▁electric
▁literature
▁Christopher
▁Del
adron
iable
ET
▁Ham
inced
iques
tical
▁embr
▁unable
▁average
▁figures
▁healthy
▁hundreds
riors
▁Mass
▁fasc
itched
▁tools
▁Papers
▁terror
OW
cr
▁Mic
These
▁flew
▁suppl
ns
▁sav
▁rooms
▁Offic
▁baking
▁minister
▁shooting
verse
▁flash
▁leads
▁sisters
▁solution
AD
wing
▁Nora
▁stands
▁instant
▁passion
▁permission
avery
▁symp
▁encoun
▁locked
▁Tom
▁menu
▁cheese
▁excell
:_
▁enth
▁appropriate
▁Sl
aisy
they
▁Dam
▁enorm
▁faint
▁sauce
▁released
▁activities
Qu
▁hyp
▁map
▁imper
▁acting
▁requires
enced
▁helping
▁une
umber
▁minim
ishment
▁beings
Mc
rete
zing
▁Land
▁metaph
Am
▁Anne
▁Vict
▁plenty
▁chocolate
▁emotion
▁website
▁writers
▁rom
▁sir
▁mort
▁peer
▁cheek
▁woods
utation
▁failure
▁reaction
▁vamp
▁burned
▁marked
▁challenge
▁Det
▁Pass
▁toss
▁reminded
ca
▁Flor
▁commer
▁golden
▁Central
▁sources
▁examples
▁exchange
▁newspaper
▁patterns
▁Ell
▁hom
ashing
▁Mount
▁chose
▁youth
▁begun
essions
▁bloody
▁Spanish
▁selling
▁restaurant
wall
▁tow
▁guide
▁raise
▁During
och
opy
usi
Once
arly
▁bul
▁damn
▁loyal
▁recon
▁Chinese
cean
greg
icit
▁vote
▁drunk
uscript
▁leather
alle
▁chosen
▁online
▁Arab
▁Norm
▁mood
▁prove
▁lat
▁fairly
▁transfer
▁environmental
azed
▁script
▁mixture
force
aturally
▁creation
▁protection
▁IN
▁Out
▁nod
▁nuc
▁audit
▁extremely
inted
▁tape
inging
▁citizens
],
han
enly
▁Barb
▁stars
his
▁CE
eline
▁duty
▁magazine
▁exha
ivered
▁Grace
osm
▁sche
▁Jefferson
mpt
ench
▁Germ
▁totally
▁recorded
nam
uten
▁description
▁disappeared
Sp
▁Lake
inating
▁checked
▁illustr
ini
gger
▁wip
▁persu
▁opinion
▁According
▁waste
▁argued
▁investment
una
ipment
▁terrif
▁compared
▁Revolution
▁Tam
▁overw
▁killing
▁tu
ieth
▁flow
▁accur
▁apply
▁ninet
▁Sabrina
▁consciousness
▁Rog
▁rein
iments
▁assume
▁overall
▁brothers
▁breakfast
bec
aude
▁Grigori
▁traffic
▁knock
▁anticip
▁establish
▁everybody
▁department
▁application
▁professional
rian
While
pring
ucked
▁leaf
▁pour
▁sweat
reement
ollywood
▁defense
▁pulling
▁scholars
▁construction
▁dogs
▁admit
▁shift
▁bridge
▁crying
ugs
▁Kn
▁Get
onnie
▁Billy
▁Logan
▁teach
▁dimension
▁Dan
▁Jon
▁pul
▁cake
▁club
▁Finally
▁objects
▁practices
Like
▁Three
vention
▁Joseph
▁horses
▁Internet
▁announced
ker
▁Time
▁slid
levant
▁Never
▁boots
▁ideal
▁formal
▁observ
▁distract
▁election
▁TO
Somet
▁Hill
▁prem
▁Boston
▁angels
▁Mistress
▁ain
▁ded
▁voices
▁Professor
▁Bi
istry
▁hook
▁exped
▁selected
▁international
ailed
▁meal
▁sake
▁sole
▁wake
▁sched
▁candid
oir
acter
▁Such
iffany
▁Civil
▁Indeed
▁latter
▁convinced
▁documents
abis
iana
udes
inent
▁Thus
▁Oxford
▁soldier
▁offering
▁tracking
Per
▁Mem
unning
ulating
▁lovely
▁fan
▁claims
▁engage
▁referred
▁Cambridge
▁Nathaniel
▁processes
▁identified
▁Ot
rous
▁lip
▁fulf
▁jacket
▁supply
▁Ir
rick
▁Also
▁harder
▁factors
▁benefits
▁universe
eks
roup
estic
▁China
▁mothers
▁connected
venant
▁saved
▁Edward
▁Inc
▁Mal
iently
▁eager
▁adults
▁planning
▁scientific
▁Sen
istics
▁uncle
▁Malcolm
▁declared
vv
▁Pri
▁Tar
▁unit
▁genes
▁marry
▁Temple
▁shouldn
▁employees
▁sets
▁Bob
▁instinct
TM
rem
▁Ros
▁Lanc
▁Under
▁polic
▁clut
▁crim
▁glance
struct
▁responsibility
irms
▁sust
▁emerg
ologists
mony
▁cloth
▁deliver
▁demanded
▁highlight
▁operation
Go
▁bent
▁adapt
▁equipment
omed
▁Lyn
▁Right
▁compound
▁Beaumarchais
▁earn
▁Higginson
encies
▁ought
▁software
▁intention
▁frequently
▁shr
aning
stein
▁India
▁cutting
▁studied
▁capacity
rant
ij
oto
point
▁till
▁Court
▁communication
Ad
▁row
▁cart
▁chem
▁chain
▁cancer
▁deeper
▁doorway
▁temples
▁subjects
iley
▁sne
▁Arch
▁item
▁guests
▁follows
▁survive
▁determine
Our
had
amin
eren
▁Tra
otion
stract
▁intent
▁spoken
▁enthusi
▁invited
▁mistake
▁expensive
▁Mil
ronic
▁Port
▁guns
▁fourth
▁powers
▁scared
▁CH
▁desp
▁dish
▁initial
▁friendship
AK
anny
four
▁Dou
aping
▁situ
▁listened
▁Confucian
▁relatively
two
▁Air
▁san
▁quant
▁County
▁ancest
▁treated
aine
ishn
▁grace
▁pleased
TH
▁Bu
▁soci
▁resem
▁compost
▁options
ogen
inema
ittee
▁Post
▁wished
▁article
▁planned
raph
▁Nothing
▁includes
thel
uits
scape
▁agent
▁films
Any
▁jumped
▁competition
ef
viet
▁subt
▁angel
▁decor
▁runes
▁ceiling
")
ois
works
▁butt
▁decades
▁enjoyed
ibilities
col
▁cups
esides
▁bigger
nda
xual
▁Ange
▁Duke
▁fired
▁micro
asingly
igenetic
▁Italian
▁rail
▁photos
▁weapons
▁flood
▁immig
amental
▁Company
▁massive
▁centuries
▁practical
▁:
adia
ilty
▁Sund
pected
▁grasp
▁Iceland
▁surrounded
akers
terly
▁gang
▁Again
▁dynam
▁constantly
rors
agger
▁grave
▁horiz
▁excellent
▁wondering
!_
Was
top
▁tail
ington
▁memor
ogether
▁ingred
▁physic
▁entrance
▁gate
▁Andre
▁oblig
▁advent
▁letting
▁symbols
▁distingu
▁encourage
▁reference
Mar
who
▁Rom
▁Bear
▁sees
▁border
rep
▁ast
clock
▁murm
▁lucky
▁spell
▁naked
▁wheel
▁movements
ogy
eman
▁acquis
▁client
▁Lindsay
▁communities
Hey
———
odes
pted
this
child
▁poll
▁bones
▁scale
acked
enses
▁hated
▁honey
▁weeke
▁rising
▁testing
RI
amber
▁Party
▁depth
▁rarely
Get
ria
aters
umped
▁cous
▁subm
▁tied
anches
▁marks
▁Lincoln
▁visited
ta
umph
▁trib
Before
▁Martin
▁phrase
▁breaking
▁independent
uls
class
sters
herent
▁twent
ologist
▁asleep
▁dreams
▁Latinos
▁Hollywood
bur
▁Jo
otes
road
▁veh
▁Four
▁element
▁overwhel
▁expressed
▁rare
▁sins
▁parties
▁director
▁laughter
ierce
▁clin
▁furn
▁Canad
▁implic
▁losing
▁feature
ban
heim
unes
▁perce
▁island
▁liquid
▁Messiah
fortunately
▁Sil
▁rang
▁assess
▁guards
▁volume
▁Angeles
▁answers
then
thur
ammed
▁Etta
▁Church
▁horror
▁climbed
▁ID
▁Note
▁drug
▁insp
▁typically
▁International
ato
▁Page
orders
▁owner
▁seriously
rait
▁sho
▁Publ
icking
▁graph
▁waist
▁corpor
ointment
▁excited
▁Christians
abeth
Although
▁glasses
▁manager
rah
▁ash
▁ate
▁Camp
▁landed
▁whenever
oyd
rum
....
ufact
▁Clay
usalem
▁faster
▁scheme
▁conservative
Two
▁Rec
▁bat
▁chin
▁biggest
▁Department
▁ST
▁Allen
▁beast
▁regret
▁Williams
rim
▁adding
▁muscles
inch
▁Los
▁impress
▁involve
▁extended
Pl
bal
▁epis
▁puzz
▁refers
▁Jac
▁cabin
▁domin
ym
aver
▁Eli
itors
▁Holy
▁argue
▁files
▁skill
▁attrib
▁ignored
▁liberal
ado
rag
umm
▁flu
▁signed
▁kingdom
▁confront
▁destroyed
▁searching
▁Eddy
▁divor
▁occas
▁buried
▁native
▁sought
▁Florida
▁capable
▁contemporary
igg
itger
▁core
▁giant
▁Lilian
▁Russia
▁interrupt
▁regarding
▁vir
▁earthqu
▁session
▁unusual
▁external
UR
inth
▁Ass
▁keeps
▁pregn
▁whisper
▁concerns
coh
iest
uine
▁Men
izabeth
▁phenomen
▁runs
▁Melville
lon
ishes
▁Harr
▁lift
▁plus
omatic
uddenly
izations
Ne
ket
▁jer
ichol
upp
▁Victor
▁brings
▁therap
▁advance
▁committed
Have
▁Ray
▁household
Ben
John
angle
inter
▁optim
▁Soviet
▁parking
des
coming
▁Daisy
▁Pauline
▁lightly
▁emphasis
▁recalled
▁describes
IR
Con
▁Cle
ennes
▁badly
▁clock
claimed
▁contains
pan
▁plot
▁poem
▁puts
▁ships
▁split
Another
▁neighb
▁consult
▁constant
▁enormous
▁ordinary
▁Emp
▁applied
CT
onym
▁seek
ishnah
▁confident
bon
uration
▁Research
▁completed
▁interests
htm
▁Put
▁Van
▁fab
▁edited
▁extent
▁advanced
▁Di
irect
▁Marx
▁Sean
▁dirt
▁eggs
▁Roman
▁eyebr
▁limit
▁Germans
▁replaced
▁teaspoon
---|---|---
osis
▁Data
▁fart
▁stim
▁Higgs
▁beach
▁palace
agers
▁Love
▁aest
▁buck
▁blond
▁proof
▁thigh
▁artist
▁insist
▁Bre
▁shake
▁expand
▁Captain
▁distrib
▁employee
lle
ora
case
orry
▁Mir
▁Pan
▁Flash
▁orange
▁Officer
aria
———.
▁Fre
osure
▁Nazi
▁Would
▁vulner
velation
▁marketing
▁previously
▁alternative
▁imagination
overy
ungle
▁abstract
worth
▁sale
▁stereotypes
unted
▁Long
▁Make
▁route
▁largely
▁revenue
▁succeed
▁immediate
▁expedition
fr
addy
iner
useum
▁Nick
▁cheeks
▁stretched
▁consequences
iat
▁Isa
ospel
▁inev
▁wand
onents
▁trail
▁emerged
▁regularly
green
Claude
▁holds
▁driven
▁testim
▁Franklin
▁territory
▁que
▁echo
▁Sarah
▁dining
▁invent
▁occurs
▁increasingly
▁intelligence
isa
uate
▁Fed
▁por
▁sigh
▁unex
▁reduce
▁weapon
▁Austral
▁Through
▁genuine
▁impression
fall
overn
▁brand
▁quarter
ustration
▁attached
▁Jerusalem
▁confidence
step
hemat
angers
▁inches
▁combination
hard
▁bond
▁dread
▁gle
erent
▁dirty
▁models
▁softly
▁mountains
OP
going
▁Cath
▁sink
acking
orough
▁slept
through
▁transport
cul
▁sed
inked
▁grim
▁edges
▁guilt
▁stiff
utenant
▁autumn
ognitive
▁anybody
▁pushing
▁symbolic
▁precisely
ST
▁Sn
▁Myrina
▁bother
▁heavily
▁slavery
▁secretary
▁explanation
▁transactions
ii
iva
▁craw
▁games
▁minds
▁unknown
eting
▁parr
▁waves
▁courage
▁welcome
sect
wich
▁drift
▁Sunday
▁fantasy
▁agreement
▁principle
▁gods
▁rand
terday
▁users
▁perman
▁warned
▁captain
▁economy
▁methods
sell
rical
▁Moon
▁debate
▁Without
▁defined
▁Linda
▁royal
▁guilty
▁gesture
▁tension
▁existing
▁majority
▁acknowled
▁Ep
irts
outs
▁corn
▁slide
▁Mishnah
▁ultimately
▁neighborhood
▁Eth
owder
▁Asia
▁lots
▁attor
▁faced
▁homes
▁sympt
▁upset
▁lawyer
▁inherit
▁conference
▁isol
Please
▁exposed
▁returning
Int
▁Er
aren
▁Ang
▁Str
▁fate
▁random
▁cooking
▁era
alone
▁worn
ivated
▁Power
theless
▁reader
▁reveal
▁surely
▁concrete
▁sacrifice
arity
asted
▁Royal
▁tough
▁Associ
▁ensure
▁continues
▁cultivation
foot
pson
▁dawn
▁steel
▁absence
▁ceremony
▁universal
▁instructions
riff
kward
▁proced
▁anxiety
▁engaged
▁largest
▁serving
▁tort
esting
▁democr
▁heading
▁records
▁interpretation
tained
▁Eddie
▁Light
▁Psych
▁react
▁shell
▁handful
▁creative
▁suffered
▁abandoned
▁decisions
▁surrounding
IP
pes
▁Es
▁Gal
angel
▁Inter
▁evident
▁sentence
heart
▁theme
▁withd
▁proved
▁suffer
▁discipl
▁spirits
▁screamed
bow
elling
▁costs
aco
icide
hether
▁facing
▁loving
▁clothing
▁Up
appy
word
▁Bay
▁bark
▁Event
▁attractive
▁fundamental
▁tur
▁lapt
▁Queen
▁moves
▁thumb
▁Custom
arge
▁Hal
▁Son
▁wisdom
▁manufact
▁Something
▁avo
▁fuel
▁mode
▁texts
▁afford
▁owners
▁teachers
OD
▁Hot
▁Spain
▁weird
▁wounded
▁southern
▁techniques
▁via
▁ment
▁corrupt
▁feeding
▁Carolina
▁pointing
▁responded
ibid
▁pit
uable
▁Bern
▁armed
▁minor
▁verse
▁player
▁awkward
▁Squadron
bar
▁disg
▁distant
▁sending
▁shadows
▁branches
▁entertain
adel
▁Baby
▁Prot
▁bone
▁Lynch
▁brill
▁hungry
▁briefly
▁frowned
▁routine
▁Business
Most
life
▁bast
▁summ
idering
▁causes
▁entity
▁reward
▁grinned
▁Imp
▁Sur
agues
▁icon
▁knee
aining
▁march
▁yours
▁commercial
quar
▁Off
▁Take
▁Wall
▁holy
▁spark
▁reprodu
▁handsome
tha
icted
▁alcoh
▁joint
▁widely
▁enemies
▁extraord
sm
▁shar
▁folks
imental
▁Nichol
▁resistance
bra
▁thri
▁intim
▁wanting
▁raw
inson
▁couch
▁finds
▁pilot
▁option
▁dismiss
▁equally
▁singing
▁thorough
Sure
iece
▁lake
unting
▁owned
▁literally
▁epigenetic
▁Lie
▁Yah
▁spin
▁cards
▁parad
▁Little
▁apolog
▁cities
▁muscle
▁planet
▁secure
▁Islamic
▁subsequ
▁typical
▁screaming
oma
ester
▁gasp
Christ
uthors
▁Child
▁Despite
▁figured
▁attacked
reck
▁cops
▁Group
▁Center
▁conver
▁thrown
▁emotions
aned
▁aid
acher
▁myster
▁vendor
▁recommend
▁Mo
gend
eless
▁Remember
▁primarily
olve
▁Keep
▁Maud
▁Tony
itudes
▁foods
▁telephone
▁Sa
vies
▁voc
▁frozen
▁deliber
▁explore
▁helpful
Ann
Eon
apa
ena
▁Hu
gent
ortion
▁Today
▁Which
▁rolling
▁▁▁▁▁▁▁▁
▁ultimate
▁ven
First
arant
▁Have
▁lect
▁yards
▁detect
▁properly
▁grandfather
mn
mail
▁Rel
▁Fort
▁Hell
▁hers
▁teen
▁champ
▁Science
▁filling
▁painted
▁admitted
▁frequency
▁psychological
▁Marg
▁relie
▁ridic
▁shame
aturday
uper
▁lap
unnel
▁Torah
▁manip
▁recip
▁compass
▁snapped
▁definitely
BA
ros
▁EH
etics
icial
▁excess
▁Marlene
▁attitude
▁confused
▁connections
regg
unte
iture
▁neat
▁Everything
▁conventional
xim
oked
▁palm
▁Julie
▁flock
▁manif
▁rapidly
▁worship
▁Francisco
iam
eous
▁Att
▁Dor
▁Jimmy
▁elder
▁contained
▁ingredients
even
▁Pers
oration
unction
▁variation
▁philosophy
EP
IDS
ource
▁mail
▁switch
▁illness
▁Beh
▁rhy
▁wings
▁poison
▁dancing
▁federal
xy
Ind
aya
▁ye
long
▁Greg
▁Creek
▁cheer
▁craft
▁writes
▁dealing
▁indicate
equ
burg
▁goods
▁Flight
▁curious
Gen
Which
▁Jane
▁diet
▁loves
▁chicken
▁occasionally
▁Us
aism
▁Cub
▁unh
▁Using
▁Letters
▁dragged
Des
car
▁Ty
▁Tol
▁jail
erning
▁shield
▁visitors
▁personality
▁specifically
orse
▁cris
▁intr
iation
▁dried
▁nurse
▁device
▁northern
▁encounter
▁structures
eney
▁hasn
▁swim
▁blade
▁ocean
▁explos
▁landscape
walk
▁soph
▁wash
erable
reggvi
▁buyers
▁movies
▁Hreggvi
▁reputation
aying
▁guest
▁nights
▁paying
▁sequence
▁naturally
AY
cipe
resents
▁grateful
▁uncomfort
—'
pled
enger
oster
Firing
London
▁alien
▁nowhere
▁generations
osy
▁fo
amps
lets
▁tab
▁Owen
▁drugs
itement
▁regist
▁relation
▁desperate
▁supported
▁increasing
▁destruction
berry
▁alarm
▁decade
▁elabor
▁lesson
▁closing
▁covenant
▁innocent
▁Testament
▁cot
▁acid
▁fist
▁jobs
▁obsc
orious
▁reass
▁Abraham
▁Canadian
▁ministry
▁represented
asty
▁YOU
▁Human
▁facts
▁paras
▁pride
▁landing
▁located
oded
quis
▁Bav
▁Rod
▁clo
▁voters
▁assured
▁payment
▁stronger
aws
comm
▁logic
▁Elizabeth
▁elsewhere
▁Aud
▁Wind
▁scan
▁Const
▁folder
▁directed
▁friendly
▁controlled
ommun
▁Viet
donald
▁Tammy
▁expert
▁dramatic
▁purposes
Pr
eff
aste
▁Serv
▁Grand
▁lemon
▁agency
▁tender
▁governor
▁ax
▁Sir
▁pants
▁plays
anwhile
▁concepts
▁creature
▁distress
▁partners
▁opposition
▁IS
▁FOR
▁Brad
▁mere
▁firms
Nothing
▁mobile
▁pounds
▁politic
▁trigger
▁Japanese
▁Christianity
vest
▁Lew
pless
▁Rose
▁annoy
▁incor
▁screw
▁demands
▁organized
▁Sun
▁Ahab
▁pron
▁rode
stream
▁absor
gly
phe
umps
▁boo
▁gut
▁wise
▁agents
▁colors
▁cleared
▁complicated
**|
arib
▁rif
riger
▁neut
▁angle
▁exhib
▁School
▁orient
▁prophe
▁funeral
▁Everyone
▁Tre
▁alb
▁unp
itate
▁cosm
ensity
▁Chris
Tiffany
▁regions
▁concluded
jo
rad
urd
▁Nap
▁Army
▁Liber
▁blame
▁Arthur
▁betray
▁attempts
▁chapters
▁recording
aus
cks
etch
iser
inction
▁reluct
▁signal
▁billion
▁weekend
Ah
nes
▁Nav
▁syn
uster
venue
▁rush
▁shore
▁laptop
▁Kh
omin
▁Harv
▁prote
▁Valley
▁combined
▁grandmother
.:
atal
▁Heb
▁Film
▁mild
▁Simon
▁Modern
▁Yahweh
▁request
awn
human
▁appe
▁Angel
natural
▁Script
▁preced
▁acquired
▁relevant
▁yesterday
▁conclusion
▁tie
ishna
Donald
▁cheap
▁lover
▁hallway
▁normally
▁proposed
▁discourse
isse
▁Ill
▁lic
▁Dick
▁Emma
▁Tink
▁silk
orient
▁Quill
▁topic
▁excitement
OV
ias
omme
▁gene
▁godd
▁nations
ila
nel
heast
hesis
▁Jeffrey
▁reduced
▁hesitated
ayne
ollow
▁batt
▁bite
▁grip
▁joke
▁fears
▁steady
▁crucial
▁players
▁reflected
▁developing
arse
from
athan
▁shots
▁waved
▁hiding
▁devices
▁numerous
Sm
obe
bell
pass
▁reck
▁sons
unched
▁Brand
osphere
▁category
ayed
obody
arette
timore
▁outer
▁Berlin
▁margin
▁highest
▁staying
▁commission
▁Sal
oning
everal
▁awful
▁compre
▁farther
▁technical
▁traditions
Hell
▁Rad
icism
▁wiped
▁reform
▁Southern
▁supplies
▁Republican
▁represents
▁automatically
▁acts
▁cher
blical
vation
▁Candy
▁nutri
▁panic
▁layers
▁Ol
udge
▁Kat
oland
▁folk
▁Empire
▁slaves
aneously
▁amazing
▁auditor
celer
▁Rock
▁blur
▁knocked
▁studying
▁performed
▁industrial
wed
▁Sat
▁impr
▁rect
▁alert
▁batter
▁classes
▁markets
phia
weet
▁Ari
▁Hamm
▁belly
▁feared
▁versus
▁Besides
▁cannabis
rude
after
▁keys
▁Larry
▁chairs
▁poured
▁accompan
▁touching
put
crib
keep
▁Dec
▁Luc
▁Mos
orage
▁belt
▁slee
▁Apple
▁Place
▁Tarzan
▁triumph
▁reaching
▁materials
▁appreciate
olph
▁enh
▁tip
inity
▁Liter
▁analy
▁basket
▁crisis
▁estate
cia
ded
Dick
odox
merce
▁Coun
▁Down
▁rocks
▁quoted
▁edition
▁Warriors
▁chemical
▁cigarette
▁dimensions
▁threatened
stand
utive
▁brush
▁Fitger
▁Norman
▁academ
▁projects
▁servants
▁spending
cut
esty
hent
▁Ott
tains
▁Steve
▁bunch
▁reply
▁eleven
▁Job
▁cha
▁Click
▁prime
▁stare
▁incident
▁superior
▁providing
umes
▁Haw
▁inch
▁Sally
▁Judaism
▁hurried
▁prepare
▁schools
▁millions
▁authorities
▁cul
there
related
▁powder
▁prices
▁leaning
▁Catholic
▁muttered
▁evolutionary
▁Sant
▁tang
▁perpet
▁rushed
▁McDarvid
▁upstairs
▁believers
▁unexpected
▁ww
▁End
▁Ori
▁www
otted
▁slip
▁Ethel
▁slave
▁corrid
▁hearts
▁fishing
▁Div
anting
▁Stage
▁thread
▁MacBook
▁default
▁arranged
▁refriger
ua
ugg
ureau
▁holid
rection
▁gunner
▁hunting
▁tightly
▁volunte
▁affected
▁operations
Col
lers
some
▁Fer
ellow
▁Rome
▁wrap
▁Young
▁packed
▁informed
▁creatures
▁delivered
▁nineteenth
box
▁cub
about
ifies
▁Ruth
▁doub
Ernest
▁climb
▁likes
ologies
▁linked
▁allowing
ko
boy
ege
▁Sk
▁rune
inding
▁paralle
▁survival
▁concerning
II
▁Beth
▁Fore
asters
▁assert
fit
▁Kar
▁Writ
▁Andrea
▁thrust
▁detailed
▁principles
CE
▁beard
▁scent
▁charged
▁depends
▁seeking
fa
Tell
▁Mun
▁mud
▁ibid
▁Later
▁chart
▁vague
▁speaks
▁charges
▁outcome
▁technique
▁Atl
▁tact
▁torn
▁breathe
▁twentieth
▁consistent
▁max
irmed
▁Does
▁Frid
▁Town
▁deleg
▁glory
▁painful
▁leadership
▁stereotype
made
olen
▁ren
▁pile
▁unlikely
html
ellion
▁Marsh
▁rates
▁arrival
▁authors
▁guarant
▁remarkable
eton
rier
▁Back
adelphia
▁nuclear
▁interpre
▁relative
▁Macdonald
▁uncertain
IF
sl
Jes
isible
▁Harry
▁gradually
▁sophistic
En
aft
▁Fra
ordon
▁Call
▁recru
▁settle
▁explains
▁Alexander
▁photograp
ava
isk
▁Far
▁jew
▁Jake
▁guid
▁maid
▁Jason
▁grief
▁properties
▁Association
▁acquisition
▁Ast
▁Den
▁Hon
▁Tex
cluding
▁fantas
▁stores
▁corners
▁exception
arest
▁alle
▁traveled
▁statements
Jack
Right
▁Hard
▁Turn
▁cycle
▁toler
▁arrive
▁buying
▁cooper
▁folded
▁stroke
▁shifted
▁district
▁meetings
▁profound
▁inheritance
AV
aser
aylor
liest
oting
▁choo
andler
▁Death
▁humor
▁captured
▁reception
▁manuscript
▁variations
▁significance
aily
ixon
ishop
▁herb
▁lung
▁acres
▁falls
▁renew
▁suspic
▁choices
▁constit
▁programs
▁indicated
tra
pers
rine
▁Ret
essel
▁Coal
▁eaten
ertrude
▁blocks
▁firmly
▁doctors
▁drywall
▁Margaret
▁Nicholas
▁suspected
▁conversion
▁reflection
▁situations
UT
Rem
▁Ze
arios
Thanks
▁advoc
▁babies
▁fierce
▁Merissa
▁clients
▁restrict
_."
Many
sley
throp
▁ease
▁tear
▁yard
▁Jesse
▁classic
▁messages
▁investigation
▁Ele
ATION
iency
▁Mexico
▁behavi
▁jungle
▁causing
▁invoice
▁shelter
▁striking
▁arguments
▁awareness
▁recognition
ura
▁III
▁web
▁cage
▁vital
▁Cooper
▁degrees
▁affection
▁colleagues
CK
▁Av
▁CEO
istle
▁cousin
▁purple
▁attorney
▁particles
▁Star
▁wing
arling
ricult
▁simpl
▁income
▁anxious
▁attacks
▁opposed
▁gathering
▁difficulty
AG
Dr
Take
▁Eis
▁Women
umbling
▁killer
▁sheets
▁alcohol
▁engineer
▁boyfriend
▁approaches
▁advertising
▁administration
BN
bye
▁exh
▁Wood
called
▁Exper
▁cruel
▁drank
▁irrit
▁surre
velopment
▁comparison
?**
oos
ifer
nial
▁Mond
▁frustr
▁twisted
▁humanity
▁Institute
▁happiness
▁standards
za
ader
lock
▁har
neath
▁Bell
aribel
▁assign
▁factor
▁divided
isl
ayer
onel
▁mal
haped
uated
▁lamp
seless
▁bitch
▁coinc
▁sites
▁accord
▁latest
▁Harvard
▁Timothy
▁beliefs
▁capture
▁considering
▁introduction
▁concentration
Fr
Sc
iar
oons
▁Ter
▁assem
▁awake
▁boxes
▁inhab
▁pause
▁straw
▁circles
▁portion
▁sharing
formation
▁aesthetic
▁definition
▁perception
Jim
Only
▁bend
▁instr
▁scrap
▁breasts
▁privile
▁violent
▁valuable
▁directions
▁photographs
OK
▁bor
ilton
▁Jude
▁pace
▁throne
▁segment
▁birthday
▁substant
▁Baltimore
ppy
Moby
gery
▁Kev
▁atm
▁Blue
▁mask
▁estim
▁explo
ighters
opyright
▁uncomfortable
▁Dev
▁Nik
almud
arked
▁indu
▁woke
▁granted
▁possess
▁shocked
▁Saturday
▁operating
vas
▁Sus
onent
▁spat
▁tray
▁ignore
▁strain
▁swallowed
Ke
▁tas
venty
▁flex
▁Stein
▁frost
fulness
▁Sharon
▁theore
▁Studies
▁trained
▁startled
▁confusion
▁officials
azz
met
▁ON
▁Op
etime
▁inqu
thodox
▁Lewis
▁shade
▁valid
▁distur
▁rescue
rose
▁bub
andal
▁ugly
▁songs
▁flames
▁airport
▁collaps
▁strongly
▁alongside
▁currently
eur
ige
gain
▁Bra
▁Met
world
▁Vol
▁gif
iated
▁Sand
▁pist
osystem
▁appeal
▁stated
▁string
▁lessons
▁extraordinary
igs
▁von
▁Home
▁corp
inceton
▁Please
▁creates
▁priests
▁brilliant
▁preferred
▁commitment
▁effectively
onto
▁Toby
▁lord
ottage
▁Italy
▁newly
▁sixty
▁Friday
▁riding
▁feather
▁regarded
▁emergency
▁testimony
raq
▁Ash
hings
stead
▁Jenn
▁cared
▁insult
▁kicked
▁simult
▁survey
▁disgust
▁therapy
▁whereas
▁reporting
oric
writ
▁Sub
ashes
atoes
▁Luck
▁Broad
▁tests
▁affair
▁casual
▁remote
inations
▁symptoms
mel
kers
▁bot
▁bree
▁damp
▁install
URE
More
▁Eld
arson
▁fond
▁outs
▁genre
▁maxim
igenous
▁Battle
▁Talmud
▁ending
▁repeat
▁victims
edy
▁fled
▁mour
▁effic
▁spray
▁Andrew
▁extend
▁seller
▁warmth
▁assault
▁occupied
Part
▁padd
erving
▁About
▁faded
▁merch
oosevel
▁Secret
▁vessel
▁yelled
aughters
▁rational
▁revolutionary
rup
▁Ha
▁tiss
urther
▁conqu
▁draft
▁milit
▁candle
▁insect
▁presum
▁fighter
▁traveling
uz
ador
▁Bas
▁fer
ollar
▁mile
isting
▁apost
Perhaps
▁Reagan
▁gained
▁shapes
▁protest
▁instantly
▁opportunities
lie
▁Jr
▁Key
▁Tur
▁rig
▁Road
▁Ruby
▁rhet
▁email
▁goals
▁stones
▁critics
▁Lawrence
▁positions
].
istan
ushes
▁bold
▁harv
▁rage
ismatic
▁copies
▁senior
▁strict
▁endless
▁sections
▁addressed
cel
nedy
▁Jem
▁ham
ectic
▁bags
ealous
▁opens
▁Hadley
▁gospel
▁parked
▁Johnson
▁spotted
▁sessions
emed
amily
gered
▁grat
acious
asting
▁aston
atching
▁recipe
▁sacred
▁stable
▁stranger
.'"
acon
utch
▁Kath
▁Luke
▁stab
▁displ
▁harsh
▁wrist
▁Master
▁foundation
▁Ah
▁Vin
▁witch
▁yield
▁budget
▁exclus
oosevelt
▁indicates
UL
ja
▁Web
achel
▁offs
▁accent
▁Someone
▁arrested
▁implement
▁publisher
▁reasonable
Cass
▁etc
▁upd
▁Wolf
▁dipl
▁skirt
▁Doctor
▁cinema
▁waters
▁commander
Po
▁Dig
iology
▁Moses
▁hired
▁queen
▁units
▁Hebrew
▁murmured
▁collective
_'
▁Ht
hist
rics
wide
white
▁Dark
lected
▁silly
▁wives
Finally
▁shower
▁climate
▁insight
▁raising
▁domestic
▁impressed
▁accompanied
osh
▁Cut
▁rope
▁retreat
▁Whatever
▁significantly
cup
▁GTM
onial
three
▁thir
idding
orters
roduct
shaped
▁Nadia
▁disag
▁overt
▁Govern
quarters
▁cognitive
▁collected
ela
▁Come
▁Gall
▁holes
▁stair
▁ladies
▁racial
▁lowered
▁portrait
▁prospect
";
▁–,
rell
▁Lam
▁Low
▁blew
▁jeans
▁poets
ivalent
▁defeat
commerce
▁dressing
▁medicine
▁pleasant
▁constructed
gers
▁Boy
▁gre
books
▁Alan
▁elim
▁lone
▁roles
gression
vironment
▁overcome
▁professor
eyed
oves
▁Stu
▁vig
inton
▁buzz
▁http
▁frown
berries
▁disaster
▁interior
▁struggled
▁underneath
▁successfully
▁Les
▁gap
isten
▁Next
▁pros
▁Water
▁apple
▁talent
▁undert
▁affairs
▁devoted
▁visitor
▁contents
▁reserved
▁independence
IM
la
gic
▁Ba
▁sheep
▁Martha
▁bacter
▁legend
▁mystery
▁Gertrude
▁explicit
▁necessarily
.:**
cult
iche
Black
Sorry
▁Gary
▁prev
▁vine
▁Could
erennial
▁Hammett
Act
App
eras
▁Age
▁gay
▁Move
▁fert
▁Alger
▁diary
▁tossed
▁Politics
▁eyebrows
▁invisible
uns
▁Id
away
▁Cre
▁Mim
▁deck
▁fict
orting
▁branch
▁jealous
▁backward
▁incorpor
▁inspired
▁mathemat
amn
when
pense
poons
▁Soon
During
▁error
▁Taylor
▁Indians
▁division
▁purchased
▁tablespoons
lec
anor
aran
umble
▁Dist
▁Hart
▁hint
ieties
▁chuck
▁grows
▁swept
▁cooked
▁College
▁accused
▁blessing
▁controls
▁covering
low
▁Aunt
▁Fact
▁rust
▁Class
▁realm
feeding
▁persons
▁criminal
EM
vin
page
▁Alf
Would
eight
liver
▁AIDS
estine
▁spite
▁Island
▁confirm
▁episode
▁particle
▁earthquake
▁frightened
Cont
arer
osal
▁vit
▁Fran
▁puff
▁scra
giving
▁Texas
▁bench
▁moder
▁clever
▁transformation
Gu
Vir
mind
uled
▁Hor
▁sits
▁Davis
▁transp
▁acceler
▁replace
▁stretch
▁pressing
▁disappear
▁organisms
▁atmosphere
▁describing
Mer
fin
onic
uddy
level
▁Sure
▁Techn
▁compe
▁crown
▁lined
▁tracks
▁rejected
▁survived
itty
rons
▁Tri
▁Iraq
▁cler
▁lawn
▁Middle
▁excuse
▁smiles
▁vampire
▁Thompson
▁depression
wr
▁ol
▁Sol
being
▁swung
▁praise
▁Matisse
▁Vietnam
▁achieved
▁silently
▁personally
indu
will
amped
▁Jenny
oriented
dis
oard
▁Est
▁Set
iosity
▁herbs
▁innov
▁strip
▁Gordon
▁attempted
▁considerable
▁characteristics
▁Night
▁param
▁romantic
▁shopping
six
Hard
west
▁Prop
▁pine
▁Jacob
▁brick
▁profit
▁washed
outheast
▁beating
▁Claribel
▁publication
▁hyd
ounds
somet
▁Evan
▁rhyth
▁stops
▁Rather
▁injury
▁novels
▁sample
▁Stephen
▁divorce
▁servant
▁colonial
▁involves
iger
ernon
▁chat
▁fabric
▁viewed
▁seventy
▁believes
▁wireless
▁assistant
▁challenges
▁orientation
ipt
▁Gus
▁Vis
▁bon
Bosch
▁Cook
▁hips
▁kick
▁vary
▁hyper
▁moist
▁conven
ographic
▁eighteen
▁essentially
bey
burn
▁Aut
first
▁Head
▁glow
▁sear
▁carpet
▁dishes
▁infant
▁chopped
▁pregnant
▁Roosevelt
▁flowering
acco
▁Tad
▁jaw
▁pipe
▁stem
▁Obama
▁score
▁limits
▁trapped
▁horrible
▁invasion
▁Lancaster
▁afterward
▁delicious
kl
ommy
▁Fin
▁Ven
About
▁Tell
▁incl
▁vibr
▁drinks
▁beloved
▁pretend
▁sensitive
▁Blackstone
▁approaching
IA
yes
▁sque
▁exists
▁rubbed
▁uncons
▁sunlight
▁newspapers
▁differently
ati
anes
▁sob
stage
ugged
▁Lisa
▁dece
▁Stone
▁sorts
▁steep
▁launch
iliation
▁parrots
▁vehicle
▁elevator
▁schedule
▁separated
ota
rub
▁CD
▁Hy
▁Rh
mbly
▁bay
▁tap
orial
▁gear
▁tale
estion
▁flame
▁skept
▁Choose
▁Damian
▁Owsley
▁carbon
▁clouds
▁Manning
▁grounds
▁guessed
▁Chandler
▁lighting
▁Philadelphia
▁representation
iri
free
Since
ridge
▁eleg
▁stub
astern
▁crust
▁steam
▁accurate
▁depending
▁furniture
idal
▁dat
chief
orous
▁bars
▁impul
▁centre
▁combat
▁cookies
▁interact
▁daughters
▁girlfriend
Lu
ntil
▁Free
▁heal
▁irre
sembly
▁Econom
▁Munich
▁interf
▁prepar
▁subtle
▁contrad
▁conducted
▁strategies
El
▁na
hole
▁ped
erior
organ
▁View
▁Found
▁announce
▁scenarios
AND
▁Qur
ummer
▁dict
▁fest
▁mercy
▁tasks
▁Health
▁System
▁define
▁weakness
▁Ecommerce
▁insurance
agu
aints
iches
▁dull
▁grey
▁sang
haired
▁Cross
▁brave
▁Steven
▁farmers
▁picking
struction
▁relieved
▁exhausted
▁expecting
zer
▁Sid
▁les
▁nom
▁Ball
▁Whit
Hannah
▁poems
▁quake
▁dollar
▁scenes
▁summon
▁Between
▁miracle
▁settings
▁receiving
▁punishment
▁od
uild
ribly
▁tank
essler
▁porch
liament
▁serves
▁comments
▁helpless
▁criticism
▁preparing
▁Lieutenant
HT
ano
Does
tion
▁harb
▁rend
▁soot
▁pecul
▁condem
▁convey
▁Abalone
▁attended
▁corridor
▁murdered
▁Ju
erer
oving
▁clip
▁warn
Laurie
▁Super
▁banks
▁femin
▁fewer
▁revol
ciences
▁Columb
▁severe
▁Dancing
▁Patrick
▁encoura
▁loyalty
▁measures
▁tendency
▁compassion
found
▁Mich
▁links
▁blanket
▁conceal
OG
armed
press
▁Sher
▁exile
▁decent
▁pencil
▁crowded
▁originally
▁translation
▁implications
ami
roc
▁FB
▁lux
oples
▁Cast
▁drama
▁Having
▁Vincent
▁aggress
▁organic
▁ecosystem
▁righteous
▁suggesting
anna
emin
▁tox
cific
sized
▁tips
▁urge
▁yeah
▁fires
▁hopes
▁schem
▁retrie
▁tempor
ifferent
▁Kennedy
▁examine
▁observe
▁belonged
▁throwing
▁IT
▁ank
▁thy
▁Open
▁Real
▁eval
▁Creat
▁motor
▁spoon
▁tower
itative
▁Culture
▁auditory
▁carriage
▁commonly
▁discovery
▁ridiculous
▁recommended
▁architecture
AB
SE
uzz
▁Fa
▁Gra
▁mock
▁wars
▁hypot
▁towns
▁propag
▁checking
▁translated
▁charismatic
▁experiments
").
vol
fire
ikke
orton
▁heels
▁overl
▁usage
▁Graham
▁resource
▁prisoners
▁responses
Never
▁News
▁cave
▁deny
▁bearing
▁delighted
▁functions
____
such
abled
andra
▁Care
▁pond
▁Early
▁fancy
issions
▁Public
▁covers
▁stages
▁stored
▁tunnel
▁fortune
▁fourteen
▁communist
▁offspring
▁scattered
▁distinction
▁OS
▁decre
▁seism
▁Should
▁breaks
▁valley
▁generous
▁encouraged
▁),
▁Ca
▁cu
uting
urches
▁devast
▁secrets
▁suicide
▁theater
▁earliest
▁university
▁transmitted
esis
urry
▁repet
▁caring
▁seated
▁shaped
▁shares
▁profile
▁metaphor
▁Scripture
▁perennial
▁thoroughly
MW
enh
elly
ften
rior
▁Joh
olding
▁stolen
▁residents
ethe
olds
▁Ross
▁hits
rained
▁amounts
▁channel
▁existed
▁relaxed
▁returns
▁examined
▁corporate
▁subsequent
abet
▁unre
aneous
▁diagn
▁drops
▁nerve
▁Randal
▁issued
▁scarce
ifications
▁embarrassed
acc
ona
fect
arlic
▁nurs
▁trim
velope
▁bored
▁cryst
▁lingu
▁patch
▁escaped
▁magical
▁cultures
▁launched
ographical
▁perceived
▁phenomenon
▁repeatedly
Out
jud
▁Vo
heat
load
faced
▁anch
▁duck
person
▁scope
▁aboard
▁refuse
▁Council
▁embrace
▁categories
Em
UN
iate
oding
▁germ
▁seats
▁bullet
▁profession
ds
oore
uros
▁lou
▁bits
▁pizz
▁peers
▁Jersey
▁dominant
▁shouting
▁identification
Mac
via
▁Hun
▁Viv
lined
▁Coast
▁Tyler
▁album
▁Series
▁desired
▁smoking
▁inherent
▁precious
Im
tw
▁Mid
▁Ren
Jesus
▁pulls
▁chances
▁producing
▁frustration
Edd
arks
ects
ieve
ouch
ghter
▁Last
▁prob
▁Cover
▁boats
▁chrom
▁wider
because
▁partly
▁sixteen
▁husbands
▁companion
▁followers
▁physically
▁sufficient
▁civilization
és
"),
icky
▁shy
anges
▁neur
▁rank
▁instit
▁visiting
▁candidate
▁dedicated
▁secondary
▁applications
▁disappointed
▁CR
▁Kr
▁ta
Still
▁Crit
▁fifth
▁spare
osexual
▁closet
▁virtue
▁halfway
▁utterly
▁Suddenly
▁historian
▁modernist
▁permanent
▁simultaneously
▁bru
homme
otype
▁subs
▁Jerry
▁brows
ouncing
▁manifest
▁objective
▁trembling
▁composition
ERN
ervé
uity
sight
trans
▁Main
▁exit
▁rabb
ailing
▁essay
▁grade
acement
▁Letter
▁garage
▁upward
attering
▁everyday
▁theories
▁Democratic
▁complained
▁participants
urp
▁piss
▁fence
▁rings
ecticut
▁Samuel
▁backed
▁blacks
▁flavor
▁lifetime
▁ma
andi
cers
archy
▁Plan
▁Soph
▁legit
▁traum
▁Academ
▁gender
▁legisl
▁shoved
▁findings
uv
▁Mod
▁gam
ichas
▁nuts
▁alter
▁pitch
▁roads
▁bastard
▁monitor
▁shortly
▁machines
▁increases
▁possibilities
ouc
▁ads
power
▁zone
atures
teenth
▁hills
▁index
▁walks
▁whale
▁smelled
▁registered
▁expectations
bits
cled
lete
▁Pop
▁loop
acular
▁patri
▁trace
▁Barbra
▁Connie
▁Romans
▁cotton
▁intrig
▁Charlie
▁thereby
▁interaction
▁surprisingly
RL
kind
ryce
▁org
endor
piece
Father
▁bowed
▁abrupt
▁Mexican
▁attitudes
▁curiosity
▁seemingly
▁Unfortunately
▁tub
lines
▁Asian
▁blend
▁miner
▁noble
▁skull
▁Keeney
▁Twenty
▁listed
▁vanilla
▁midnight
▁squeezed
▁mysterious
▁struggling
iso
ayev
▁Pac
▁Pil
Click
▁Chief
▁illeg
▁Office
▁annual
▁denied
▁artists
▁forgive
▁storage
▁presents
▁altogether
▁discipline
kh
Mad
Time
eddy
ilet
▁Vers
▁Thank
▁impat
archers
▁Author
▁Monday
▁Theory
▁themes
▁treaty
ountered
▁languages
ryn
▁UK
▁brut
▁dare
▁dign
umping
▁Grant
itarian
onymous
▁Savine
▁prosec
▁Several
▁fighters
omas
▁hol
ormal
▁Reba
▁obst
▁colour
▁ethics
▁prompt
▁cottage
▁council
▁crushed
▁ethical
▁factory
▁foolish
▁Moreover
▁adventure
▁resulting
Pat
Also
lend
Three
▁Phot
▁balls
▁devil
▁ignor
▁rifle
▁Oliver
▁Search
▁enable
cription
▁despair
▁western
▁breathed
▁envelope
▁modernism
▁referring
▁inevitable
▁encountered
▁interactions
Lind
Over
agel
▁Inf
arded
▁admir
▁empire
urrection
▁Australia
▁terrified
gener
ishers
▁Diana
▁Nixon
▁lobby
▁sanct
iography
▁orichas
▁princip
▁enjoying
▁parallel
▁neighbors
▁salvation
ART
omy
▁Du
inna
thew
▁Box
▁Neg
▁pug
ancer
▁Wild
▁summar
▁roughly
▁wealthy
▁bacteria
▁biblical
▁Princeton
▁revelation
▁institution
▁transmission
orns
▁jun
click
ppers
▁Beld
▁cort
▁acted
▁solve
holders
▁Poetry
▁sorrow
▁abandon
▁reaches
Something
including
▁basement
▁contempl
▁entering
▁prisoner
▁sensation
▁enthusiasm
▁vulnerable
EC
ERS
jun
apse
xton
▁fee
inkle
▁Isab
▁inex
Virgil
making
▁Astur
▁Field
▁artic
▁dwell
▁Within
▁whites
▁fulfill
▁minimum
▁recover
▁rituals
▁assigned
▁confirmed
▁formation
▁Connecticut
Sch
▁ga
ivan
rust
▁Ont
▁sway
anguage
▁Market
▁Origin
▁Vernon
▁argues
▁Kessler
▁damaged
▁operator
▁containing
Br
abs
Paul
▁hal
▁haz
▁debt
▁merc
▁rack
▁sank
▁zero
▁Hotel
▁Years
▁molec
▁Thanks
▁adoles
▁expans
▁sports
▁counsel
▁profits
▁sailors
▁generated
olis
renn
▁dow
▁diam
▁forb
▁hast
uffled
▁fever
▁loaded
ollowing
▁Ottoman
▁authent
▁choosing
▁Meanwhile
phy
▁Ul
rane
umin
ostal
auhomme
▁Contin
▁Intell
▁CHAPTER
▁convince
▁matching
▁interrupted
IE
olk
acus
emet
gara
▁Him
▁Kim
state
▁Girl
▁Lane
▁adds
▁cord
▁load
▁mart
▁shoe
ifully
igence
▁Blair
▁Nikol
▁duties
▁statue
etheless
▁equivalent
▁researchers
▁demonstrated
door
▁Hay
▁Imag
▁Mand
▁Rain
People
istent
▁talks
▁Further
▁Muslims
▁buttons
▁compens
▁disrupt
▁collapsed
':
Co
▁Pic
ommod
▁Lear
▁Prin
▁hunt
ardens
▁Similar
▁chamber
▁evolved
▁origins
▁crossing
▁delicate
▁employed
▁promises
▁elaborate
▁vegetables
Ge
Mary
ocal
unny
zens
▁Cir
annel
avior
igiri
▁rows
akespe
▁Being
▁demons
piration
▁intimate
▁controvers
ba
asso
eters
▁None
olitan
▁Organ
▁Third
▁grain
▁stake
▁veter
ilosoph
▁corpse
▁hunger
▁visits
▁Brother
▁cabinet
▁offices
▁exciting
▁imperial
▁reporter
Gl
_"
Sim
▁Ali
▁dil
▁dug
achus
ammad
▁Year
rolled
▁closest
▁exhaust
▁musical
▁interrog
▁observation
▁threatening
kel
uin
front
▁prec
atches
▁hered
▁multi
emetery
▁Antich
▁sooner
▁sticks
▁prayers
▁switched
▁maintained
La
hma
sch
list
ysical
▁kings
▁teams
▁Jonnie
▁Others
▁expend
▁plates
▁senses
▁neutral
▁planted
▁quarters
▁prominent
▁downstairs
▁association
Te
▁_"
Fitz
Wait
omic
asses
esley
occup
▁gifts
▁geomet
▁mixing
▁worlds
▁bottles
▁attracted
▁extensive
▁protected
hs
▁Li
neys
▁Arm
▁Bol
jamin
▁arrow
▁Donald
▁Rogers
▁Whether
▁Eventually
FC
sex
▁Ext
▁Walk
▁quit
engers
▁Satan
▁cough
▁Albert
▁Miller
▁insert
▁rhythm
▁tissue
▁fathers
▁composed
▁diseases
▁dropping
▁underground
Man
Spe
good
grad
igan
owski
gennes
▁Jules
▁Think
▁Connor
▁Present
▁venture
▁involving
▁Development
ét
ito
hire
loyd
rawn
▁Bed
▁Dun
▁nap
▁Colin
▁Karen
▁Treat
▁chill
▁infin
ificial
▁Barthes
▁arguing
▁elected
▁reminds
▁sharply
▁thunder
akespeare
▁Children
▁focusing
▁networks
▁policies
▁varieties
▁continuing
▁appointment
▁practically
SD
UM
iro
elin
ller
▁fog
▁Cone
alysis
ingham
▁Beach
▁Georg
▁panels
▁pistol
▁congreg
▁priestess
▁qualities
ILL
▁ber
Hello
Those
ennis
▁intu
▁obtain
▁safely
▁logical
▁passages
▁explosion
▁capitalism
▁influenced
▁expressions
va
Cam
race
elson
eston
▁bore
headed
▁Blood
▁Small
spector
▁behalf
▁earned
▁darling
▁lecture
▁shining
▁surgery
▁accommod
▁articles
▁stopping
▁assistance
Lev
aky
Coll
Hist
ials
unks
▁Ess
▁Papa
▁thee
Mother
cribed
estyle
▁Start
▁Roland
▁traits
▁essence
▁channels
▁peculiar
▁strangers
▁remembering
RA
bi
Bet
nut
hour
rels
▁oxy
ordan
▁vice
inting
istair
▁crisp
▁rival
▁slice
▁sniff
▁Morgan
▁actors
▁societ
▁wounds
▁dynamic
▁physics
Sometimes
▁Anderson
▁churches
▁patience
▁imaginary
▁temporary
▁communicate
rett
unic
▁Read
iences
▁hurry
▁surge
▁filter
▁firing
▁garlic
▁cracked
▁evangel
▁holiday
abilities
▁football
▁detective
▁nutrients
▁comprehens
Back
soft
▁Def
▁URL
▁Emily
▁shrie
▁Prince
▁dating
▁ethnic
▁Toronto
▁conspir
▁Russians
▁miserable
▁separation
jah
etts
▁Alg
▁til
impse
rants
▁Rout
▁infl
▁trap
ainted
However
angible
▁lonely
▁pillow
▁trials
McDarvid
▁monster
▁Columbia
▁produces
▁Southeast
▁suggestion
▁satisfaction
inks
▁Han
burgh
keley
▁Best
▁Form
inkled
▁Fraud
▁Story
▁funds
▁tries
Cassius
▁sovere
▁spaces
▁founder
▁Mountain
▁Northern
▁climbing
▁versions
▁supporting
sky
ghan
▁Oak
▁Bird
▁zomb
▁Among
▁Color
▁punch
version
lessness
▁package
▁protein
▁shallow
▁agricult
▁acknowledge
▁theoretical
Jul
alli
black
plete
▁fake
▁idol
▁tech
▁penet
▁vivid
oucault
▁Things
▁loudly
▁Conserv
▁winning
▁Political
▁exclaimed
▁indigenous
▁distinctive
ée
IGHT
▁lur
pling
▁Iran
▁Toll
▁caut
▁hous
▁Select
▁horrif
▁generate
▁accompany
▁acceptance
▁invitation
adow
▁Adm
Daily
▁Ford
▁Know
▁aunt
▁Short
▁Nobody
▁Square
▁clinic
▁peered
▁Pacific
▁blinked
▁eternal
▁peoples
▁portray
▁promote
▁trusted
▁measured
▁princess
▁disciples
ez
wa
yd
name
quet
▁Ref
Other
onomy
▁File
▁Hand
▁Josh
▁Resp
▁crop
▁tore
▁Roger
▁gazed
▁marsh
▁pulse
Despite
isation
▁Alfred
▁Museum
▁horizont
▁immigration
▁intelligent
MA
did
gal
lem
agne
char
ttps
▁Six
steps
▁Cold
▁Lola
minded
▁Asuna
▁sheer
▁Avenue
▁posted
▁rubber
▁hospice
▁virtual
conscious
▁Vergennes
▁committee
▁satisfied
▁occasional
▁si
▁Club
▁Kong
▁swear
▁tempt
▁tribes
▁Dorothy
▁desires
▁printed
▁clearing
▁segments
▁thirteen
wen
▁caf
mates
▁elbow
▁souls
▁Arabic
▁deaths
▁format
▁formula
achusetts
▁biological
▁possession
▁sophisticated
assy
▁Cab
bound
▁Trane
▁cloak
▁lands
▁assass
▁marble
▁refuge
▁ongoing
▁resting
▁insights
▁sympathy
tan
▁Bru
▁Ten
▁Too
▁awa
▁beef
rating
▁Rubin
▁Susan
ciously
▁Howard
▁Murray
▁Person
▁brains
▁dialog
▁electronic
▁incredibly
▁references
▁underlying
War
yll
inny
tings
unned
uture
▁Fire
▁Sull
▁hood
▁award
▁deals
▁dimin
▁stall
▁swing
▁Remove
▁divide
▁ticket
▁blessed
▁comprom
▁approxim
▁framework
▁mechanism
▁paintings
▁impressive
▁politicians
▁refrigerator
bet
idel
otch
▁Nic
▁Leon
▁Very
▁gown
▁pleas
▁reads
▁pockets
ologically
▁occasions
PS
OUR
rip
▁au
Note
wart
▁NBA
apple
▁Give
▁disgu
▁swift
uhammad
▁Barton
▁Stella
▁correl
▁mighty
▁Atlantic
▁vanished
▁inherited
▁incredible
)_
EST
brid
clam
ucky
▁Ally
▁Burn
▁thou
active
▁dates
▁purse
▁Senator
▁besides
▁brushed
▁horizon
▁Timeline
▁meanings
▁democracy
▁initially
▁procedure
▁organizations
DA
Hi
"**
Sec
fare
only
▁Spr
▁ben
▁crou
▁obey
ptions
▁Judge
▁aimed
▁alley
▁risks
▁tense
ilation
▁Gerald
▁dozens
▁saving
▁slides
▁pageview
▁Nikolayev
▁extension
▁deliberately
ovan
▁Ron
▁Rus
▁sty
▁Corn
▁pant
enguin
▁Micah
▁altar
▁phase
▁pizza
▁shove
▁towel
▁urged
▁carved
▁contest
▁remarks
▁sandwich
▁vertical
▁writings
▁Nikolayevich
mil
idem
odge
▁Gab
▁Gre
▁Tag
obile
▁Gent
▁Nash
▁soup
▁Dutch
▁actor
▁breeze
▁nerves
▁tucked
▁glimpse
▁happily
▁Detective
▁overnight
▁boundaries
▁electricity
Fl
▁RE
coal
▁Pot
▁Try
▁Five
▁Rabb
▁ratt
▁synt
▁wishes
▁Clinton
▁periods
▁revenge
▁tremend
▁charming
Hel
▁AN
Very
oken
vity
▁McK
▁pig
▁eman
▁rely
▁chaos
▁crash
▁datab
▁embod
▁rolls
▁trash
ictions
▁incomp
▁reserv
▁worker
▁academic
▁cleaning
▁defeated
▁basically
▁fantasies
▁introduce
▁institutions
ATE
lly
ogs
▁AL
ener
mill
rists
style
▁Otto
▁bund
Myrina
▁bombs
▁toilet
▁Control
▁Special
▁Committee
▁Inspector
▁classical
▁spreading
▁Historical
▁unconscious
Jew
Par
town
ulus
▁Lud
ilant
▁Self
▁encl
▁oath
▁scul
▁tomb
▁Calder
▁seized
▁worthy
▁Confeder
▁contrary
▁mistakes
▁withdraw
▁efficient
▁concentrate
▁Nevertheless
bro
apel
▁mig
itled
mberg
ooled
ragon
▁****
▁Gree
▁bust
▁lion
Though
ppelin
▁flick
▁Johann
▁duplic
▁emerge
▁revers
▁Service
▁compare
▁payroll
▁slammed
▁Harrison
▁exposure
▁substance
▁virtually
▁transition
▁desperately
Fe
MWA
yard
▁Maj
▁lin
olves
ulent
▁Nure
▁beds
▁Dogen
▁collar
▁mainly
▁melted
▁Project
▁confess
▁inhabit
▁injured
▁displays
▁illusion
▁strategic
▁anticommun
▁behavioral
▁accomplished
VD
.'_
ras
thy
▁oh
▁py
▁bol
▁hem
hears
range
▁Quar
▁Word
Walter
▁charm
▁allies
▁fruits
▁traged
▁adopted
▁manufacture
▁headquarters
inf
uty
vet
have
inge
lings
▁Much
modern
▁midst
▁spots
▁trunk
ections
forward
itating
▁geneal
▁polite
▁Babylon
▁Matthew
▁Stanley
▁texture
▁psychiat
▁appointed
▁rejection
may
oust
▁Hat
ensus
▁Kill
▁Penn
▁garb
▁ling
▁shed
▁surf
▁Given
▁Labor
▁appet
▁Action
▁Darwin
▁pepper
▁Twitter
▁Palestine
▁identical
▁passenger
▁discussions
Put
hell
roft
text
▁unl
comes
angled
onsense
▁unders
ertainly
▁Fauhomme
▁Hamilton
▁critique
▁isolated
▁correctly
▁displayed
▁witnesses
▁populations
▁transformed
▁Massachusetts
MS
care
gram
oper
umed
▁gig
▁tob
▁Pant
▁downt
▁scram
▁steal
▁Jordan
▁burden
▁anthrop
▁cameras
▁nearest
▁overhead
▁theology
▁wherever
▁believing
▁conceptual
BS
iry
▁AD
aund
itle
vals
▁Jen
shirt
▁soap
▁ward
▁jewel
▁lungs
athetic
▁Proper
▁Return
▁rested
▁installed
▁forgiveness
▁identifying
dy
axon
onica
▁Gore
▁boot
▁comr
▁seal
incing
▁Pryce
▁gloom
agement
▁prayed
▁retail
Remember
▁Foucault
▁counting
▁suitable
▁artificial
Mrs
Ste
Fuck
amon
fuck
seen
unge
ieval
▁Amaz
▁Lloyd
▁utter
Grigori
▁poetic
▁Clayton
▁combine
▁counted
▁deserve
▁founded
▁useless
▁Muhammad
▁frequent
▁guidance
▁lightning
▁assumption
▁explaining
▁mechanisms
▁experimental
▁overwhelming
alo
esy
igm
Stop
post
umer
▁Jay
▁Len
▁Supp
▁nipp
▁wolf
amming
itably
reated
uously
▁diver
ressing
▁waving
▁readily
▁tobacco
istically
▁navigator
▁vegetable
▁accomplish
ref
uum
zes
empl
izer
▁ath
Words
▁Cham
▁brow
▁cuts
cation
▁curse
arently
▁modest
▁wicked
▁flashed
▁greatly
▁warrant
▁Tinnitus
▁).
lain
▁Fall
▁hier
▁Arend
▁Point
▁aloud
▁hence
▁Access
▁deploy
National
▁avoided
▁enforce
▁pursuit
▁improved
▁wandered
▁Nuremberg
▁engagement
▁Shakespeare
▁influential
▁Da
itar
oner
ussy
onder
▁UMWA
▁pose
▁Quran
▁accum
▁alleg
▁gorge
▁illum
▁spont
amiliar
▁ruined
▁forests
▁transcend
▁distracted
▁arrangement
elle
▁Bab
▁Haz
kered
verty
▁Nell
▁Daddy
▁backs
▁Juliet
▁exceed
▁farmer
▁fucked
olitical
▁candles
▁eastern
▁poverty
▁agencies
▁discussing
rowed
▁Karl
▁dock
▁raid
▁exerc
▁ranks
▁shiny
▁theor
▁Unlike
▁hatred
▁surviv
Everyone
▁Academy
▁Alistair
▁Benjamin
▁intensity
▁industries
▁meaningful
Acc
rat
▁OK
esame
inety
leton
▁Hend
▁dumb
▁gigg
▁glim
▁loaf
▁Rights
▁repair
▁thighs
▁expense
▁kissing
▁stuffed
something
▁bothered
▁collapse
▁floating
▁sidewalk
▁variable
▁assessment
▁percentage
▁potentially
WH
ih
Ger
aux
ira
mare
rock
▁Fif
▁ink
▁dies
▁Maver
▁Plant
▁Terry
▁camps
▁olive
▁palms
▁stack
▁Harold
▁criter
▁curled
▁elders
▁prohib
atherine
▁gentleman
?—
oof
▁rim
▁Roll
▁mate
enging
▁fluid
▁meals
▁suits
▁tribe
▁trous
▁Leslie
▁Nation
▁Porter
▁config
▁resent
▁tested
▁decline
▁derived
▁furious
▁joining
▁Orthodox
▁approval
▁faithful
▁terribly
▁linguistic
▁consideration
PR
Jan
sal
Rich
bted
▁Gene
social
uccess
▁Janie
▁creep
▁lawyers
▁reverse
▁sustain
▁Passover
▁acknowledged
▁contributions
cus
ikh
ilm
ques
were
▁Bad
▁Fle
▁Hab
▁Hol
gebra
icity
▁flee
▁ware
▁depos
▁Change
▁assets
▁courts
▁tended
▁Eastern
▁forming
▁goddess
▁greeted
▁sliding
▁Zeppelin
▁Mavericks
cf
ACK
Res
ali
▁hip
▁hug
▁iPh
▁oun
▁vel
anked
aware
seven
▁bake
▁conj
commun
igenia
lights
▁Freder
▁cattle
▁hugged
▁popped
phigenia
▁Neither
▁Isabella
▁collabor
▁celebrate
▁gratitude
▁involvement
bn
Red
ggy
irk
oli
▁Ide
▁Way
▁Past
▁lust
icular
orence
owered
▁Cinna
▁Ishma
▁Janet
▁Table
▁stems
▁Friend
▁Nature
▁Sidney
▁absent
▁oldest
Whatever
▁reminder
especially
▁ancestors
▁dependent
▁demonstrate
▁distinguish
▁fascinating
▁restaurants
▁substantial
▁disappointment
▁representative
TY
éc
ean
rin
auld
orus
your
▁Bow
▁Joy
▁crum
handed
▁gates
▁indul
pending
▁habits
▁Ishmael
▁Raymond
▁publish
▁indicating
▁intangible
CC
has
acts
▁bid
▁navy
▁ours
▁pots
▁sofa
▁alike
▁bears
control
ocation
▁Hunter
▁freely
▁gasped
▁locate
▁marvel
▁murderer
▁revealing
▁solutions
▁difficulties
pheus
▁Fair
▁amid
▁poly
▁snap
▁Micro
▁Trust
▁crews
▁salad
▁shops
ciation
viously
▁bishop
▁drives
▁oricha
▁Christy
▁concert
▁lifting
▁reveals
▁bleeding
▁expanded
▁intentions
▁journalist
roe
▁MA
cond
pres
rome
rove
wear
wild
▁lid
arthy
▁Elmo
▁Pent
▁cert
▁dual
arents
azines
▁favour
▁gloves
▁mature
▁spider
▁mounted
▁Robinson
▁searched
▁sticking
▁philosophical
ARY
FIG
yan
▁NE
▁ml
ifax
oped
pent
▁Non
▁Rud
engzi
leans
▁arts
▁stew
▁Teddy
▁snake
▁tends
▁Global
▁framed
▁admired
▁elderly
▁entries
▁flavour
▁marched
▁curtains
▁remarked
▁revenues
▁broadcast
▁ts
bury
▁Mah
upert
▁Dest
▁Lead
▁buff
▁dash
▁dorm
▁sore
▁Anita
▁Clear
▁Order
▁Santa
▁yeast
aration
▁Heaven
▁Justin
▁Nelson
▁Philip
▁banker
▁eighty
▁intend
▁prince
▁invented
▁historians
▁mechanical
▁narratives
▁Environment
▁conversations
cca
▁Ms
▁Ra
▁Ur
odus
▁Net
early
▁Stal
▁keen
▁nest
▁robe
heimer
mering
▁nasty
▁regul
▁pursue
▁shiver
▁thresh
▁Democrats
▁publishing
ptic
▁RAF
▁eds
▁fet
▁pad
▁boil
▁mast
▁mini
Thomas
▁Keith
▁mines
▁Except
▁exclud
▁immense
▁sadness
▁unhappy
▁suspicion
▁strengthen
▁transferred
."_
mit
anke
utor
▁gym
▁mos
uther
▁Bull
▁clue
▁cruc
▁Until
▁candy
▁syrup
▁tooth
▁jerked
▁Orleans
▁sheriff
iological
▁infected
▁magnific
▁computers
▁demanding
▁guarantee
▁strangely
▁celebrated
▁performing
▁characteristic
LA
Arn
hot
▁PR
than
▁CERN
▁Eight
▁winds
colored
▁Almost
▁Family
▁courty
▁advised
▁signals
▁slapped
▁catching
▁attempting
▁Constitution
ORE
▁GK
Give
▁eru
▁yog
ambod
▁Cher
▁Ohio
▁Poll
▁whim
▁Maria
▁Moore
innamon
▁bureau
▁hollow
▁louder
▁passes
▁verses
▁Barbara
▁alleged
▁lifestyle
▁reasoning
▁aggressive
hend
poon
Latin
cular
▁Case
▁Dise
▁Hosp
▁Show
▁pity
▁Rikke
▁motiv
▁stern
▁waiter
▁potatoes
▁Therefore
▁surrender
▁Commission
▁conscience
▁electrical
ANT
Add
▁Wy
Both
aire
ippi
yrus
▁CON
▁fans
▁ruin
▁Hervé
▁Perry
▁dense
▁Eisner
▁invite
▁dreamed
▁elegant
▁artistic
▁exploded
▁suspicious
▁consequence
Up
Mom
erie
lein
▁Ent
▁Gas
▁jar
▁mamm
▁numb
FIGURE
Script
elcome
weight
▁Reich
▁onion
▁Napole
▁Rachel
▁shorter
▁upright
▁MacDonald
▁seventeen
▁integration
abl
obb
asha
ools
seud
uter
every
▁Gust
anchez
▁cliff
▁theat
Letters
▁cookie
▁Halifax
▁carries
▁earnest
▁infection
▁instances
▁competitive
Sam
UCK
mate
roph
▁DVD
asive
ierre
▁Mama
▁dart
▁lobb
▁span
dollar
▁Uncle
▁corps
▁lists
assador
▁Carson
▁Finder
▁Golden
▁Sophie
▁admire
▁Account
▁Justice
▁ashamed
▁rounded
▁scratch
▁washing
▁reflects
▁trousers
▁departure
▁executive
▁sustained
Jn
▁Ho
Life
high
Tunes
shend
▁ages
▁beam
▁odds
▁pier
▁Anton
▁abuse
▁ruled
▁shaft
▁facult
▁laughs
▁mutual
▁oxygen
▁sculpt
▁selfish
▁stunned
▁contempt
▁succeeded
▁Collection
▁destination
▁interpreted
vy
hou
rak
edge
▁Doc
ansas
▁alph
▁goss
▁maps
▁plug
▁sage
▁toes
verend
▁accus
▁prost
▁reign
issippi
▁coarse
▁needle
▁shells
▁highway
▁proposal
▁components
▁tablespoon
▁tremendous
▁challenging
▁distribution
▁#
▁BE
▁SE
anne
ocks
▁Bon
olded
prise
third
▁Anna
▁Mort
▁Prim
▁Trad
▁bind
▁flut
▁lets
▁vest
▁Check
Madison
emption
▁deadly
▁echoed
▁parade
▁Federal
▁summary
▁tragedy
▁cemetery
▁associate
▁engineers
▁inventory
▁medicinal
▁experiencing
▁developmental
Ac
LY
fly
▁mic
▁twe
chers
▁jury
Poetry
icating
▁Isaiah
▁makeup
▁battles
▁curtain
▁maximum
▁District
▁delivery
▁disorder
▁relatives
▁witnessed
▁Manuscript
▁ow
beat
iano
ldom
nine
orie
▁Top
▁Lang
▁Oper
▁clen
▁ribs
ounted
▁Stand
▁drain
▁weigh
▁Palace
▁Stories
▁focuses
▁register
ortunately
▁scientist
▁societies
Ro
Cal
Dav
def
▁DE
▁WH
Comp
ovie
▁Gil
▁Mine
▁Orso
▁Text
▁gran
▁tack
Really
hattan
itches
▁Irish
▁abund
▁beans
▁quote
▁whisk
▁campus
▁inject
▁museum
▁patrol
▁tapped
▁Command
▁puzzled
▁abruptly
▁gestures
▁producer
▁resulted
▁stirring
▁courtyard
▁principal
▁psychology
Fig
err
ISBN
ante
tail
▁**"
▁Dur
agged
cling
illes
▁lane
▁proc
▁wool
▁Study
▁groom
▁Rebels
▁absurd
▁insane
▁thirst
▁belongs
▁exagger
▁insects
▁license
▁masters
▁placing
▁warrior
▁Egyptian
▁feathers
▁Communist
▁answering
▁campaigns
▁certainty
▁Gh
aval
otal
▁Loo
▁ski
▁tin
iolet
upper
▁Food
▁noon
irties
atement
section
▁Better
▁Michel
▁Number
▁damned
▁sensed
▁sticky
▁Bavaria
▁Lindsey
▁destiny
▁outward
▁dragging
▁reliable
▁locations
▁magazines
▁horizontal
▁processing
▁presidential
▁correspondence
Publ
entz
riel
▁Occ
▁Wal
▁voy
Again
Peter
proof
▁leap
▁slim
alcony
▁bride
▁fists
▁limbs
▁trips
▁Amazon
▁Memory
▁cortex
▁methyl
appropri
▁Polgara
▁goodness
▁permitted
▁similarly
amy
Could
Under
aryng
eches
▁Talk
▁Trib
▁eyel
encing
▁Oprah
▁bills
▁elite
▁idiot
▁ratio
▁twins
mentary
▁county
▁iTunes
▁underm
ennessee
▁acquire
▁privacy
▁rubbing
▁strikes
▁whoever
▁scarcely
▁footsteps
▁corruption
▁presumably
hi
psy
▁Ja
atus
pack
▁wal
atism
thood
▁Bush
minute
▁Blake
▁Dougl
▁Edgar
▁Elect
▁fatal
▁nucle
▁tales
▁wrest
▁Harris
▁Living
▁raises
▁shakes
▁disturb
▁forcing
▁madness
▁stumbled
▁Similarly
▁capitalist
Tw
Yet
ima
▁Ec
coll
▁cob
Hardy
endix
gines
ilipp
words
▁sadd
▁Brock
▁codes
▁gotta
▁Transl
▁mining
▁ripped
▁superf
▁balcony
▁digging
▁freshly
▁Cultural
▁entitled
▁managers
▁regiment
▁removing
▁shifting
▁execution
▁reactions
▁structural
ISH
rive
▁lun
frame
urned
rennan
▁Elody
▁cries
▁delay
▁sweep
achment
ishnaab
▁Cassie
▁Senate
▁commod
▁crimes
▁shifts
▁smells
▁glowing
▁percept
▁stations
▁necessity
▁frustrated
Eve
usk
acre
oria
▁Eug
ensed
peror
▁Play
▁pane
▁tide
terior
▁drown
▁taxes
▁wreck
avender
lighten
▁Quoted
▁phones
▁sprang
▁gallery
▁praying
▁assuming
▁swimming
▁encouraging
▁concentrated
Bill
apor
aton
▁Nev
oping
storm
▁Hoff
▁fits
▁masc
keeper
▁Ellis
▁Geran
▁coord
▁pills
▁wheat
▁advers
▁barrel
▁ginger
▁ladder
▁slowed
▁topics
▁recipes
▁ideology
▁warriors
▁nightmare
▁challenged
▁complexity
▁maintaining
▁approximately
NT
Old
iki
obs
run
▁"'
itic
tery
▁Sel
belie
▁Grey
▁nurt
acusis
ilized
umbers
▁Build
▁nails
endorff
retched
▁Afghan
▁immune
▁wheels
▁wildly
interest
▁blowing
▁experts
▁flowing
clamation
▁Nishnaab
▁troubled
▁activists
▁Literature
▁requirements
iox
fish
held
hips
▁Eff
scale
▁Comb
▁Left
▁chef
▁radar
▁spine
hearted
▁Penguin
▁reviews
▁strains
itionally
▁emerging
▁mistaken
▁vacation
▁elections
▁Publishing
▁pronounced
▁Mississippi
▁instruction
▁photography
Rub
Sem
iac
▁Has
plane
▁lime
fashion
▁Making
▁gardens
▁troubles
▁possessed
▁predicted
▁engineering
▁intervention
opt
utt
izar
▁ais
▁kne
actly
grade
▁Cuba
▁Disc
▁Java
▁Sara
▁oval
normal
uesday
▁Brook
cession
▁Future
▁equality
▁inclined
▁peaceful
▁radicals
▁gentlemen
▁Antichrists
▁examination
iph
▁nu
iary
iper
omer
▁Ald
getic
itage
▁mant
▁succ
▁crept
▁irony
▁Flying
▁Random
▁harvest
▁hitting
▁impulse
▁speaker
▁fragment
▁occupation
▁repetition
▁intellectuals
ITH
eav
edar
know
shot
star
▁Mum
▁Wac
Frank
Point
endar
ooped
reens
stick
▁clay
▁mans
▁Ident
▁blast
▁Garden
▁Rupert
▁exempl
▁solemn
▁tragic
▁garbage
▁metrics
▁Florence
▁alliance
▁injuries
▁appearing
▁rebellion
▁recovered
▁containers
▁pretending
▁questioned
BL
yer
Read
blem
ione
ucks
▁Edu
▁dub
▁laz
▁Kane
▁Magn
▁Save
▁Pound
▁curve
▁gloss
▁greed
▁stole
ustomed
▁onions
▁gripped
▁spilled
▁accessed
▁medieval
▁vehicles
▁pretended
▁Foundation
▁candidates
▁Republicans
▁establishment
uri
▁,"
▁Ga
gies
ping
▁Sue
Today
would
▁Hans
▁Hull
▁Path
▁abol
igious
ogical
resses
ulsion
▁Looby
▁Major
▁adequ
▁align
▁label
▁Arnold
▁drawer
▁ghosts
▁sleeve
Suddenly
ographer
▁columns
▁couples
Cambridge
▁stepping
▁descended
▁expansion
▁Charleston
▁companions
▁mainstream
Ev
Ma
IST
ico
▁SP
otle
otte
▁qui
acker
imens
plate
▁Expl
▁Sapt
▁lens
▁pupp
▁seam
▁seve
Evelyn
ounded
▁digit
▁facil
▁mouse
▁ninety
▁supper
▁Digital
▁colored
▁onigiri
▁Morpheus
▁entities
▁policeman
▁instrument
▁OR
Cons
Eddy
beck
ritz
wind
▁Saf
▁enl
fight
▁frag
▁hire
▁ties
▁Bobby
▁boost
▁dated
▁shone
penagel
▁beaten
▁gossip
▁relate
▁chromos
▁prosper
Hemingway
▁gorgeous
▁resolved
▁Tennessee
▁addresses
▁dismissed
▁conviction
SP
Pre
elu
pit
▁CO
▁DC
gency
iller
▁Piso
▁Yale
▁cats
▁fare
▁Medic
▁Regin
▁arise
▁flies
▁sadly
▁twist
▁Common
▁torture
▁acquaint
▁culinary
▁database
▁Townshend
▁assembled
▁threshold
▁Nishnaabeg
▁businesses
▁inspiration
▁overwhelmed
▁theological
aust
▁Dra
▁Hud
comed
ermas
▁Hein
▁Hope
▁Jere
▁Jess
▁prey
▁tube
▁Huang
▁Rober
▁prize
▁trend
justice
ulously
▁Indust
▁domain
▁preval
kerchief
ventions
▁Colonel
▁Nations
▁Working
▁rehears
▁resolve
ilization
▁glorious
▁regardless
BC
▁Ta
Miss
shit
ollen
▁Bald
▁Cost
▁Song
▁pump
Listen
omeday
▁cable
▁cauld
▁draws
▁gross
▁jokes
▁reson
▁urban
iversal
▁Anyway
▁floors
▁nurses
▁shoots
▁fingert
▁graphic
▁invaded
▁reinfor
▁romance
▁Reverend
▁downtown
▁preserve
▁classroom
▁concludes
▁investors
▁moonlight
▁operators
▁respected
▁sequences
▁straightforward
▁__
anim
oops
salm
insky
pread
▁Mind
▁bail
▁obed
▁Negro
▁arist
▁booth
▁pagan
▁Archer
▁Scient
▁lately
▁ragged
▁engines
▁illegal
▁driveway
▁overlook
▁supplier
▁teaspoons
▁acceptable
▁divination
▁instructed
▁procedures
Use
ube
▁Aff
isons
overs
▁Bank
▁Honor
▁Nazis
▁audio
▁setup
▁sixth
▁cultiv
▁danced
archment
▁Majesty
▁hostile
▁lighter
▁operate
▁consists
▁estimated
▁evidently
▁reinforce
▁reluctant
▁functional
▁Jacksonville
▁resurrection
▁breastfeeding
Car
Mon
Keep
▁Bry
▁Cas
▁Opp
▁inh
▁rude
usions
▁piety
Someone
angling
▁neatly
▁Algiers
▁Looking
▁altered
▁clicked
▁charcoal
▁graduate
▁administr
▁liberation
Med
ONE
Sil
rod
lvan
▁Hou
▁mim
▁owe
agram
apolis
change
▁Guard
▁Torak
▁arrog
▁cited
▁remem
▁shelf
▁unple
▁Warren
▁affirm
▁canvas
▁regime
▁Russell
▁drifted
▁enabled
idespread
▁cinnamon
▁kindness
▁celebration
▁representing
▁distinguished
pic
uer
...'
itan
rise
▁Sem
▁True
▁blog
▁coin
▁horn
▁lied
▁scal
Hitler
▁sober
▁wages
angular
ructure
▁Wesley
▁bomber
▁purely
▁Kingdom
▁dignity
▁retired
▁thanked
▁vinegar
▁whipped
▁prompted
▁vampires
▁practiced
▁Parliament
▁convincing
▁passengers
▁battlefield
▁contributed
▁negotiations
Com
gage
wick
▁beg
eries
▁grie
▁nods
▁spun
alling
▁dealt
▁gaunt
▁suitc
▁League
▁Morris
▁Report
▁Vivian
▁Wright
▁cherry
▁guided
▁legacy
▁rooted
▁solely
▁ceremon
▁scandal
▁suspend
▁embraced
▁snatched
▁welcomed
▁audiences
▁delegates
▁partially
▁protested
▁supposedly
▁handkerchief
PA
lad
Love
▁Pen
Later
▁synd
ermaid
liness
▁Force
▁Pilot
▁flung
▁ruler
▁trait
▁Bolshe
▁cursed
▁lasted
▁manual
arations
▁Picasso
▁failing
▁outrage
▁perched
▁threats
▁virtues
▁Marshall
▁baseball
▁interven
▁behaviors
▁measuring
▁commentary
▁conception
▁meditation
▁participate
ESS
kov
sub
Wind
okes
size
▁Ral
▁vom
itals
usive
▁Bert
▁Need
▁Todd
▁glue
▁semi
▁trop
sylvan
uddled
▁Saint
▁fleet
▁flown
▁squad
▁Angela
▁boring
▁fellows
Copyright
▁aristocr
▁narrator
▁socially
▁swinging
▁animation
▁countless
▁disturbed
▁finishing
▁corresponding
INE
rac
rec
why
Jeff
Shit
break
store
▁Fern
erness
irling
verted
▁Large
▁coach
▁scrub
▁stalk
▁reconc
▁smoked
▁Eleanor
▁chronic
▁diverse
▁prophet
▁ringing
▁Magazine
▁dialogue
▁attacking
▁proceeded
▁eighteenth
▁technologies
TO
di
AKE
Ber
avan
icts
plex
▁Kam
▁bos
▁unb
arkos
atell
▁cure
▁cust
inners
ourage
ranean
ursing
▁Payne
▁agenda
▁epidem
▁splend
▁Natural
▁caution
▁Berkeley
▁criteria
▁ignoring
▁parasite
▁quantity
▁stripped
▁residence
▁illustrate
▁preparation
BER
imm
▁AP
▁rue
athed
ingle
uston
▁Belg
▁Braz
▁drum
▁mall
urpose
▁toast
▁legion
▁planes
▁titles
sylvania
▁broader
▁schemes
alliarkos
▁opinions
▁organize
▁abilities
▁dominated
▁instincts
▁privilege
▁contribution
▁dramatically
▁vulnerability
eu
Rep
ste
Next
awed
kell
▁Adv
▁Guy
▁Wat
▁rav
acent
amous
esome
▁Mult
▁clar
▁fury
▁Anglo
▁prone
▁Surely
▁begged
▁filial
ignation
▁enhance
▁faculty
▁avoiding
▁doctrine
▁equation
▁managing
▁pounding
▁Manhattan
▁collecting
▁vs
Make
alhs
ingo
▁Hur
▁kil
▁ram
arrow
geance
▁Arjun
▁ankle
▁crude
▁rigid
▁Create
▁angles
▁endure
▁genius
▁noting
▁weekly
alhswith
▁AdWords
▁cleaned
▁scholar
▁claiming
▁clicking
▁cuttings
▁preoccup
▁saucepan
▁sickness
Washington
▁commanded
▁efficiency
▁widespread
PU
gie
sen
agle
▁Hop
▁adj
▁fib
▁tan
Deane
▁Iron
▁ribb
▁Haven
▁Pages
▁chains
▁depths
▁frames
pectives
▁intimid
▁matches
▁targets
▁yelling
▁assembly
▁lobbying
▁calculated
▁descendants
▁emotionally
▁mathematics
awa
▁Vi
conn
thir
▁Die
▁Pur
▁sip
amins
▁Requ
▁orph
enneth
people
vering
▁Baker
▁Faith
▁crush
▁obser
▁paths
avement
▁Factor
▁Irving
▁comedy
▁destro
▁Tuesday
▁amongst
▁convert
▁finance
▁weeping
▁hardware
▁opponents
▁physician
▁practition
▁concealment
▁politically
FK
OC
SS
angs
grim
omon
pret
▁Lan
▁mac
nicus
osity
udged
▁Godd
▁horm
▁tops
strong
▁Truth
▁ambul
▁dared
▁ruins
ancroft
▁Bright
▁Julian
▁noises
orenicus
▁Sanchez
▁crashed
▁diamond
▁wishing
▁Movement
▁Victoria
▁payments
▁Rebellion
▁exchanged
▁explicitly
▁appreciation
▁consistently
gom
rot
▁TW
qual
nergy
olley
▁Earl
▁Sign
▁pear
▁Judah
▁Kevin
▁pharm
▁tract
ortions
▁Inside
▁Yellow
▁ceased
▁rumors
▁seldom
▁activist
▁greeting
▁organism
▁prophets
▁publicly
▁Psychology
▁employment
Af
aki
eem
imb
MENT
comp
cope
imir
▁Bog
▁Dos
▁FBI
▁McM
▁Sup
▁Vie
▁elf
abbat
inois
▁porn
▁ramp
▁stag
▁tatt
blings
istles
▁Fried
▁Front
▁clips
▁roses
renched
▁Federo
▁Spider
▁compos
▁sucked
▁squeeze
▁tactics
fashioned
▁Routledge
▁cultivated
▁physicists
▁Introduction
▁developments
▁reproduction
▁comprehensive
Ant
iem
phew
▁Cow
▁wax
ersed
izmel
▁tons
necess
second
▁Hindu
▁clasp
▁stove
▁virus
▁behave
▁patted
▁urgent
▁Brennan
▁Krishna
▁Jonathan
▁Randolph
▁parchment
abe
dem
▁BC
Gold
milk
uded
unts
▁ech
▁gal
▁Crow
▁Wars
▁chim
▁pugs
▁rats
▁spit
flower
▁antim
▁coats
▁knelt
▁sunny
General
Through
Without
▁apples
▁diplom
▁extrem
▁nephew
▁persec
▁paradox
▁touches
▁complain
▁struggles
▁Pennsylvania
"'
fi
USA
▁MP
love
ripp
▁tum
▁Carm
▁Less
▁Navy
▁bike
itious
olving
selling
▁cannon
▁taller
Actually
▁Philipp
▁conclus
▁crawled
▁outline
▁seventh
▁Hatfield
▁Napoleon
▁consumed
▁parental
▁treasure
Everything
▁Philosoph
▁parenting
▁inevitably
▁magnificent
Rec
anti
isan
ttes
▁Ads
uming
▁Cann
▁deaf
boards
ophers
riages
uality
▁Devil
▁Yanke
▁Source
▁exotic
▁tastes
▁timing
▁waking
▁Kathryn
▁mattered
▁monsters
▁regional
▁Augustine
▁Iphigenia
▁fireplace
▁repeating
▁confronted
▁highlights
cow
Eric
uffle
▁Farm
▁fame
▁Brian
▁asset
▁cella
▁farms
▁mayor
▁Always
▁endeav
▁hybrid
▁leaped
▁openly
▁trading
▁Campaign
▁clutched
▁dynamics
▁featured
▁knocking
▁priority
▁summoned
▁Evolution
▁negotiate
▁sentences
▁Experience
▁proportion
▁protecting
▁substitute
▁anticipated
▁arrangements
▁photographer
Karp
bank
▁pas
chair
story
woman
▁Card
▁Draw
elines
gomery
▁aimer
▁prose
Richard
▁Cinema
▁crowds
▁curved
▁fridge
▁lovers
▁tasted
▁framing
▁clenched
▁deserved
▁spinning
▁Otherwise
▁converted
lightenment
▁contribute
▁improvement
▁inhabitants
▁nonetheless
UD
OOD
Rel
▁cf
Step
peat
▁pee
▁fork
▁heir
▁reun
Mattie
essert
formed
ources
▁Jaime
▁Seven
▁blown
▁intact
▁nutrit
etically
▁infants
▁jumping
▁slender
▁swallow
ictionary
▁Property
▁arriving
▁casually
▁clinical
▁notebook
▁recovery
▁component
▁intermedi
▁Australian
▁passionate
▁subjective
▁investigate
▁questioning
▁sympathetic
Che
klah
▁Bor
▁pod
Green
anton
orate
▁Meth
▁Tree
▁bald
▁loft
▁Ethan
▁ambig
▁catal
▁embed
▁erect
▁swell
▁weary
itivity
▁Beyond
▁aggreg
▁blamed
▁fortun
▁memoir
▁reflex
▁rivers
▁Gregory
▁Houston
▁battery
▁kidding
▁facility
▁sergeant
▁decorated
▁promising
▁unpleasant
▁descriptions
▁determination
Joe
cap
▁Ce
▁Ez
▁UN
▁Lab
▁Led
Billy
Smith
White
ettle
▁Bent
▁Matt
▁nail
izable
master
oubted
uating
▁frank
▁freed
▁spraw
▁attent
▁harbor
▁heroes
▁hyster
▁ledger
▁sailed
▁savage
▁slices
▁spells
▁Whitman
▁imprison
▁merchant
▁Following
▁champagne
▁innocence
▁motivated
▁pregnancy
▁stretching
Fine
cker
riet
skin
▁toy
▁Minn
▁Send
▁bour
entric
market
urning
▁Arist
▁Kevon
▁discl
▁etern
▁inaug
▁trays
▁punish
▁rounds
▁tilted
▁verbal
▁bullets
▁discern
▁filters
▁obliged
▁rendered
▁shattered
▁worldwide
▁enforcement
▁regulations
ieg
conf
left
sted
▁aer
▁ego
▁Kari
▁Paco
▁Pitt
▁knot
▁melt
▁Candi
▁revel
▁slope
▁Native
▁finest
▁hooked
▁poster
▁sealed
▁suited
▁Douglas
▁Radical
▁actress
▁fragile
▁vessels
▁heredity
▁misunder
▁narrowed
▁attending
▁behaviour
▁consumption
▁earthquakes
vo
_?"
aza
tem
▁EU
agen
ansk
▁Alt
▁Chap
▁apps
▁odor
▁Photo
▁aisle
▁canal
▁rises
▁Either
▁Ground
▁abroad
▁amused
▁errors
▁namely
▁shirts
▁tradem
▁Baldwin
▁costume
▁pouring
▁Princess
▁consumer
▁automatic
▁fictional
▁assumptions
▁countryside
Uh
Cor
cha
dri
net
opp
▁AT
▁Pak
▁kit
▁orn
▁pub
▁ric
▁unm
think
▁Ever
▁flip
▁rejo
▁Guide
▁Julia
▁Media
▁Pract
▁Starb
▁assim
▁entre
▁suite
▁gazing
▁Gabriel
▁drained
▁matched
▁advertis
▁approved
▁educated
▁grinning
▁stressed
▁pollution
▁hypothesis
▁supernatural
Cut
ICE
Mat
rer
▁AM
▁ox
Buck
fold
gate
▁Scot
▁coch
▁twin
▁advis
▁chick
▁pyram
▁sages
▁squat
▁surve
ounding
▁bewild
▁darker
▁glared
▁render
▁bombers
▁casting
▁embassy
▁growled
▁Bancroft
▁Behavior
▁deserted
▁gestured
▁thinkers
▁whispers
▁nervously
▁indication
▁encouragement
IVE
oft
sor
sts
▁LA
pton
rast
rnst
▁Inn
▁Ire
cover
eterm
udder
▁Budd
▁atop
▁nick
▁ripp
blentz
gerald
ulates
ursday
▁Theod
▁brass
ountain
▁junior
▁luxury
▁recept
▁tricks
▁berries
▁biology
▁backpack
▁memorial
▁basketball
▁emphasized
bu
pin
rix
▁PM
nings
▁Acts
▁Cock
▁Half
▁Mach
▁Priv
▁bisc
▁cute
▁pudd
▁verb
pelled
▁Bruce
▁Close
▁array
▁aspir
▁bites
▁males
▁shred
▁Danish
▁Dragon
▁incarn
specific
▁blocked
▁exhibit
▁haunted
▁terrain
▁Copyright
▁integrity
▁realistic
▁announcement
▁constitution
▁observations
▁philosophers
TR
▁TR
▁Wr
feld
hill
▁Moh
▁Ram
▁hid
▁tid
maker
▁Eden
▁wart
itness
▁clung
▁gover
▁motif
▁naval
▁Cambod
▁Monroe
▁deemed
▁discom
▁algebra
▁seismic
▁Habermas
▁Michigan
▁champion
▁genetics
▁intimacy
▁moderate
▁rhetoric
▁duplicate
▁realizing
▁stability
▁wandering
▁accustomed
▁Information
ZZ
Mor
Wil
▁Ya
Mark
coat
esar
icop
ithm
▁Ibn
▁Ker
https
rogen
stock
udhis
▁Were
▁mand
ioxide
screen
▁Lamar
▁Leave
▁Prize
▁clerk
Jackson
klahoma
▁Pierre
▁guitar
▁rented
▁wrists
oubtedly
▁adolesc
▁flipped
▁flushed
▁groaned
udhisthir
▁Represent
▁appealing
▁forbidden
▁variables
▁attributed
▁instruments
▁anticipation
riv
cium
cock
oots
pher
stra
▁bou
▁mug
▁bron
▁epic
▁herd
▁wage
▁Clark
▁Freud
▁Ghost
▁Karna
▁Rebel
▁meets
▁slipp
▁swamp
▁wears
▁wrath
▁Mengzi
▁Norton
▁Ruthie
▁brutal
▁retire
▁sector
▁Viereck
▁crystal
▁psychic
▁comrades
▁disappro
▁nonsense
▁outcomes
▁treating
▁continent
▁contracts
▁Apparently
▁compelling
▁protective
GH
bas
bery
both
vell
▁Jam
▁Wed
asper
▁Carr
▁Stre
▁canon
▁mould
▁picks
▁treas
igation
▁Corpor
▁filthy
▁locals
▁lowest
▁virgin
function
ribution
▁Wallace
▁islands
▁smashed
▁weighed
▁Response
▁magnetic
▁speeches
▁persuaded
▁immigrants
SA
▁HE
inis
stoy
type
▁Imm
▁JFK
▁Rap
Great
onies
prene
print
▁Rice
▁Room
▁Stra
▁Swed
▁quot
Second
nesday
▁Sound
▁bells
▁eased
▁fatig
▁landl
▁pseud
▁solar
▁widow
▁Amanda
▁Elijah
▁Toller
▁arrows
▁imagin
▁Genesis
▁Kenneth
▁Reading
▁lacking
▁partial
▁shelves
▁worries
anchester
▁Sciences
▁cauldron
▁feminist
▁sweeping
▁fragments
▁reporters
▁surviving
▁fascinated
▁resolution
▁attachments
",
Four
gard
▁Lay
▁asc
▁cyn
▁rab
Trans
alism
blood
itzer
odhan
uffed
venth
▁Zion
▁soda
arlock
blance
▁Often
▁flags
▁prick
▁sliced
▁upside
opolitan
uryodhan
▁Hopkins
▁centers
▁favored
▁restore
▁commands
▁gleaming
▁polished
▁Certainly
▁consumers
▁defensive
▁scheduled
▁slaughter
▁staircase
▁addressing
▁continuous
▁regulation
▁unfamiliar
▁suggestions
▁anticommunist
".
Nor
har
▁gn
Conn
Prop
bird
chen
nals
▁Kan
▁Leg
▁esp
Think
plant
▁Barr
▁Luci
▁halt
▁sexy
ardeur
lihood
▁Space
▁dusty
▁flush
▁robot
▁Import
▁conced
▁drying
▁prejud
▁turret
▁affects
▁borders
▁citizen
▁dessert
▁dresses
▁induced
▁mansion
▁notions
▁runners
▁Beldaran
▁Coblentz
▁Division
▁Language
▁McCarthy
▁Greenland
▁belonging
▁publicity
▁Stupenagel
▁motivation
▁organizing
.*
zo
ERV
▁_'
▁vo
Seed
abul
▁Fay
▁gau
▁spy
allow
itory
unken
▁Beat
▁junk
▁pork
▁Baron
▁retro
▁copper
▁strips
ognition
▁Borders
▁Ontario
▁Stevens
▁compete
▁fitting
▁perpetr
▁Algerian
▁daylight
▁episodes
▁accepting
▁purchases
▁slightest
▁beneficial
▁fingertips
▁integrated
▁whispering
▁exclusively
▁scholarship
▁congregation
▁nevertheless
!)
UE
AST
▁Os
▁SH
AKES
wife
▁Lot
▁Pour
▁Pref
▁lend
▁whip
mented
▁Gener
▁Isaac
▁Leelu
▁tents
▁Behind
▁Circle
▁Kizmel
▁bubble
▁traces
▁Clearly
▁helicop
▁postwar
▁recalls
▁witches
▁Consider
▁conclude
▁emphasize
▁primitive
▁unwilling
▁ambassador
▁settlement
▁frightening
▁spectacular
?)
Har
OOK
bag
deg
lee
too
airy
alty
▁Der
▁Hof
▁Wel
▁bin
▁lam
alted
iants
roach
▁List
▁Stew
▁cane
▁loos
August
▁Heart
▁Liver
▁arose
▁chase
▁deeds
▁nause
▁piled
▁catast
▁contam
▁echoes
▁thrill
▁editors
▁mermaid
▁nursing
▁warfare
ironments
▁Illinois
▁Probably
▁adjusted
▁dripping
▁steadily
▁imagining
▁conspiracy
▁solidarity
▁wilderness
,—
ARD
ERE
mes
rev
▁Ak
aman
drop
ecil
quin
rily
▁CRM
▁din
atisf
▁Kore
▁anom
▁roar
▁sarc
▁vain
ilight
▁Evans
▁adopt
▁fragr
▁piano
▁theft
▁unity
renches
▁blonde
▁humili
▁masses
▁puzzle
▁retain
▁roared
▁theirs
▁traced
ensively
▁Channel
▁conting
▁Together
▁actively
▁keyboard
▁obtained
▁stubborn
▁realities
▁influences
▁parameters
.")
adv
rok
anan
arms
ignt
onya
uffs
▁USA
ardon
opard
▁Vick
▁pans
filled
illery
irable
▁Mason
▁ambit
▁bands
▁crops
▁grant
▁liver
▁tween
arettes
▁Esther
▁Hudson
▁Parker
▁astron
▁beasts
▁boards
▁neural
▁sketch
▁Chamber
▁Gaskell
▁Supreme
▁colonel
▁descent
▁neglect
▁plaster
▁scanned
▁visions
▁persuade
▁settling
▁exploring
▁preserved
▁Montgomery
▁philosopher
▁preferences
▁representations
)**
apy
chi
tle
Brit
▁Sit
▁cel
▁hed
▁lod
izers
▁bulk
▁ensl
herson
onomic
▁Cathy
▁Lynda
▁Peace
▁Castle
▁Naples
▁hissed
▁peeled
▁pushes
▁soaked
▁timber
▁Imagine
▁Station
▁editing
▁vaguely
astically
▁ancestry
▁freezing
▁initiate
▁courtroom
▁characterized
GE
▁IV
elts
itzv
▁Bud
▁arc
edged
▁YOUR
▁styl
▁Begin
▁Lenin
▁Scrib
▁clust
▁feast
▁width
compass
uilding
writing
▁fitted
▁funnel
▁layout
▁mouths
children
▁annoyed
▁charity
▁handled
▁stroked
▁McDonald
▁civilian
▁youngest
▁Ealhswith
▁genuinely
▁reproduced
▁controlling
▁compensation
Mel
cre
▁Cra
▁pip
ignty
riers
agraph
▁Cohen
▁knuck
▁spons
▁stays
▁toxic
Chicago
▁Winter
▁kisses
iciently
▁Prophet
▁imagery
▁lasting
▁rushing
▁estimate
▁indirect
▁sideways
▁thirties
▁Duryodhan
▁excessive
▁advantages
▁thoughtful
FE
gue
seh
squ
——.
Barb
Each
Nora
ikes
ixed
omber
▁evac
belief
ieling
ugging
▁Fritz
▁beams
▁blunt
▁delic
▁risen
ressive
▁Harper
▁Newton
▁Portug
▁Thirty
▁coffin
▁doubts
▁transf
▁Believe
▁Indones
▁analogy
▁customs
▁eyebrow
▁renewed
▁Thursday
▁balanced
▁darkened
▁honestly
▁inferior
▁invoices
▁mutation
▁resident
▁secretly
▁slipping
▁strained
aryngology
▁Frederick
▁legitimate
▁navigation
▁officially
▁supporters
▁productivity
dep
lit
mor
nik
▁FR
Work
▁Ins
▁Row
▁Sky
▁dod
▁maj
Psych
adequ
again
aired
uling
▁Coul
▁limp
▁remn
▁sock
▁sung
houses
▁Laure
▁handy
▁hurts
▁votes
▁Bridge
▁Pentec
▁Repeat
▁calmly
▁humble
▁plague
▁proven
▁Getting
▁Records
▁deepest
▁glances
▁obscure
structure
▁Oklahoma
▁colorful
▁dreadful
▁railroad
▁realised
▁restored
▁commented
▁editorial
▁horrified
▁survivors
▁terrifying
▁governments
▁embarrassment
▁traditionally
.[
ALL
aska
blue
ggle
▁bob
eller
▁Shar
▁bolt
▁duke
▁grid
▁mush
prints
▁Ralph
▁Recon
▁Sales
▁athlet
▁trench
▁trucks
▁unfair
▁boiling
▁nodding
▁satisfy
▁stirred
▁applying
▁responds
▁sounding
▁Community
▁exclusive
▁injustice
▁cigarettes
Ap
cor
eded
mund
▁huh
ishly
isive
▁Marie
▁Tommy
▁float
▁heter
▁stamp
raining
tenance
▁Bureau
▁liquor
▁misery
▁poorly
▁precip
▁voyage
▁Writing
▁dioxide
▁doubted
▁sinking
fortunate
▁Jennifer
▁disagree
▁mentally
▁villages
▁defending
▁Yudhisthir
▁adaptation
▁disturbing
▁preference
▁measurement
▁enthusiastic
Ob
Tor
hin
Harv
Lord
Phil
cery
ianc
iman
▁Dub
▁Kal
▁Wic
dream
inals
rency
stant
▁Anth
▁matt
▁mint
▁mold
▁nois
▁peak
▁pest
▁repr
▁yawn
except
istani
▁gramm
▁recur
Pherson
itching
▁Moscow
▁castle
▁coward
▁relent
▁varied
▁harmony
▁screams
▁tempted
▁absorbed
▁calendar
▁declined
▁historic
▁reducing
▁isolation
▁Management
▁accessible
▁confession
▁discomfort
oan
Call
amel
heel
imal
requ
utsch
▁adap
▁cush
▁sals
▁tune
arring
phones
really
▁flows
▁sandw
▁Marian
▁eighth
▁nicely
▁sphere
▁trains
▁Manager
▁applies
▁reserve
▁snorted
▁trailer
▁calories
▁modified
▁websites
▁Charlotte
▁ambitious
▁complaint
▁concealed
▁Fortunately
▁cooperation
▁ideological
▁alternatives
▁historically
_?
Ver
mad
pat
▁NY
cuse
icer
▁Bhe
▁Bou
▁elb
amonn
cloth
guard
rooms
▁Rest
▁Tire
▁Week
▁oral
▁wipe
German
▁Cuban
▁Joyce
▁reapp
▁sport
▁swore
▁tones
▁Design
▁bushes
▁judged
▁laying
▁voting
▁Tolstoy
▁farming
▁funding
▁imposed
▁jewelry
▁railway
▁someday
▁starter
▁graphics
▁mourning
▁outlined
▁supports
▁targeted
▁uniforms
▁Government
▁Kalliarkos
▁Ludendorff
▁entreprene
▁importantly
▁temperatures
▁entertainment
ELL
LEY
Ser
▁RA
Lucy
affe
emen
ruit
▁Equ
▁Hum
▁Sac
ilize
ysics
▁anat
▁ecst
▁pars
▁prol
ecting
▁Music
▁cubes
▁ridge
▁stool
▁ascend
▁freeze
▁rulers
▁Brandon
▁begging
▁envelop
▁Economic
▁confined
▁divorced
▁feedback
▁festival
▁meantime
▁clutching
▁conflicts
▁depressed
▁ignorance
▁attraction
▁functioning
▁hyperacusis
▁realization
FP
IES
III
▁Kl
Five
fits
ifix
▁Pay
▁Say
▁Seb
▁pic
CTION
▁Nina
▁heel
▁math
pencer
spoken
▁Ghana
▁Parad
▁Whale
▁cares
▁clone
▁shudd
Merissa
▁Treaty
▁zombie
ervation
▁Herbert
▁Merrill
▁Solomon
▁longing
▁vendors
▁Campbell
▁Pakistan
▁believer
▁betrayed
▁brightly
▁contacts
▁handling
▁smoothly
▁Quarterly
▁limitations
▁permanently
▁surroundings
LD
](
ui
asn
gon
oks
▁AR
▁ya
Dear
bris
olfe
roit
▁Mall
▁Plus
▁scor
▁bizar
▁pairs
▁punct
itchell
▁juices
▁knight
▁licked
▁vacuum
▁Marcell
▁Tiffany
▁dispute
▁housing
▁resumed
▁teaches
▁Eldridge
▁Scribner
▁grabbing
▁opponent
▁Microsoft
▁Wednesday
▁fantastic
▁sixteenth
▁redemption
▁foundations
▁undoubtedly
▁associations
iti
Sean
asis
cked
keys
▁Hug
▁Sig
▁apt
▁kin
▁Okay
▁Prov
▁bush
should
urally
▁Nancy
▁badge
▁torch
▁wagon
▁Ariana
▁bucket
▁checks
▁cleans
▁denial
▁helmet
▁losses
▁shorts
although
▁Century
▁grasped
▁outdoor
▁receipt
▁sweater
▁departed
▁depended
▁planting
▁spectrum
▁unnecess
▁Victorian
▁Vorenicus
▁competing
▁examining
▁Fitzgerald
▁committing
▁popularity
▁devastating
VI
Bee
Dad
Div
ahl
ika
oqu
▁CS
▁pir
▁wag
Using
ogged
▁Sett
▁Vane
▁bulb
▁cham
▁loan
▁peas
hetics
udging
▁Stick
▁avail
▁pains
▁posts
▁sizes
▁socks
▁voted
anskrit
ittered
▁Compan
▁Tolned
▁gravel
▁stance
▁dangers
▁militia
▁Hospital
▁crouched
▁drawings
▁expenses
▁flashing
imensional
▁anonymous
▁conceived
▁staggered
▁compliment
▁likelihood
▁reflecting
▁expectation
▁fulfillment
▁seventeenth
▁mathematical
avy
tes
wan
▁..
▁Ni
auer
obel
ouin
▁Mas
▁sug
shine
▁Find
▁aged
▁arou
▁caps
▁coup
▁pean
▁rasp
▁ster
employ
▁armor
▁comic
▁globe
▁laund
▁leans
▁obliv
▁posed
▁smoot
istence
▁Luther
▁pissed
▁racing
arrative
▁Fernand
▁Thought
▁intrins
▁stagger
▁swollen
According
ifference
▁prophecy
▁thrilled
▁apprehens
▁extracted
▁paragraph
▁flashlight
▁beautifully
▁coincidence
▁considerably
▁subsequently
▁technological
▁responsibilities
CR
TE
Leo
hyd
mun
▁Cy
▁Ut
Alex
Such
lien
pool
▁fal
inery
regon
▁bapt
▁barn
▁bias
▁dive
▁verd
▁breed
▁exert
issance
istance
olutely
▁Hester
▁Taking
▁Wacune
▁burial
▁guides
▁parted
▁swords
▁Somehow
▁Tirelle
▁cluster
▁emperor
▁inadequ
▁specify
▁nineteen
▁squadron
▁suitcase
▁warehouse
▁environments
▁conservatives
▁interrogation
"?
hr
Les
VER
chs
ZZLE
▁bri
▁jam
James
death
rates
▁plun
ateral
berger
thirty
▁bloss
▁freak
▁synag
▁Harvey
▁facial
▁inward
▁ounces
▁patron
ositions
▁Bernard
▁Hunting
▁clarity
▁hastily
▁tickets
▁whistle
▁Actually
▁Contents
▁Stanford
▁circular
▁defining
▁genealogy
▁imitation
▁invention
▁parasites
▁democratic
▁emphasizes
▁homosexual
▁stimulation
▁similarities
▁architectural
▁participation
SH
Bel
die
far
▁FL
akov
oche
recy
robe
▁Roy
▁ape
▁umb
#####
Table
acies
inged
psych
▁ampl
▁taxi
▁wept
PUZZLE
urious
▁froze
▁incap
▁shine
▁Caesar
▁parrot
▁petite
▁recoll
▁scores
▁Frances
▁Mediter
▁appoint
▁blender
▁cousins
▁fingern
▁mirrors
▁vicious
▁viewers
▁Building
▁ambition
▁breeding
▁engaging
▁receives
▁supervis
▁withdrew
▁compelled
▁sentiment
▁assignment
▁exploration
▁shareholders
Que
sta
▁_(
Army
ands
news
rion
uels
▁Lex
▁vic
Cover
amsin
chant
vable
▁Deep
▁Isle
▁Vill
▁unst
▁veil
Anyway
Garden
Intern
abetes
urable
utable
▁bowls
▁filed
▁inhib
▁monst
▁scree
History
Phillip
▁Weaver
▁amazed
▁salary
▁flicked
▁flooded
▁growers
▁inspect
▁posting
▁wartime
▁borrowed
▁coverage
▁equipped
▁perceive
▁vocation
▁artillery
▁blessings
▁chemicals
▁civilians
▁colleague
▁offensive
▁startling
▁initiation
▁treatments
▁progressive
▁unfortunate
▁righteousness
SL
ws
cht
pot
▁ME
▁xx
uish
Ethel
Nadia
marks
salms
▁Edit
▁Pain
▁curb
author
istant
thouse
▁Eliot
▁Magda
▁agony
▁baked
▁careg
▁pione
▁scare
▁absorb
▁debris
▁lament
▁Medical
▁circled
▁kicking
▁railing
▁tearing
▁Colorado
▁energetic
▁expertise
▁legendary
▁Manchester
▁accounting
▁admiration
▁connecting
▁convenient
▁diplomatic
▁enterprise
▁positively
▁Furthermore
▁distributed
Ju
td
tis
▁ly
cart
elia
▁Bea
▁GOP
▁Loc
▁Mot
▁awe
▁mum
▁rib
Their
ennel
ortal
▁Noah
▁Sing
▁brid
▁chip
Boston
Having
Nature
sburgh
untary
▁Rosen
▁Works
▁blows
▁chips
▁scrut
▁spear
▁sprou
ulative
▁Regina
▁Venice
▁dumped
▁strode
▁wasted
▁Consequ
▁Islands
▁Tribune
▁calcium
▁debates
▁drivers
▁fearful
▁Kentucky
▁Starlock
▁Sullivan
▁bitterly
▁blankets
▁embedded
▁frontier
▁infinite
▁surfaces
▁McPherson
▁provision
▁reminding
▁scrambled
▁destroying
▁obligation
▁Preferences
TV
iy
én
Pol
Char
Maud
acer
also
ican
iens
rary
ubby
▁Sin
ricia
▁Holl
uffalo
▁Along
▁sends
▁tunic
Buckley
olester
▁Altern
▁Peters
▁Spring
▁counts
▁cracks
▁enters
▁heated
▁provin
▁velvet
▁Persian
▁backing
▁barrier
▁heavens
▁implied
▁implies
Christian
▁implicit
▁inviting
▁proteins
▁province
▁sweating
▁worrying
▁cardboard
▁occurring
▁reproduce
▁expressing
▁medication
▁reluctantly
▁Presentation
▁acquisitions
▁Mediterranean
gra
BUCK
aple
bler
pels
pron
stad
vely
▁RNA
Arnot
Inter
anity
jects
▁Mimi
▁duel
ximity
▁incon
▁maneu
▁oddly
▁plaus
abulary
prising
tically
▁Invest
▁longed
▁reckon
▁wander
▁Bedouin
▁emerges
▁floated
▁pilgrim
▁stained
▁sucking
▁wonders
Meanwhile
▁Brighton
▁Brooklyn
▁Question
▁appetite
▁aromatic
▁energies
▁marching
▁promoted
▁condemned
▁patiently
▁ecosystems
▁achievement
▁capabilities
▁practitioners
pa
ITY
mie
▁CA
Last
▁Fox
▁NOT
▁oak
Event
aders
their
▁Conc
▁Emer
▁Rick
▁amaz
▁begg
▁fade
▁limb
ifties
▁Chron
▁Klein
▁Stour
▁brace
product
▁Exodus
▁Method
▁creamy
▁joints
▁yogurt
▁Freedom
▁artwork
▁conform
▁liberty
▁needles
▁recruit
▁veteran
▁viewing
▁Governor
▁Veronica
▁blocking
▁chuckled
▁executed
▁flexible
▁glancing
▁lavender
▁phenomena
▁privately
▁teachings
▁Revelation
▁compromise
▁rhetorical
▁journalists
▁embarrassing
ho
.),
Dou
osa
anic
bone
ecum
elsh
eted
scar
▁Pam
▁Tan
▁coc
▁sup
erers
▁Harp
▁Zeal
▁ferv
▁foul
▁goat
▁lump
▁unch
▁whit
▁Dream
▁Ridge
▁burns
▁clues
▁inval
▁races
▁reper
working
▁mascul
▁overhe
▁Algeria
▁Marxist
▁Shabbat
▁loosely
▁minimal
▁Anything
▁Cassovan
▁airplane
▁bureaucr
▁crawling
▁relating
▁Education
▁confessed
▁requested
▁seedlings
▁perfection
▁maintenance
▁understands
▁straightened
▁interpretations
Art
gor
mal
tre
usp
▁iP
Kent
strom
▁Beck
▁Fold
▁Marj
▁User
▁crad
▁sire
anking
▁Aaron
▁Bring
▁Hazel
▁Hills
▁Ocean
▁ammun
▁chron
▁coins
▁glare
covered
hematic
▁Helena
▁Mooney
▁escort
▁glimps
▁oracle
▁uncont
▁Ireland
▁Stewart
▁punched
▁Standard
▁colonies
▁consolid
▁supplied
▁teenager
▁vitamins
▁celebrity
▁confusing
▁intuitive
▁neighbour
▁suspended
▁underwear
▁creativity
▁ecological
▁conclusions
▁incorporated
Tar
eda
iba
sis
ghed
oebe
open
seat
▁icy
▁Batt
▁Hong
▁Maya
▁Pred
▁feud
perial
▁grabs
▁linen
▁pinch
▁seeks
ructive
▁flowed
▁outfit
▁refres
▁satell
▁shudder
▁nutrient
▁siblings
▁Universal
▁portrayed
▁interviews
▁presenting
▁productive
▁appreciated
▁replacement
Big
ICK
iel
▁NT
▁hi
Half
Soon
iors
▁Kaz
▁Kuk
▁jet
World
fried
gence
▁Ivan
▁Went
▁hind
mmetry
ucking
▁Paper
▁compr
▁empir
▁flatt
▁spill
▁stark
ickered
perhaps
reading
▁Duncan
▁anchor
▁trauma
▁Workers
▁bombing
▁contend
▁generic
▁neurons
▁packing
▁secular
▁teasing
▁teenage
▁travels
▁widened
olesterol
▁eternity
▁restless
▁maintains
▁merchants
▁tightened
▁ammunition
▁encounters
▁remarkably
Sy
REE
Too
▁NO
▁ic
"...
serv
uana
▁Fig
▁Hoo
▁TIP
▁idi
▁jur
Logan
those
▁Coff
▁Name
▁Pine
▁adul
▁beet
▁lamb
▁mice
▁worm
Daniel
illyer
otypes
▁Mingo
▁Paint
▁Store
▁drill
▁fried
▁scrib
ecumseh
inarily
▁Angels
▁Jackie
▁McCree
▁Valent
▁evenly
▁exquis
▁grains
▁ironic
▁tugged
▁bizarre
▁screens
▁secured
▁skilled
▁tangled
▁Security
▁defended
▁frowning
▁politely
▁resigned
▁solitary
▁strictly
▁strikers
▁Selection
▁consensus
▁helicopter
▁practicing
▁competitors
▁documentary
▁demonstrates
del
rus
Damn
anta
bian
furt
girl
meal
wixt
▁McG
▁gru
chnya
▁Sven
▁unto
▁Award
▁Laney
▁Trina
▁aging
▁pests
inkling
▁Haller
▁Murphy
▁analyt
▁hazard
▁labour
▁lacked
▁superv
▁Austria
▁Bradley
▁Fearing
▁faintly
▁happier
▁rewards
mediately
▁Cambodia
▁crucifix
▁copyright
▁prevented
▁afterwards
▁comforting
▁Confederate
▁abstraction
▁circulation
▁sufficiently
Ot
▁IP
▁Lo
▁om
None
ocus
opes
orig
arled
intus
ipher
▁Cain
▁Gulf
▁Pick
▁Slow
▁WITH
▁tags
Should
loaded
▁Woman
▁fairy
▁monop
▁trave
regular
▁Around
▁McMarn
▁armies
▁insists
▁Independ
▁Sanskrit
▁assorted
▁courtesy
▁founders
▁moisture
▁sometime
▁warnings
▁Churchill
▁justified
▁sovereign
▁violently
▁innovation
▁relaxation
▁reparations
▁uncertainty
▁measurements
▁restrictions
Mir
ORD
bly
West
erek
yson
▁COM
▁Dog
▁Veg
aiser
antry
irled
might
urred
▁Pict
▁Sina
▁pole
▁seas
writer
▁Trump
▁Allied
▁Double
▁Oregon
▁dragon
▁fights
▁heroic
▁recess
▁shaken
▁strand
▁Capital
▁Corinth
▁Goddess
▁cheered
▁gravity
▁handing
▁millenn
▁motives
▁peering
▁pursued
▁sixties
▁volumes
▁Interest
▁epidemic
▁headache
▁notation
▁receiver
▁twenties
▁Cassandra
▁diversity
▁ownership
▁prophetic
▁shuddered
▁antimodern
▁classified
▁hesitation
▁irrelevant
▁establishing
▁implementation
Ly
sim
Tony
asse
erbr
▁Ted
▁tac
Death
raits
utors
▁Diet
▁Fest
▁bury
▁rays
▁scow
▁weed
Jewish
assium
ignant
ourdes
▁Glass
▁Price
▁Sweet
▁chalk
▁hesit
▁neuro
▁raced
▁shrug
Instead
agation
aterina
instein
▁Bailey
▁Forest
▁Fourth
▁Joshua
▁Stuart
▁anarch
▁nearer
▁worksh
▁Perkins
▁declare
▁kilomet
▁startup
▁Customer
▁Literary
▁bastards
▁bullshit
▁clinging
▁sexually
▁stunning
▁wrinkled
▁communism
▁monuments
▁travelers
▁deliberate
▁problematic
▁spontaneous
.).
RED
San
agi
coe
gia
lla
rug
▁SU
Pres
olia
rows
▁Tun
▁dys
▁rod
▁toe
brown
isand
ogene
ousse
ucker
urban
▁Poss
▁Stop
▁Ward
▁guts
▁ripe
▁Value
▁eleph
▁tenth
Windows
▁archae
▁differ
▁sailor
rational
▁Actions
▁Antonio
▁Miranda
▁females
▁mankind
▁varying
▁Chechnya
▁invested
▁shivered
▁Secretary
▁histories
▁hostility
▁preceding
▁proximity
▁qualified
▁scratched
▁skeptical
▁socialist
▁comprehend
▁Afghanistan
▁resemblance
Sl
NOW
Code
educ
suff
▁liv
esota
yalov
▁Bapt
▁Dash
▁Hold
▁Shaw
▁carn
▁dick
▁hats
▁slap
Modern
length
rowing
▁Quick
▁amuse
▁tanks
▁veins
▁Carlos
▁Visual
▁overth
▁resear
▁styles
▁Marshal
▁eagerly
▁inquiry
▁notable
▁onstage
▁sleeves
▁streams
▁adaptive
▁Aristotle
▁briefcase
▁comparing
▁Especially
▁proclaimed
▁appearances
▁counterpart
▁presentations
Ori
PER
▁Dh
Long
Luke
Shut
inic
llen
plus
▁FDA
Afric
allen
naire
sided
▁Dire
▁Gard
▁airl
▁dans
▁deer
▁hipp
▁logs
▁sack
Robert
antine
idency
imeter
ourses
▁Griff
▁autob
▁cripp
▁rural
▁unpre
▁Silver
▁Symbol
▁bodily
▁boiled
▁deputy
▁lining
▁overly
▁pilots
▁saints
▁Hillyer
▁goodbye
▁grocery
▁plunged
▁Whenever
▁decrease
▁devotion
▁mattress
▁mystical
▁soothing
▁Europeans
▁Louisiana
▁ambulance
▁apologize
▁consisted
▁offerings
▁remembers
▁laboratory
▁sweetheart
▁agriculture
▁sensitivity
▁Environmental
▁reconciliation
▁representatives
Beh
Blue
▁Ara
▁Eck
▁Obs
▁Grow
▁beta
▁dice
▁disl
Little
itures
orable
▁Bette
▁Robin
▁defic
▁fails
▁Eamonn
▁Unless
▁bundle
▁contra
▁organs
▁robust
▁ruling
▁stares
▁Monique
▁arrives
▁bedside
▁chilled
▁courses
▁fatigue
▁harness
▁rescued
▁awaiting
▁geometry
▁heritage
▁mistress
▁readings
▁emergence
▁fundament
▁initiated
▁messenger
▁obsession
▁submitted
▁targeting
▁accurately
▁objectives
▁satisfying
▁continually
▁temporarily
Bar
Imp
sur
vii
▁iv
ATER
Thus
iery
▁Dob
▁Gib
▁Ian
asket
enter
oking
▁Kamp
▁Type
▁Yeah
▁fung
Sharon
achers
ounces
▁Amaya
▁Ernst
▁Notes
▁Welsh
▁admon
▁brisk
▁depri
▁embro
▁fiber
▁neckl
▁tiles
▁Stalin
▁giants
▁parish
▁uneasy
▁unseen
▁viewer
icularly
ittering
▁Product
▁shotgun
▁strokes
▁cautious
▁operated
▁resisted
▁settlers
▁Catherine
▁diagnosis
▁impatient
▁observing
▁retreated
▁signature
▁uncovered
▁vengeance
▁complaints
▁contradict
▁volunteers
▁controversial
CA
Bre
Hen
Isn
Max
fif
hum
Sept
mary
otyp
ugar
▁cod
▁gum
aceae
glass
ifier
▁cens
▁tunn
access
akened
ifting
import
uddick
▁Cabin
▁Mitch
▁bully
▁crawl
▁sting
Besides
▁healed
▁pastor
▁potato
▁shades
▁tattoo
▁topped
▁infrast
▁justify
▁labeled
▁phrases
▁stacked
▁strands
▁deciding
▁twisting
▁disorders
▁eliminate
▁fulfilled
▁producers
▁positioned
▁reconstruct
▁restoration
▁transparent
Hig
ORY
dar
▁Az
▁dé
Grok
atry
chat
▁Fel
▁Jun
▁Vic
annon
grown
still
▁dump
▁golf
▁lazy
Jonnie
▁Enter
▁antib
▁claws
▁enfor
▁escal
▁polar
▁scarf
plicity
▁Herman
▁Mimbre
▁bounce
▁colony
▁hammer
▁parach
▁update
national
▁Insight
▁Sherman
▁folding
▁hopeful
▁offense
▁prolong
▁Diseases
▁Hoffmann
▁adequate
▁fraction
uroscience
▁Minnesota
▁Mountains
▁aggregate
▁employers
▁obedience
▁Philosophy
▁aggression
▁oppression
▁supplement
▁tendencies
▁possessions
▁accidentally
▁Understanding
;_
RY
ér
?'_
EAR
HER
Had
Rev
beh
bes
Ever
OUGH
adic
rams
tkov
uffy
▁dip
▁sab
David
aline
aller
osher
oward
▁Bene
▁Mail
▁envy
▁holl
▁pays
▁tire
Nobody
ensing
ibular
velyan
▁Camus
▁disli
▁gains
▁hears
▁lifel
▁sneak
▁Butter
▁Energy
▁Reform
▁biting
▁bronze
▁genome
reements
stration
▁Mandela
▁Spencer
▁assumes
▁discont
▁doubled
▁oneself
▁accuracy
▁adjacent
▁crashing
▁splendid
▁stealing
▁machinery
▁molecules
▁regulatory
▁succession
▁legislation
Av
PC
Cap
HEN
Mus
aic
dia
iii
non
uan
▁pH
▁yo
Hold
atum
orin
prom
rils
worm
▁bug
▁——'
Notes
could
great
itism
month
retty
▁Dock
▁Moby
▁gaps
▁owed
▁redd
▁welf
George
before
enberg
orship
▁borne
▁curls
▁lonel
▁mixer
▁uncon
olation
▁Lucian
▁aching
▁lesser
▁mortal
▁solved
▁wallet
▁winner
▁Arendia
▁Darlien
▁Foreign
▁browser
▁drunken
▁inflict
▁praised
▁samples
▁deterior
▁diabetes
▁motioned
▁numerals
▁reviewed
▁threaten
▁triangle
▁Socialist
▁closeness
▁distances
▁stereotyp
▁tolerance
iographical
▁initiative
▁temptation
▁manufacturing
TA
ben
fol
cycl
pert
▁Iss
▁Sud
▁Tal
▁Ton
Child
Curry
borne
cross
doors
maybe
mouth
orman
tight
▁Pear
▁Poor
▁topp
Excuse
Within
akable
alized
legged
ummies
▁McKin
▁Month
▁antit
▁disgr
▁piles
▁rocky
▁seize
▁stain
British
Looking
aternal
inology
▁Essays
▁doomed
▁pinned
▁racism
▁repent
▁skinny
▁static
▁trends
▁urging
cknowled
▁Roberts
▁drowned
▁propped
▁unaware
▁vitamin
▁warming
▁welfare
antically
erbrowski
▁Medicine
▁currency
▁depicted
▁internet
▁variants
▁authentic
▁fortunate
▁intensely
▁attributes
▁forgetting
▁membership
▁resentment
▁restricted
▁supervisor
▁Continental
▁illustrated
▁methylation
Far
hal
▁"[
▁-,
Anal
anie
make
pine
sche
supp
▁Exp
▁Isn
▁LSD
▁pap
▁soy
actic
▁Side
▁edit
▁fuss
▁ther
Except
agging
▁Brits
▁Clair
▁Hence
▁Serge
▁Sonny
▁arche
▁daddy
▁scary
▁slick
parents
▁Elliot
▁Norway
▁export
▁kindly
▁pastry
▁shrink
▁submit
▁Outside
▁Usually
▁Zealand
▁condemn
▁enables
▁guarded
▁hurting
▁laundry
▁markers
▁shaping
▁swiftly
▁tapping
▁treason
▁advocate
▁electron
▁holidays
▁promptly
▁pursuing
▁Everybody
▁inclusion
▁mutations
▁selective
▁starboard
▁motherfuck
MP
▁AS
▁HR
Comm
grow
hran
isco
oren
uced
Charl
iries
leman
liter
never
▁Aber
▁Exam
▁thum
▁toys
▁tsar
health
ouched
▁Adolf
▁Below
▁Watch
▁Wiley
▁arbit
▁hosts
akening
▁Brazil
▁Foster
▁choked
▁fertil
▁foster
▁incons
▁intens
▁joking
▁metric
▁output
▁quiver
▁Freeman
▁relates
▁slumped
▁toasted
▁trailed
▁creeping
▁navigate
▁opposing
▁sensible
▁steering
▁Gusterson
▁disbelief
▁encompass
▁selecting
▁Translated
▁disappoint
▁guidelines
▁reassuring
▁supportive
▁illustrates
▁willingness
!—
FF
rd
sk
Walk
opia
pace
▁Ask
▁Fan
▁Hav
▁Pie
▁gul
panic
▁Kitt
▁peel
▁prow
holder
intage
rehens
▁Betty
▁ached
▁naive
▁norms
▁Kansas
▁Policy
▁banner
▁closes
▁fading
▁loaves
▁obsess
iversary
▁Anthony
▁Georgia
▁awesome
▁circuit
▁melting
▁renewal
▁sympath
▁undersc
▁Montreal
▁enhanced
▁retained
▁shocking
▁tourists
▁convicted
▁expanding
▁interfere
▁potassium
▁reduction
▁sandwiches
▁acquaintance
▁communications
▁infrastructure
gm
]).
asi
erc
Evie
crit
imag
mans
ulas
unzi
▁Zak
▁hob
▁mes
▁nig
iotic
owell
▁Burg
▁Dave
▁Peep
ankind
▁Brain
▁Catal
▁Kelly
▁cigar
▁input
▁rever
▁safer
▁Agency
▁Marcus
▁crunch
▁permit
▁Windows
▁empathy
▁freezer
▁legally
▁murders
▁boundary
▁cheerful
▁contexts
▁deserves
▁talented
▁trenches
▁sexuality
appropriate
▁facilities
▁propaganda
▁vocabulary
▁witchcraft
▁unnecessary
▁expenditures
Kn
Got
OVE
aca
hor
▁DO
▁Wa
▁Zh
▁ze
Port
aque
corn
give
orph
week
▁Got
▁Tib
▁hub
antom
hetto
ianic
▁Pont
▁bump
▁cant
▁dusk
▁nost
▁nour
▁sket
Indeed
antage
depend
inters
school
▁Cecil
▁Trish
▁Words
▁acids
▁loses
▁puppy
▁Gospel
▁assure
▁cosmic
▁daring
▁module
breaking
▁Detroit
▁antagon
▁fifties
▁frantic
▁signing
▁Mitchell
▁explored
▁punished
▁favourite
▁rectangle
▁Originally
▁agricultural
▁investigated
▁sophistication
Os
Tom
pop
bott
date
ding
irch
vous
▁Aja
▁Dry
▁rye
▁Arts
▁Didn
▁Pink
▁cows
atered
idered
ooting
▁Above
▁cance
▁masks
▁vigor
ynamics
▁Archie
▁Clover
▁Police
▁Saxton
▁Spread
▁graves
▁infect
▁metals
▁bounced
▁footage
▁heating
icultural
▁Grateful
▁Highness
▁applause
▁dreaming
▁enduring
▁envision
▁hopeless
▁minerals
▁noticing
▁obsessed
▁pavement
▁predomin
▁
e
t
a
o
n
i
s
r
h
l
d
u
c
m
g
f
w
y
p
.
,
b
v
k
"
'
I
T
A
S
H
_
1
C
M
x
B
-
W
*
E
P
2
L
D
N
R
0
F
G
j
:
?
O
z
9
)
(
J
q
3
—
Y
4
5
8
6
7
;
K
–
U
V
#
!
/
|
Q
Z
é
]
[
