<pad>
<unk>
<D>
<0x00>
<0x01>
<0x02>
<0x03>
<0x04>
<0x05>
<0x06>
<0x07>
<0x08>
<0x09>
<0x0A>
<0x0B>
<0x0C>
<0x0D>
<0x0E>
<0x0F>
<0x10>
<0x11>
<0x12>
<0x13>
<0x14>
<0x15>
<0x16>
<0x17>
<0x18>
<0x19>
<0x1A>
<0x1B>
<0x1C>
<0x1D>
<0x1E>
<0x1F>
<0x20>
<0x21>
<0x22>
<0x23>
<0x24>
<0x25>
<0x26>
<0x27>
<0x28>
<0x29>
<0x2A>
<0x2B>
<0x2C>
<0x2D>
<0x2E>
<0x2F>
<0x30>
<0x31>
<0x32>
<0x33>
<0x34>
<0x35>
<0x36>
<0x37>
<0x38>
<0x39>
<0x3A>
<0x3B>
<0x3C>
<0x3D>
<0x3E>
<0x3F>
<0x40>
<0x41>
<0x42>
<0x43>
<0x44>
<0x45>
<0x46>
<0x47>
<0x48>
<0x49>
<0x4A>
<0x4B>
<0x4C>
<0x4D>
<0x4E>
<0x4F>
<0x50>
<0x51>
<0x52>
<0x53>
<0x54>
<0x55>
<0x56>
<0x57>
<0x58>
<0x59>
<0x5A>
<0x5B>
<0x5C>
<0x5D>
<0x5E>
<0x5F>
<0x60>
<0x61>
<0x62>
<0x63>
<0x64>
<0x65>
<0x66>
<0x67>
<0x68>
<0x69>
<0x6A>
<0x6B>
<0x6C>
<0x6D>
<0x6E>
<0x6F>
<0x70>
<0x71>
<0x72>
<0x73>
<0x74>
<0x75>
<0x76>
<0x77>
<0x78>
<0x79>
<0x7A>
<0x7B>
<0x7C>
<0x7D>
<0x7E>
<0x7F>
<0x80>
<0x81>
<0x82>
<0x83>
<0x84>
<0x85>
<0x86>
<0x87>
<0x88>
<0x89>
<0x8A>
<0x8B>
<0x8C>
<0x8D>
<0x8E>
<0x8F>
<0x90>
<0x91>
<0x92>
<0x93>
<0x94>
<0x95>
<0x96>
<0x97>
<0x98>
<0x99>
<0x9A>
<0x9B>
<0x9C>
<0x9D>
<0x9E>
<0x9F>
<0xA0>
<0xA1>
<0xA2>
<0xA3>
<0xA4>
<0xA5>
<0xA6>
<0xA7>
<0xA8>
<0xA9>
<0xAA>
<0xAB>
<0xAC>
<0xAD>
<0xAE>
<0xAF>
<0xB0>
<0xB1>
<0xB2>
<0xB3>
<0xB4>
<0xB5>
<0xB6>
<0xB7>
<0xB8>
<0xB9>
<0xBA>
<0xBB>
<0xBC>
<0xBD>
<0xBE>
<0xBF>
<0xC0>
<0xC1>
<0xC2>
<0xC3>
<0xC4>
<0xC5>
<0xC6>
<0xC7>
<0xC8>
<0xC9>
<0xCA>
<0xCB>
<0xCC>
<0xCD>
<0xCE>
<0xCF>
<0xD0>
<0xD1>
<0xD2>
<0xD3>
<0xD4>
<0xD5>
<0xD6>
<0xD7>
<0xD8>
<0xD9>
<0xDA>
<0xDB>
<0xDC>
<0xDD>
<0xDE>
<0xDF>
<0xE0>
<0xE1>
<0xE2>
<0xE3>
<0xE4>
<0xE5>
<0xE6>
<0xE7>
<0xE8>
<0xE9>
<0xEA>
<0xEB>
<0xEC>
<0xED>
<0xEE>
<0xEF>
<0xF0>
<0xF1>
<0xF2>
<0xF3>
<0xF4>
<0xF5>
<0xF6>
<0xF7>
<0xF8>
<0xF9>
<0xFA>
<0xFB>
<0xFC>
<0xFD>
<0xFE>
<0xFF>
▁t
he
▁a
in
▁the
▁s
re
▁o
▁w
er
nd
at
ou
on
▁b
ed
▁c
it
is
en
▁f
ing
▁m
▁h
or
es
▁to
an
▁p
▁of
ar
▁and
▁d
al
▁in
as
▁th
▁l
om
ic
ll
▁I
▁n
▁he
le
ion
▁e
▁g
ly
ad
ot
▁be
ut
ve
st
ow
id
ent
▁re
ac
et
im
▁y
ld
▁on
▁that
▁T
se
gh
▁was
ay
ro
▁you
▁u
▁st
ver
▁it
ur
ir
▁for
▁S
▁A
am
ith
▁as
▁wh
▁is
ri
▁"
▁with
▁we
ct
oo
ce
ter
▁an
ke
▁H
her
▁M
▁his
▁C
ch
▁ha
ght
il
if
▁B
ation
▁The
ould
."
▁se
▁at
ra
▁had
▁her
▁me
ill
ol
ge
▁W
▁not
ul
us
pp
ore
▁fr
▁sh
▁P
ant
ers
▁con
ess
▁de
▁k
ain
▁ne
red
th
ist
▁li
▁or
est
pe
un
and
ome
▁my
▁from
em
um
res
▁L
▁she
el
▁ex
▁_
ab
▁(
ust
▁do
▁sa
rou
ate
▁G
▁D
qu
▁have
ie
▁but
▁v
os
▁so
▁E
ig
▁ch
▁F
▁su
ack
▁are
all
▁al
out
ard
▁R
▁r
op
▁ab
art
▁com
od
▁this
▁by
▁J
hen
▁him
▁int
ight
▁▁
ook
▁out
nt
▁le
ive
▁N
▁j
▁all
▁wor
▁pro
▁they
▁were
▁up
ally
ity
,"
ind
**
one
ap
ak
ort
▁He
ck
our
▁said
ast
▁kn
▁can
ies
ide
ud
▁one
The
▁would
ood
ment
ong
ven
ry
ous
ag
▁pl
ure
ich
ost
▁who
▁your
ci
▁O
▁their
▁about
own
ame
ell
ine
ect
▁them
pt
▁cl
ther
ew
▁like
ake
ace
▁man
au
?"
iv
ice
very
▁go
▁us
ear
▁into
▁been
▁could
ime
pl
▁what
ff
og
hed
act
are
hing
▁more
▁no
▁when
ep
▁did
ick
▁tr
▁there
▁im
ans
▁ag
age
iz
ond
▁ro
▁Th
ink
▁some
▁en
ated
▁It
▁un
ass
ress
ber
▁over
way
▁Y
▁sp
▁ar
▁if
▁other
ions
▁back
per
▁look
▁any
sel
av
ose
▁K
▁which
▁pr
ence
▁time
ical
▁off
▁will
▁qu
▁bl
ary
▁tw
▁dis
▁,
▁know
▁In
▁fl
▁ac
ove
other
▁ad
ite
ere
itt
ough
▁cont
end
▁just
able
urn
ue
▁'
ble
▁bec
ip
ound
ire
ked
ile
reat
▁pe
here
▁than
▁comp
▁then
round
ance
ach
▁has
▁co
▁too
ings
ish
▁She
ang
so
ory
▁get
fter
ult
hat
▁sm
▁sc
▁way
ved
▁hand
▁Ch
ru
rough
ild
mer
▁how
▁St
self
▁fe
ree
ia
▁app
int
▁down
ark
ade
▁ri
▁want
▁part
ater
▁.
we
nder
ull
▁our
▁po
▁see
▁again
irst
▁res
ations
▁per
▁only
▁U
▁say
wn
bl
ord
fore
ft
cl
▁even
▁te
ause
ople
ife
ign
▁through
orm
▁But
▁work
▁spe
▁pre
▁gr
▁V
oc
▁bet
▁now
ian
ather
▁think
omet
▁two
rit
vel
ount
ial
ase
ens
ath
▁sl
▁first
▁people
oy
▁its
ne
ious
▁under
uch
▁des
▁day
ual
ition
xt
iff
ered
ought
).
▁don
ving
▁every
▁after
ction
▁rem
▁am
▁imp
▁before
▁need
ors
ob
▁long
▁also
▁right
▁year
oll
▁new
ning
▁att
ons
▁br
ward
▁And
▁where
old
ents
vers
ict
ied
iss
),
ily
▁call
ph
cess
▁should
ren
oth
gg
▁much
ave
▁didn
ail
ful
ces
▁ke
▁rec
▁ey
▁somet
man
▁most
He
ise
▁made
▁rel
▁good
ple
ting
▁make
▁head
du
ss
▁because
ty
pped
alk
ock
▁own
You
aking
▁around
igh
ced
▁thought
▁comm
▁They
led
▁here
▁turn
▁em
ves
ittle
▁You
▁these
les
▁very
▁ear
▁act
uck
ont
▁may
▁diff
▁ph
hes
▁still
▁We
ness
ms
▁ra
oss
te
▁bel
▁This
be
▁gl
▁ev
▁well
▁gu
▁ind
▁never
▁rep
ah
▁little
air
.'
olog
▁life
▁car
▁An
side
▁going
ared
▁got
▁let
pect
▁gen
ps
▁seem
ert
ates
gin
▁bu
ating
▁ser
▁wr
read
ib
▁sec
ower
▁those
thing
ism
▁something
▁real
pen
▁many
▁sur
▁ent
ried
ange
form
▁might
li
ks
▁read
▁end
ody
ics
cial
▁away
▁wom
get
▁take
ouse
▁inv
ween
ner
▁war
▁years
▁hel
the
▁being
▁As
▁inter
ng
It
▁child
iew
ible
▁come
▁cr
ters
▁pers
▁feel
▁looked
meric
ject
aw
▁set
▁min
▁sy
▁eyes
gan
▁such
▁pres
▁world
▁acc
ually
▁same
▁Re
▁between
cept
▁does
▁old
▁start
▁che
ee
ular
riend
▁If
##
▁mo
▁happ
ork
▁–
ited
▁cons
imes
▁men
▁asked
ative
▁point
ident
▁fam
▁came
ross
▁found
▁face
ool
ways
ys
▁room
▁Americ
▁tell
▁another
ows
▁word
▁str
▁fin
▁differe
▁pol
▁**
▁find
▁open
▁tra
▁put
ern
▁God
ched
▁ob
▁use
▁each
▁left
▁supp
.,
ific
ever
ubl
▁while
▁Un
▁help
ted
up
▁cre
▁Al
▁cle
▁inst
▁took
ank
▁ass
any
▁told
ix
▁ref
▁add
▁great
less
▁dec
▁ret
▁few
▁sim
▁both
▁trans
owing
Th
az
ub
▁cour
als
▁unt
▁book
atch
▁must
▁went
tern
In
▁against
▁beh
▁place
ized
▁light
▁friend
▁sub
ince
its
▁inc
..
▁foll
▁door
,'
▁reg
ists
▁night
▁disc
▁always
owed
uth
uring
▁Wh
▁knew
▁hum
!"
hip
▁though
▁mom
▁home
oh
att
▁three
▁cor
▁There
cc
ane
▁last
▁sk
elt
ret
▁hard
akes
▁run
arch
▁belie
What
▁small
ined
▁bo
ars
cy
▁ed
▁met
iet
ger
der
▁New
amp
▁love
ric
ished
▁exp
▁person
ution
ene
▁until
oice
rib
ten
▁When
She
lect
▁el
▁exper
ins
▁pass
ale
▁dist
ened
clud
▁form
▁ter
rist
▁far
▁things
ec
▁really
▁mother
ention
▁used
dd
▁play
ities
ures
▁sw
We
▁high
▁eff
▁without
▁conf
▁house
ton
▁keep
ense
▁So
▁saw
▁fact
▁def
▁care
▁char
▁stud
▁gra
ash
▁called
▁vis
▁try
▁different
irl
▁mod
ased
▁talk
arr
▁enough
▁mean
▁That
▁side
▁underst
▁ide
nce
▁wa
ments
▁next
und
ned
ote
▁mon
▁Fr
▁himself
ically
ants
▁water
▁num
▁lar
to
ably
osed
▁felt
ility
orn
▁Ar
▁stand
▁sure
most
▁For
outh
▁expl
▁sign
med
▁produ
▁mar
▁cent
▁rest
ature
ised
ead
aring
▁Is
▁turned
▁kind
▁mem
▁gener
ize
▁father
▁ext
ience
▁quest
▁dra
ural
▁hands
ley
▁later
._
son
▁wasn
br
▁thing
iness
▁ever
▁wanted
uss
ier
land
▁dire
ired
hap
▁mind
And
▁ins
▁dr
▁import
ages
ute
arent
▁det
▁poss
▁count
▁His
▁toward
pr
▁mat
▁second
io
day
cent
▁cur
But
ets
▁once
▁woman
▁lo
alf
▁cou
ling
ason
ream
▁better
ational
ug
▁▁▁▁
▁Christ
▁moment
▁body
com
▁coll
ield
▁publ
ts
ately
anc
▁sound
▁hist
▁young
ohn
reen
▁exam
▁nothing
▁wind
▁cap
oot
▁pat
stem
▁bus
▁De
▁What
ertain
▁family
ying
▁mor
ivers
▁pur
ering
▁air
▁dri
▁best
ently
▁girl
▁seemed
▁inf
velop
gr
▁partic
▁power
▁bre
ged
ither
▁course
ives
▁name
▁why
▁almost
▁fil
ices
_.
Wh
▁voice
▁lead
▁Be
▁black
ues
▁York
ully
▁says
▁includ
ines
▁med
ology
▁anything
▁since
▁less
▁Cl
▁understand
▁comple
▁How
app
▁Mr
▁near
ird
ata
▁children
ready
▁days
▁move
▁return
gether
▁together
▁give
ott
▁My
▁seen
ained
▁tri
▁behind
augh
▁Mar
inn
ided
ung
No
erest
ital
...
▁Sh
▁contin
▁dark
▁fore
▁Le
rew
ann
▁big
ler
▁past
▁along
▁kill
▁sat
▁resp
▁across
ER
▁view
oney
ax
used
▁wee
▁John
▁already
▁close
ison
?'
▁At
▁American
▁land
ames
ract
▁sch
▁bed
▁human
ember
▁occ
▁often
▁dem
ruct
iven
rop
ury
That
▁pain
▁sn
▁prov
▁began
erv
▁eas
▁arm
ots
▁writ
▁words
oke
uff
▁four
rol
▁hour
idd
▁Then
▁clear
▁art
▁front
▁ho
▁leg
▁pull
▁pri
omm
▁done
ina
ured
▁half
▁system
▁Se
▁develop
▁heart
▁large
rn
▁es
▁proble
▁col
▁story
▁lear
▁important
▁bit
yp
▁least
▁var
▁else
▁polit
▁hold
igure
▁val
▁mark
▁Her
▁grou
▁All
olution
▁during
▁adv
gy
aken
▁couldn
part
▁direct
▁early
▁par
▁interest
▁top
ides
▁sil
ape
▁show
▁Con
▁looking
▁gave
view
▁boy
▁Q
▁white
This
right
▁someone
ories
▁commun
alked
king
utes
▁list
▁heard
ressed
apter
▁mil
iting
▁ans
▁others
▁deep
by
▁cult
▁tem
enty
over
▁spec
bs
▁case
▁number
▁report
ider
▁become
▁begin
▁company
ior
▁lot
▁death
oon
▁sit
▁bro
▁Bl
ustom
▁desc
▁certain
▁doing
not
though
▁opp
ony
▁sle
erm
▁yet
▁women
▁wond
▁inform
▁hair
▁blood
▁build
reet
ex
▁sal
uc
▁process
ike
▁social
▁aw
▁fun
▁Ad
▁On
ogra
▁Brit
nal
▁tre
▁bra
oor
ush
ains
rnest
▁whe
▁plan
▁prom
light
me
▁effect
ection
▁pos
▁loc
▁full
ians
▁food
pend
▁times
▁present
lf
bers
▁stra
ached
▁ste
▁meet
aper
▁data
selves
▁whole
▁av
ery
▁chang
▁rather
chn
ining
ued
▁parent
atic
As
que
▁Ph
▁idea
▁relations
▁started
▁quick
▁question
bed
▁line
ision
aster
▁dead
▁wall
bert
▁having
ization
ator
ien
▁friends
▁making
▁Ed
▁fall
ude
▁War
▁No
▁appro
els
▁sever
There
▁trying
▁inside
irt
▁table
iversity
▁conc
▁lay
aces
▁everything
con
▁Or
▁sent
▁step
vious
▁within
aut
▁bad
▁aff
▁myself
If
▁stay
ron
haps
▁cut
▁const
ister
aves
ient
aced
▁stood
▁prot
▁short
When
vern
iled
▁believe
▁Ind
▁order
▁money
ats
▁Sp
▁known
▁cond
ump
▁main
▁Tr
▁pop
▁business
▁several
▁particular
rie
▁sense
ears
▁ple
▁walk
bably
▁school
▁red
aim
▁tried
▁breat
ggest
▁One
▁law
▁example
▁|
▁Ernest
▁change
ement
▁fing
▁ele
alth
▁*
ards
▁To
▁pick
▁soon
▁hear
aul
▁feet
▁bas
fully
▁sing
▁requ
aid
ript
▁suggest
▁month
▁minutes
▁taken
orth
mb
aj
row
▁pract
▁sum
▁pay
ored
▁fire
sy
▁Not
uthor
ination
▁doesn
of
▁watch
They
▁Z
iter
▁able
enn
ising
pping
▁ground
▁result
ression
▁reason
▁expect
▁won
▁either
vent
ik
rodu
ogn
▁self
▁gone
tt
▁tou
▁test
itting
▁given
▁squ
▁aud
ality
▁serv
▁matter
ald
ivid
fe
▁leave
▁ve
▁using
ium
▁Ger
▁custom
fort
head
▁repl
eth
▁imag
▁bar
▁morning
ones
▁trad
▁upon
▁relationship
▁experience
▁became
My
▁govern
cle
aly
ety
ograph
cially
▁miss
sh
ov
▁Jes
where
▁control
▁swe
▁outside
▁coming
▁history
itions
room
▁May
▁true
▁class
itus
,_
▁mag
▁cir
▁equ
ges
So
▁probably
IN
ional
▁ident
ries
ids
▁mus
idence
▁among
wh
oint
▁grow
▁information
ply
na
ases
▁—
▁prof
▁University
▁group
▁however
▁mouth
odd
▁suc
▁held
arl
ams
▁getting
ral
▁organ
wer
▁ant
cient
▁public
▁support
▁stop
###
uro
▁adm
ring
iron
oun
▁dro
rought
▁living
▁Jew
iving
▁quite
▁After
▁free
▁techn
▁arg
▁level
How
▁ori
angu
ches
ening
▁fell
oose
An
▁possible
▁[
▁entire
aur
▁itself
▁state
▁remember
aught
ended
▁live
▁ca
ances
body
▁dou
▁low
▁incre
▁fra
▁pot
reed
▁prop
▁bring
▁problem
co
▁floor
iver
▁est
itive
▁makes
▁charac
▁Press
▁ask
▁means
▁herself
▁ill
▁pie
▁phot
▁foc
ev
▁Will
innitus
▁wouldn
▁country
ls
▁strong
omp
▁div
▁surpr
▁rece
▁sto
▁account
my
▁hor
▁fur
overed
etic
▁pret
▁working
arm
▁offic
▁needed
▁author
▁thinking
ken
amed
▁bene
▁With
▁walked
eter
▁deal
▁city
▁Sc
▁obs
undred
for
▁themselves
aby
irit
St
aving
▁happened
▁brought
▁speak
▁five
ological
Yes
▁job
▁hur
▁discuss
▁wife
▁fill
oud
▁Eng
yn
▁rad
▁Br
▁stat
resent
▁sun
▁arri
▁plant
ror
▁sex
▁Some
airs
▁lost
ividual
▁creat
▁cross
▁hot
▁fight
pecially
like
rench
▁iss
▁British
▁news
ified
ived
▁sleep
ency
eng
▁Pro
▁eng
▁crit
HE
▁actually
▁hours
▁mill
▁alone
▁Pr
▁taking
▁soft
▁late
Oh
gar
▁Jesus
▁Paul
por
▁kept
▁political
eed
▁above
istic
▁longer
▁paper
▁press
par
▁eye
ode
▁window
ilar
▁parents
▁conn
▁invol
▁narr
▁Gu
:**
aged
▁Af
▁text
▁moved
▁mess
▁break
ulation
▁hundred
cum
▁arms
ilt
▁Mc
de
het
empt
▁whether
use
▁film
▁wrote
bo
▁twenty
▁dev
medi
▁hadn
▁slow
▁wrong
▁simply
lish
band
atural
alm
▁subject
ift
ze
ype
▁post
▁individual
ney
▁aut
▁German
▁record
▁common
▁check
ili
oes
icult
▁success
▁phys
acy
ushed
▁complete
For
▁mot
eral
lled
▁jo
▁oper
▁sold
▁field
tain
idge
▁langu
▁stri
▁town
▁anyone
ournal
▁hope
ential
▁finally
dden
▁suff
▁gun
af
▁anim
ploy
▁bott
▁today
▁abs
ration
▁buy
eared
▁event
--
▁cold
▁Now
▁clos
▁camp
▁ten
une
▁pan
▁phone
gged
▁enc
ondon
▁tinnitus
▁mur
▁son
▁beaut
▁origin
action
▁conv
arp
oe
▁lim
▁dep
▁comes
.)
▁sudden
▁rese
ental
▁drink
---
▁saying
ples
▁proper
unt
▁ways
lu
sych
▁modern
▁Ro
ON
▁quickly
▁nature
ging
▁sort
▁pulled
iding
▁fa
▁bur
urch
▁age
▁attack
itor
ousand
▁claim
ected
ication
▁activ
▁describ
▁Pl
soci
▁Can
uh
inc
▁Ex
▁heav
owers
ique
▁difficult
osp
▁sol
▁following
▁dest
▁talking
▁perf
rom
▁area
▁appear
ma
▁These
▁cra
▁government
▁attention
ara
▁feeling
aughter
anger
▁six
unch
atched
▁brother
book
▁week
▁recogn
▁di
ief
Well
▁whis
▁office
▁ran
val
▁Man
▁object
irty
▁onto
▁king
gs
▁fut
▁elect
▁dam
erson
ster
iddle
▁exact
ips
▁opened
▁general
▁Fl
urope
▁especially
▁ener
▁Mac
▁win
▁pict
anced
▁French
▁invest
itten
▁cop
▁seems
▁typ
▁Was
▁including
▁road
izing
▁America
ext
▁box
▁smile
▁answer
▁months
▁meant
Not
▁everyone
▁Qu
resh
rent
▁glass
iod
ajor
▁accept
▁isn
uation
▁draw
▁stopped
▁single
usband
▁stru
▁forward
▁ago
attle
irm
▁followed
▁product
▁wood
▁apart
antly
▁Even
▁specific
atin
▁reached
udd
itted
▁super
▁Per
▁fuck
Ch
▁thousand
▁Mary
RE
asp
▁Co
ously
▁trou
▁treat
▁market
▁cell
vie
fer
itc
ius
lling
▁ready
▁sometimes
▁Afric
▁whose
▁env
▁key
mbol
atever
▁cannot
▁rev
▁fail
▁ord
pper
▁quiet
▁concern
▁vers
▁Europe
▁Ab
ires
work
▁character
▁likely
▁ce
▁non
▁writing
▁sour
▁immedi
ishing
bled
asure
▁secret
▁Chapter
▁maybe
ledge
▁instead
▁language
sc
—"
ani
▁letter
▁teac
ctor
▁ris
itional
▁design
orld
ingly
▁truth
lev
▁exist
▁Gr
rying
▁fav
iling
▁By
iny
▁er
ively
Why
▁warm
▁fear
▁foot
lier
▁led
itch
kay
▁Ge
▁percent
▁ann
▁building
▁focus
▁breath
▁husband
New
▁Je
▁running
▁lab
iction
▁Pol
iced
▁position
▁space
ox
ify
▁occur
▁perhaps
▁decided
▁detail
▁perform
▁special
cience
yond
▁port
▁Just
oph
▁dream
▁Par
▁except
▁baby
but
ission
▁wonder
▁health
wo
Don
▁et
amm
▁Pe
▁sens
AR
mp
▁cook
▁rock
ett
▁exc
▁usually
▁burn
▁future
▁similar
▁Do
ipped
▁eight
ha
unn
▁tend
▁lif
▁del
All
got
see
▁United
▁skin
▁vol
iers
▁died
▁nodd
▁seed
▁London
▁looks
▁consider
ky
▁yourself
iful
▁Lu
▁hit
▁compan
▁grand
▁ep
ciety
▁eat
▁histor
▁passed
ays
▁mater
▁States
▁study
hers
▁standing
▁role
ham
▁waiting
ills
let
▁behav
▁shot
Al
rief
▁compl
▁worked
▁fraud
▁represent
▁mass
▁convers
ables
▁priv
usion
hood
▁wide
▁employ
▁period
▁continued
ume
line
▁leaves
ey
▁symbol
▁sor
▁perfect
▁Bill
AN
▁major
▁touch
owd
▁sett
▁sus
▁earth
AT
arb
▁prep
▁ver
▁cover
▁pretty
▁disapp
▁Christian
ivil
▁ang
▁brain
cing
▁Ann
▁West
▁slight
ironment
▁comb
▁lives
▁value
▁coun
apt
ients
▁easy
▁straight
een
▁Comm
▁jud
▁necess
▁spread
iol
▁books
cious
To
mber
▁smiled
▁intell
joy
▁meaning
conom
ocked
▁create
▁further
lex
▁fre
▁liter
▁concept
▁natural
▁Don
ais
▁energy
▁project
▁evidence
ixt
▁development
▁Dav
ability
▁track
At
▁spirit
▁fine
▁thr
▁bag
itz
▁fif
▁hon
▁mid
▁effort
uly
ibility
▁green
ady
▁hop
▁written
Then
oid
▁visit
ecause
omes
▁street
atter
▁blue
▁mine
ES
▁dig
aling
EN
▁mis
▁norm
▁killed
▁chapter
▁hall
▁couple
▁exactly
▁whom
▁attempt
▁kiss
▁cost
▁nodded
▁clot
▁search
▁clim
▁summer
rig
ask
▁closed
ray
rif
▁guess
▁local
▁Let
▁appl
▁Peter
▁century
▁happy
ston
▁fingers
▁clean
▁figure
▁dry
▁Thom
itary
▁Ben
ule
▁Sch
reg
▁However
unk
▁mention
alc
▁caught
▁spoke
▁emot
▁lean
▁personal
▁serious
▁bow
▁associ
ites
On
▁influ
omb
add
now
▁beyond
▁page
▁meth
zz
ording
▁Gen
▁Dr
▁force
▁material
▁bi
▁signific
▁reve
▁travel
kes
▁Willi
▁takes
arv
port
▁opt
▁party
rupt
ences
▁shook
▁sitting
▁prim
▁respons
▁laugh
▁simple
▁und
▁Jack
AP
▁returned
uge
icha
▁chair
▁novel
▁action
▁reading
erence
▁Me
▁middle
ops
▁Rep
▁suddenly
face
▁El
Cl
aven
ises
that
▁imm
eah
▁enjoy
hel
▁sister
▁vict
▁questions
▁watched
▁based
ille
▁Every
▁earlier
inary
▁send
▁z
▁mir
▁experien
bt
▁oil
how
▁psych
▁struct
▁Vir
▁respect
▁round
▁Am
▁poor
▁English
▁esc
riage
▁spent
▁la
▁dim
▁million
▁emer
▁separ
aint
▁memory
itchen
TER
▁drive
▁repe
▁weeks
apers
▁contain
▁Inst
▁needs
ees
▁surv
▁fresh
Do
OR
▁nearly
▁learned
uit
▁Latin
▁appeared
ades
ests
aded
orge
▁third
isted
▁Your
▁indic
!'
aled
ana
aug
▁dom
▁ess
alyt
▁fast
▁learn
ama
enth
ially
▁demand
inct
▁Cal
▁mix
▁president
lying
▁wait
▁relig
oted
▁anal
▁ones
▁loved
▁added
▁write
Is
▁cam
▁raised
ateg
▁cup
▁neck
hern
▁shall
▁James
lyn
▁bes
):
▁Car
▁game
▁purp
▁follow
▁although
▁determ
aff
pite
▁guy
▁comfort
▁image
oul
rey
▁beautiful
▁log
▁chance
▁command
ules
▁hig
go
▁immediately
ators
▁pray
▁mer
▁lived
▁obvious
▁yell
▁beginning
▁note
ruction
▁acqu
▁pack
▁Ser
▁dress
▁share
▁remind
▁kitchen
▁crowd
▁estab
▁danger
ension
▁threat
ai
just
▁heat
▁remain
umb
▁emb
ager
▁Why
▁meeting
ris
▁amount
iment
▁heavy
▁community
▁arrived
▁members
▁tot
acing
▁store
dom
men
▁stories
▁shoot
rap
After
▁stuff
▁Ne
▁hang
CH
▁shoulder
play
mon
str
▁situation
ford
▁changed
tim
ortun
▁realized
▁favor
▁environment
▁wild
▁Black
▁final
▁worth
":
rael
▁moving
off
▁smo
▁World
▁Col
▁feed
▁below
▁type
▁mult
Be
▁path
▁terms
IS
onse
▁supposed
ems
ailable
hington
▁plants
▁Russ
▁See
▁Sm
uct
▁mount
▁works
▁Cur
hem
▁smell
ocr
▁ir
▁prin
ING
.**
▁stick
▁progr
aps
▁center
▁econom
etry
well
aked
aniel
▁slowly
▁corner
aign
▁police
bid
Sh
▁strange
▁church
▁init
▁whatever
▁viol
ublic
ground
▁South
▁introdu
▁fair
▁offer
▁contr
cise
▁bare
▁tight
wood
▁gold
come
rest
lo
▁replied
asion
▁thick
▁happen
▁described
▁ur
▁hosp
▁spend
▁cool
▁kids
▁ign
▁indust
▁den
▁US
irth
ysis
▁court
inal
▁safe
▁benef
rel
▁previous
bling
▁knows
▁compet
▁term
▁select
sidered
▁current
▁considered
▁tar
▁pred
▁docum
▁empt
▁behavior
▁dog
isc
▁movement
▁clearly
▁depend
▁evening
▁leaving
AL
rage
astic
eming
▁service
▁companies
ceed
▁Rich
ession
▁watching
▁Wil
lease
▁lips
lin
▁click
▁access
▁regard
▁pen
▁growing
sequ
▁directly
▁reality
Let
▁goes
▁mist
▁piece
inner
▁Lord
▁Israel
iety
▁Sam
▁vari
ales
ament
▁ball
▁cand
One
//
gment
zy
arden
▁aware
▁problems
arily
▁chest
bing
lection
▁strugg
▁changes
bor
▁created
▁decl
▁knowledge
teen
▁method
lman
iring
arth
alytics
yle
▁particularly
anks
▁oppos
ichael
▁audience
▁Maybe
▁En
▁Buck
aurie
oming
▁band
▁ice
gress
▁various
ese
▁unc
▁crew
▁mach
▁yes
Now
cer
ument
▁hung
▁hurt
▁THE
▁pattern
sing
iles
rill
▁scen
▁color
aughed
OU
---|
▁Res
▁rou
year
▁mut
fl
ffic
rina
▁laughed
▁research
ny
▁Hist
▁parts
▁shout
NA
ival
erved
▁edge
▁brief
rely
▁Em
▁provide
▁Lind
▁holding
asc
reme
more
▁grab
▁picked
▁legs
▁cause
▁scream
▁theory
▁team
Chap
oved
▁culture
▁die
▁involved
▁bird
▁link
▁expression
rand
▁Ste
▁sea
▁sorry
▁Mor
▁giving
▁App
iliar
▁daughter
▁sight
▁scient
▁capital
ipp
▁nor
▁David
▁built
icy
▁bright
▁music
▁nice
▁picture
▁certainly
▁Cass
uhlman
▁steps
▁events
esh
▁demon
▁filled
▁completely
▁fem
▁spot
▁fig
▁coff
▁girls
▁Thomas
▁tool
▁available
ibly
ari
rect
nces
▁da
▁Ma
▁respond
zen
▁af
▁wit
▁stage
▁hell
▁tast
Chapter
▁address
▁GA
▁faith
▁trees
▁Cor
ective
cript
▁published
▁approach
wise
▁impro
▁Jewish
▁Washington
▁Cent
▁ble
ugust
▁ju
▁peace
LE
://
erve
▁desk
gle
▁op
▁battle
▁practice
ada
▁refer
▁trust
▁slightly
▁huge
▁reflect
▁showed
alled
▁From
▁fold
▁named
▁purch
▁explain
ilos
▁redu
▁easily
▁presence
▁Jan
cip
▁cat
itation
▁comput
▁Cont
▁While
▁extra
▁Americans
ek
▁Mad
▁enem
▁wish
annah
▁brown
▁i
▁chall
chie
reng
▁bottom
▁ap
atives
▁assum
);
gel
▁Like
▁contact
▁Jim
IT
pered
▁telling
aries
▁thirty
ville
▁Here
▁response
▁Har
▁sweet
▁Pat
▁society
ners
▁frequ
▁finished
▁trouble
▁tro
▁interp
ancing
ensive
▁understanding
▁lines
ification
ming
▁stared
▁Kuhlman
estern
what
▁lack
▁Book
▁complex
▁doubt
▁First
▁spring
uel
ault
▁walls
▁received
▁firm
▁shows
▁manage
▁tree
bit
▁popular
hered
▁moral
roy
itude
▁size
▁evolution
▁thus
▁civil
▁movie
▁points
▁fat
▁star
▁lower
With
▁opportun
emb
ope
▁Ibid
▁covered
▁minute
asing
▁inn
▁married
▁Ke
▁military
▁Jews
▁scene
▁hy
▁streng
▁target
▁expected
▁necessary
▁neigh
icked
▁believed
▁older
raid
▁function
▁."
▁risk
▁sand
▁liked
▁cru
▁host
igen
▁arch
▁carried
▁regular
▁weight
▁George
gen
▁shut
▁customer
_**
lls
▁shad
▁section
oses
▁colle
▁Most
▁allow
▁offered
▁pointed
aze
▁Te
▁ut
Yeah
▁army
▁dise
oman
▁empty
she
▁price
▁surface
amb
uted
▁shape
urity
▁bank
▁deli
▁Sim
▁arr
▁Somet
▁dropped
▁Although
▁direction
idden
▁dough
▁ideas
▁Robert
▁block
▁Eve
board
▁source
▁model
▁reach
▁campaign
▁fund
raft
▁ahead
yl
noon
▁wants
▁William
Figure
▁North
eal
▁forms
▁cast
▁Ap
oyal
▁net
▁rose
▁physical
emingway
▁surround
oring
▁prison
May
▁Paris
▁boys
▁wearing
▁sick
inist
▁clothes
▁Gl
▁difference
▁beside
▁agreed
▁Mrs
▁fle
▁Frank
▁rights
urs
▁Jer
eg
▁places
ole
▁thro
▁breast
onn
umn
▁neg
▁loss
rible
ashed
vert
▁wound
▁choose
▁stepped
▁engine
▁France
▁van
asons
▁Michael
▁disp
▁salt
▁sky
▁Conf
▁rub
▁sac
▁birth
His
▁higher
▁attract
iah
▁More
▁miles
▁allowed
▁letters
▁born
▁analysis
cles
▁weak
▁powerful
▁Comp
▁seat
▁guard
▁counter
▁bull
▁grew
ww
▁fix
aching
▁House
▁catch
▁doll
▁soldiers
che
ibr
icle
reek
▁Are
▁Bro
▁park
alse
atur
obal
ori
▁capt
▁gets
uts
itler
olute
▁tall
▁Nor
▁series
▁broad
▁issue
▁August
▁Ev
ength
▁broken
▁conversation
▁Fe
▁jump
epend
▁dinner
▁throughout
field
▁Richard
▁seeing
▁seven
era
▁thin
▁walking
iant
ulated
▁original
cend
ancy
www
ilities
▁cry
apped
▁afraid
▁groups
▁purpose
oices
▁sell
▁flowers
▁understood
plic
▁Ant
▁noticed
See
ram
edd
▁King
levision
▁Jud
▁names
▁protect
▁distance
▁former
▁afternoon
▁finger
▁familiar
oles
▁sugar
▁depart
▁worse
▁rich
▁Green
▁Intern
▁message
APTER
▁cultural
time
ectual
you
▁screen
▁marriage
tered
▁national
▁temper
Who
▁choice
▁base
▁vill
hold
▁growth
phas
▁cases
▁African
▁beneath
▁god
iously
▁coffee
▁silence
▁Sec
▁north
▁Des
▁pal
sp
▁bowl
▁doctor
set
▁Once
▁stro
ords
ereot
omen
▁paid
▁private
▁Face
▁perm
▁San
▁context
look
▁Laurie
▁Jul
▁belong
▁board
▁played
▁loud
▁ul
▁White
▁images
▁tiny
▁pushed
▁Coll
osch
▁pun
ech
▁version
▁stre
▁fro
▁therefore
oly
icks
▁kid
▁Other
▁nose
▁eventually
▁eth
▁Part
▁stress
inet
▁sad
▁song
ography
▁ability
lam
▁encou
Of
ttp
▁Ag
▁luck
▁liber
▁sounds
▁flat
▁aspect
berg
craft
▁avoid
▁frame
▁closer
▁challen
olf
oop
▁Bar
alter
▁date
Your
▁okay
▁display
▁suggested
▁normal
with
▁cab
▁imagine
▁pock
▁forest
▁master
Just
ights
####
▁Who
osing
▁helped
▁Jos
▁Sy
▁card
▁hospital
antic
ulate
▁fish
▁stret
▁remained
..."
atory
ibert
wered
▁feat
▁Street
▁unf
▁shown
▁bread
▁defin
▁greater
▁tom
',
▁cream
▁wondered
ague
▁achie
▁haven
▁waited
▁whispered
▁Mus
ching
▁tears
▁technology
uke
▁Mat
▁Because
oogle
▁Jeff
kn
▁blind
▁include
ok
▁shit
▁("
▁tit
▁educ
▁talked
▁numbers
▁none
▁potential
uses
▁continue
isf
uman
lim
▁Mark
ctions
▁hardly
egr
ading
▁murder
▁historical
hab
▁ton
▁hun
▁ring
▁Su
▁forced
▁bath
▁anyway
resp
▁Hig
vey
▁issues
▁turning
▁trip
▁interview
lebr
▁river
ica
▁Cong
▁tour
icated
▁train
▁medium
Ar
▁Mer
▁emphas
▁imposs
IC
▁Win
ented
▁crack
ustr
▁review
vi
▁playing
Le
▁appears
▁remark
▁thoughts
▁fant
▁Deane
asy
▁soil
inated
▁Their
▁surprised
Are
▁desire
▁indeed
▁bal
▁bod
▁shoulders
iqu
▁stone
uing
▁Our
▁forget
▁genetic
pro
▁II
aches
ending
▁larger
▁mad
▁virt
▁weren
▁Buckley
▁prepared
▁notice
arsh
▁gent
▁suit
▁results
abor
▁Father
▁impact
▁traditional
▁Rem
▁animals
actions
ril
▁cred
▁speed
atively
▁deb
iforn
▁asking
▁Hemingway
▁Tor
ivity
ounced
▁Tim
using
▁profess
▁worry
ushing
▁Alex
▁philos
▁science
▁conditions
ropri
▁significant
aped
▁bound
sec
Re
▁gives
▁Of
▁aren
▁Curry
▁strength
▁influence
cell
▁fucking
▁Facebook
itual
▁shru
▁establ
ball
▁spl
▁tradition
gest
▁Mon
▁adult
▁Val
▁placed
▁fit
▁quar
embered
orrow
ago
▁Char
inally
▁journal
hetic
attered
▁apparent
▁television
▁required
alt
▁match
▁answered
chan
attie
▁fort
▁button
▁Lou
▁lie
▁deg
Where
▁Mother
▁aim
ander
▁fol
raw
lear
▁fac
▁ship
▁effects
ait
▁throat
▁pp
▁egg
ifornia
▁History
▁computer
rict
▁forces
rs
▁witness
▁Pre
▁attach
urg
ares
▁nav
▁fully
▁carefully
anding
AS
By
mm
▁grad
▁lose
▁interesting
Ph
▁rate
ware
eenth
▁leaned
▁systems
pir
back
▁Miss
▁towards
▁bell
▁alive
▁butter
ero
▁bill
▁Evelyn
▁appre
▁correct
▁Conn
▁associated
▁station
▁knowing
▁becomes
▁relationships
Some
▁Hitler
▁amb
▁snow
▁beat
▁grin
▁usual
'.
cil
▁false
▁range
▁celebr
▁explained
▁City
▁subst
▁garden
ran
▁rain
▁teeth
▁connect
▁managed
▁included
▁apartment
▁length
iber
▁south
▁Hel
▁Int
▁weap
ario
▁broke
▁reasons
▁activity
▁population
Did
bles
▁Life
uary
▁leaders
▁politics
oned
▁Many
▁People
▁Virgin
▁remembered
Ex
▁Guibert
▁transl
"—
▁smoke
▁express
▁humans
ups
▁Med
▁dru
▁Well
▁stock
▁program
▁save
▁Earth
mar
▁Bet
De
sey
acle
▁winter
▁ancient
▁stereot
ribe
▁areas
▁Ber
▁basic
▁calling
▁radical
ores
▁please
▁concent
▁types
▁Add
ses
▁file
▁surprise
▁Tw
▁content
▁investig
▁Ac
ctic
▁Edd
▁extreme
▁wet
▁resour
AC
oms
▁Acc
▁ritual
illed
▁California
▁anx
▁revolution
▁;
odern
▁Che
▁Phil
▁absolute
▁interested
ads
▁Cr
▁produce
aging
▁hearing
▁temple
▁March
▁serve
▁Hannah
▁writer
▁reb
lement
lict
▁comment
▁according
▁knife
▁official
▁Instead
▁due
▁contrib
▁intellectual
▁destroy
▁reports
▁Cam
▁reven
▁fighting
▁impossible
kin
▁sin
▁disease
▁reported
Her
oby
▁media
tr
▁machine
▁rap
▁gest
▁leading
▁entirely
▁Act
▁ens
▁truly
▁keeping
▁DNA
▁wine
▁belief
gil
aum
▁Figure
▁Perhaps
▁staring
▁site
ID
▁pa
▁carry
▁suspect
▁transform
urt
▁prevent
org
▁Hen
aming
osition
▁tables
▁Republic
▁decision
▁cloud
▁occup
▁connection
anged
izes
▁speaking
▁dear
▁independ
▁flour
▁uns
▁opening
▁odd
geant
▁evil
itution
▁forgot
ouses
▁Pres
▁species
isions
imp
ulf
ingu
▁ultim
ception
▁milk
▁legal
▁shared
▁developed
ront
reedom
?_
aker
ogan
▁Indian
▁contro
▁measure
▁Great
pective
▁pieces
cher
▁hero
▁drop
▁calls
ocol
▁contrast
▁Cap
utions
▁lights
▁Germany
ula
▁remains
aph
▁square
ilies
imate
▁ended
▁repeated
▁positive
ternal
▁foreign
▁patients
▁/
order
▁realize
▁structure
gu
▁farm
gl
▁sixt
▁touched
▁Britain
▁dut
▁rid
ancial
▁nerv
▁General
▁willing
▁instruct
illy
▁increase
▁troops
olly
▁lying
▁prefer
▁Mag
gun
▁rise
▁Google
▁animal
▁central
▁Two
▁somewhere
▁cal
▁drawing
night
▁tong
▁mechan
▁Madison
▁▁▁
▁spo
▁calm
▁vision
▁entered
▁windows
▁dust
▁studies
▁standard
▁x
ashion
▁smooth
▁states
friend
▁circum
▁tired
▁priest
▁opportunity
▁mirror
▁provided
ED
▁fed
outhern
▁double
▁customers
key
▁resist
▁neither
▁pressure
pet
uous
▁newsp
▁sales
▁sharp
rab
▁faces
▁mentioned
▁pet
▁code
▁National
▁students
▁darkness
▁Africa
▁sides
▁barely
▁satisf
▁produced
▁narrative
▁id
▁Red
▁tone
▁Congress
▁career
▁famous
▁TV
▁cit
▁exch
▁noted
▁turns
▁silent
▁Virginia
ION
▁spiritual
▁listen
▁mob
▁season
opher
▁gray
▁enemy
▁property
ND
ya
▁motion
▁starting
CHAPTER
▁Mike
▁exer
▁wore
▁worried
▁conscious
▁interpret
▁statement
▁Aust
ivation
▁grown
▁Count
▁Since
▁bought
▁hat
▁photograph
vere
▁guys
▁angry
▁tonight
▁occasion
▁discovered
uce
▁charge
▁quality
▁learning
▁Any
▁Islam
▁conserv
▁happens
▁tele
▁antic
ino
▁feelings
▁Yet
ooper
▁mostly
▁somehow
▁moon
Can
ails
cies
▁Law
ighed
▁assist
▁der
▁goal
porary
▁despite
▁particip
▁details
▁services
IL
new
---|---
▁bodies
▁sexual
▁horse
respond
min
host
roud
▁mel
▁tax
▁Smith
▁join
▁jour
▁pale
▁autom
▁tells
▁altern
▁ordered
▁argument
▁critical
▁Dem
▁Park
▁purs
▁obl
cknow
▁magn
▁drove
▁joined
▁enter
▁forth
▁recent
isters
▁layer
▁Sept
▁pu
▁treatment
iot
essed
▁print
▁gentle
▁transm
rain
▁Naz
▁gri
▁taste
win
house
which
▁pound
▁victim
▁yellow
▁distinct
▁oz
aret
▁Reb
itute
▁vide
▁heaven
bridge
icious
▁Lucy
▁highly
▁industry
▁religious
▁Cassius
hib
▁princi
▁flo
stone
▁reject
▁bedroom
▁concerned
aved
anish
▁total
▁inj
known
▁setting
Good
▁internal
▁grass
▁ec
▁putting
▁contem
eping
▁conce
▁metal
▁pages
▁caused
▁terrible
anted
▁intern
Maybe
under
▁collect
▁conclud
▁dressed
▁document
▁production
▁actions
▁instance
▁rob
arian
▁April
▁labor
▁shock
▁levels
icro
▁views
isms
▁harm
▁colon
▁fellow
Bl
▁Franc
nds
▁Lee
▁laid
▁consum
▁security
▁established
▁wra
▁schol
▁seeds
▁Spe
▁soul
▁nut
▁blank
▁require
▁radio
▁ge
elve
orter
▁Trans
▁camera
ae
upid
inger
▁rele
▁Latino
▁dangerous
▁rules
▁lady
▁solid
▁Mattie
▁fiction
▁moments
▁gro
▁actual
▁authority
OM
▁Squ
▁served
▁streets
▁gently
arn
▁buyer
▁thank
▁glanced
▁individuals
▁Bel
▁trem
▁doors
▁heads
icago
▁task
cember
▁aircraft
▁Only
▁Where
osen
▁pocket
▁integr
▁nation
▁European
▁opposite
▁pil
ested
inking
▁fifty
▁descript
▁construct
oured
▁wonderful
**.
iverse
▁digital
▁-
▁Munn
▁poetry
▁useful
▁lit
▁member
raham
▁plastic
▁condition
▁Had
▁aside
▁flower
▁global
▁leader
owned
▁Rand
▁speech
▁unique
▁shouted
▁coal
▁England
▁bomb
▁begins
▁eating
▁demonstr
rid
▁pin
▁advant
▁justice
▁generally
claim
omach
▁Cons
▁rule
▁forty
▁Western
▁restaur
▁ru
▁pure
▁sounded
▁teaching
IG
illip
▁plat
▁cried
▁hidden
▁appreci
EL
mas
▁wis
earch
▁grabbed
fess
rate
▁Joe
▁hes
▁Did
▁Que
▁notes
▁consist
▁aband
▁favorite
hy
icate
▁exec
▁affect
▁addition
Un
azine
▁cere
▁circle
▁lifted
▁separate
▁OF
▁Mel
▁Canada
ita
▁unlike
Look
eding
▁anti
atically
▁tea
▁vot
▁stayed
▁families
▁transaction
▁consequ
▁recall
▁Im
kins
mann
▁drew
▁basis
▁▁▁▁▁▁
ulations
uk
▁uses
▁stomach
▁glad
▁River
izz
uries
▁multip
▁intellig
▁progress
asm
▁Henry
▁style
▁manner
▁successful
▁Nove
▁coat
▁meas
rigori
▁flesh
▁becoming
US
aud
▁wel
verage
▁stairs
▁dial
▁hide
▁stream
▁background
gging
▁bear
▁dism
▁burst
▁financial
ios
▁Ow
▁missing
▁promise
ober
▁Old
▁Rev
▁Fitz
▁sequ
earing
sson
based
▁promised
__
five
▁crazy
http
▁Each
▁lock
▁shif
▁categ
▁neighbor
hand
▁roll
▁relax
▁flight
▁pressed
anda
gels
▁Over
apping
olm
▁headed
▁passage
▁Mur
▁Kent
▁thousands
▁wear
▁taught
▁Sometimes
▁hotel
▁suppose
▁gather
▁finding
orted
▁rough
▁shirt
▁appropri
▁trade
no
igned
▁fool
▁fruit
▁desper
▁Jackson
Se
ibrary
▁Carol
▁critic
▁escape
▁narrow
▁recently
ils
▁ing
▁recomm
ola
▁maintain
▁Leo
▁agree
▁alt
▁copy
▁iron
▁lunch
▁rolled
▁ourselves
——
▁silver
do
ENT
▁Rob
lands
▁Mart
▁hoped
▁gotten
ught
▁shop
▁analytics
▁experienced
▁cy
▁gaze
▁pair
▁emp
▁webs
ipping
uments
▁Bosch
Okay
▁tongue
onna
▁ears
ctober
▁anger
pre
Every
itely
▁Walter
▁bottle
Here
enny
▁male
▁disci
▁mental
▁sacrif
▁primary
▁showing
▁Com
▁Dar
▁bud
olic
▁otherwise
▁management
▁failed
ka
fast
▁Karp
▁knees
▁quietly
▁creating
▁)
▁plane
▁union
▁discussed
cm
sed
▁East
▁juice
▁handle
▁conflict
▁contract
cont
▁jack
tering
mo
▁twice
clusion
▁officers
▁lad
▁joy
▁intended
eled
▁Jean
▁laws
▁stir
▁truck
mark
▁Max
▁threw
▁selection
▁ban
don
was
▁Pal
▁Louis
iveness
▁opin
▁Charles
isp
zed
▁Art
▁Good
ifying
▁visual
aron
▁wedd
▁push
▁emotional
▁Sw
▁Wilson
▁Russian
▁matters
ida
athy
ship
ounce
▁forg
▁hate
▁medical
▁refused
▁related
**_
cho
ein
uci
agan
▁damage
▁divine
▁precise
▁September
Mr
bre
orks
▁meat
▁roof
▁initi
Because
▁easier
▁region
▁shadow
▁nervous
▁perspective
▁lob
eling
Americ
▁stupid
▁seconds
▁suffering
goti
▁Stud
▁drag
▁scar
▁Arctic
ux
▁dozen
▁Winston
▁race
▁shel
▁dollars
▁December
itect
wards
▁Times
▁magic
po
azing
▁medic
▁anymore
▁workers
▁somewhat
adem
▁officer
▁pleasure
lor
▁Code
abb
▁Eric
▁Daniel
▁careful
▁freedom
ki
hens
▁eld
▁feels
▁inher
▁crossed
▁scenario
▁citiz
▁struck
▁west
▁prior
▁spect
▁adjust
▁features
▁training
▁countries
▁Oh
▁dance
▁veget
▁boat
ocolate
OT
pel
▁phen
▁purchase
▁correspond
▁recognized
▁hole
▁Bur
▁wid
▁Social
▁June
▁delight
▁smaller
▁attachment
illa
roll
▁forever
▁readers
▁rapid
aks
ella
▁elements
ulous
▁Adam
▁Mist
▁busy
itable
▁noise
▁experiences
stairs
erences
▁Spirit
▁products
▁rum
phone
▁paint
▁pra
while
▁accident
▁Po
olved
▁saf
▁economic
olid
▁circ
▁philosoph
war
exic
athered
ette
otic
▁dad
▁cann
▁importance
yr
IV
usal
▁Use
▁Jose
bru
▁je
rial
Tr
inem
▁acknow
▁tomorrow
ypes
place
▁July
▁fallen
▁hanging
▁describe
▁gas
eness
icient
▁birds
▁drawn
▁stuck
▁college
▁improve
spect
gments
▁female
▁Sergeant
▁carrying
bb
▁Dep
▁Tem
▁cho
▁ends
▁smart
▁video
▁answ
▁predict
▁deeply
▁values
▁Francis
arc
▁fly
▁libr
▁identify
▁happening
ourt
▁unless
▁signs
▁murd
▁loose
▁recognize
▁Rub
▁fault
▁staff
▁handed
▁conduct
▁user
looking
▁obviously
▁organization
▁Charl
▁arrest
▁receive
▁scr
▁Cult
anch
▁Hall
▁Mess
▁efforts
▁wire
▁identity
▁Look
illing
▁attend
apan
▁cig
▁tick
▁Union
orthern
▁Journal
bruary
▁stead
▁kissed
ategy
▁January
▁mission
▁La
icles
▁comfortable
eds
▁Ver
▁tim
oston
▁Commun
▁settled
uf
▁Mom
▁pill
▁patient
▁younger
▁circumst
ograp
▁fields
▁collection
ynam
▁Those
▁kinds
▁Review
▁increased
▁sword
▁Muslim
Journal
▁editor
▁strategy
▁discussion
father
▁items
▁panel
▁honest
▁status
▁Carl
▁honor
▁merely
▁convention
▁liqu
▁Alice
▁shoes
Even
▁Annie
▁worst
▁designed
say
▁rul
iform
ption
itated
▁defend
olit
▁root
▁equal
▁container
▁upper
▁sighed
▁Helen
▁platform
▁spr
icing
usted
▁journey
▁shrugged
Or
▁twelve
▁characters
othy
▁lawy
da
ga
arry
inate
▁asks
▁entr
▁compar
Thank
ointed
issa
ourse
▁negoti
cest
▁rot
▁High
▁cock
▁Mexic
gn
▁east
▁multiple
eder
▁policy
▁burning
▁du
term
▁Bible
▁village
▁education
▁dram
leep
▁phr
▁judge
▁bitter
▁accepted
▁listening
nic
▁rac
▁fought
rees
▁oven
fortun
▁plans
▁slipped
zan
▁Ob
▁cro
gypt
▁Test
▁occurred
▁childhood
From
▁nine
▁qual
▁Brown
▁offers
▁univers
▁Pet
erves
arrass
▁fifteen
▁drinking
▁generation
▁responsible
oom
▁Both
▁miners
▁essential
▁resources
Will
▁sem
▁teasp
▁cells
▁Chicago
▁November
▁bom
▁spir
▁capac
▁judgment
▁Work
▁active
▁variety
▁notion
▁Ice
▁struggle
▁performance
asant
xford
▁Jones
▁papers
▁Phillip
down
▁flav
▁innoc
▁wedding
clus
▁Reg
▁myth
▁driving
▁Its
mother
▁State
▁hoping
▁possibly
AM
▁rout
▁limited
▁memories
iance
▁calc
▁advantage
rence
▁Evie
▁buildings
orts
alcolm
umbled
▁daily
▁sheet
▁Confuci
▁fashion
▁partner
▁suggests
rog
▁hill
▁ghost
▁Virgil
▁claimed
mond
▁Japan
▁houses
▁bathroom
water
▁cars
▁throw
▁title
▁decide
▁orders
entially
▁October
▁surprising
andy
▁diss
▁flying
▁Profess
▁effective
▁temperature
▁vac
urance
▁smiling
▁forgotten
▁Go
oday
▁Min
▁helps
▁network
▁religion
can
▁Before
▁Christmas
▁ske
▁Though
▁somebody
acles
▁balance
▁apparently
olt
▁skills
▁provides
spe
born
cast
▁Step
archais
ala
▁Fil
▁sou
ilian
▁sevent
▁Library
▁victory
▁greatest
aumarchais
▁habit
▁trial
▁formed
athaniel
urb
icken
▁degree
OL
leg
▁Sar
▁cas
▁Egypt
▁paused
▁perfectly
▁differences
ements
▁storm
▁height
ht
ped
anging
▁accounts
▁additional
acks
▁doct
▁finish
▁falling
AF
▁discover
▁Books
▁entry
▁Another
▁healing
▁Sea
▁gar
▁cash
▁hors
▁Democr
▁accomp
▁defe
▁thanks
▁embarrass
▁appearance
▁determined
▁Gold
▁coast
▁remove
▁aspects
▁gathered
emon
▁chap
▁numer
▁achieve
▁presentation
▁vend
idents
ighter
▁shaking
▁exercise
▁Dead
▁gift
roduction
▁AND
▁plate
ensions
Darv
ours
▁tag
Darvid
▁student
▁introduced
den
▁myst
▁tent
▁Adams
▁advert
▁desert
▁fright
▁removed
▁negative
Ab
▁pink
▁relief
▁Lev
▁studio
▁wealth
▁focused
ogue
▁bab
ties
lessly
Pro
▁Still
▁observed
ixture
▁fixed
▁gonna
▁advice
▁nobody
▁warning
Come
▁proud
▁pictures
▁President
▁scientists
▁Fred
▁lies
▁Greek
▁teacher
Me
Book
icon
▁existence
ompl
▁strateg
inder
century
▁nearby
oln
▁sen
▁vul
▁impl
▁Society
▁Day
▁Ital
▁missed
▁thinks
OS
▁Ken
▁Sab
▁Marl
▁proceed
▁breathing
▁unw
▁possibility
God
sem
van
agon
▁weather
▁violence
▁tal
▁unus
▁inner
▁mixed
Ed
▁chief
▁crime
▁descend
▁mas
▁commit
ications
▁Clara
▁Polit
▁anywhere
tta
▁gain
▁uncom
▁administ
▁mountain
inese
▁Line
▁territ
▁uniform
▁Bal
)—
ache
▁Arn
▁wooden
▁sam
ether
▁funny
▁roots
Pe
▁Gar
▁ride
▁literary
THE
▁beauty
▁release
▁circumstances
apes
cons
▁**_
▁rat
▁tor
isher
ginson
▁starts
▁experiment
bel
ipe
▁poet
▁resc
▁location
▁suck
ateful
▁February
▁insisted
▁Analytics
yal
▁blow
▁rear
▁laughing
▁approached
rich
itter
▁pref
▁changing
,**
weh
▁McC
▁cow
▁flag
▁driver
▁prayer
▁painting
▁TH
▁Big
raged
▁susp
▁explan
onom
▁Sav
▁Stan
▁wave
▁greet
▁swall
▁Dis
▁navig
▁allows
ints
oral
▁Mill
▁elev
▁pool
▁vast
▁strike
▁everywhere
zi
ender
▁Lady
▁Scott
usiness
▁safety
▁arrange
▁library
▁bringing
▁forehead
▁Ly
anche
▁Mont
▁adop
▁beer
▁assumed
▁benefit
▁closely
▁intense
▁wrapped
▁architect
law
▁plain
▁squee
▁column
▁credit
▁Yes
▁rice
▁remaining
▁absolutely
elf
▁Bo
urse
iders
▁bless
▁trick
artment
▁presented
ye
▁gall
American
▁Dad
▁rent
▁sail
▁dying
▁accompl
▁passing
hest
incoln
▁incred
▁visible
ums
erry
rated
orical
▁chann
▁extract
▁sleeping
agn
vis
▁Bart
▁boss
▁photo
▁Second
▁imagined
▁revealed
real
▁vent
standing
▁electric
▁literature
▁Christopher
▁Del
adron
iable
ET
▁Ham
inced
iques
tical
▁embr
▁unable
▁average
▁figures
▁healthy
▁hundreds
riors
▁Mass
▁fasc
itched
▁tools
▁Papers
▁terror
OW
cr
▁Mic
These
▁flew
▁suppl
ns
▁sav
▁rooms
▁Offic
▁baking
▁minister
▁shooting
verse
▁flash
▁leads
▁sisters
▁solution
AD
wing
▁Nora
▁stands
▁instant
▁passion
▁permission
avery
▁symp
▁encoun
▁locked
▁Tom
▁menu
▁cheese
▁excell
:_
▁enth
▁appropriate
▁Sl
aisy
they
▁Dam
▁enorm
▁faint
▁sauce
▁released
▁activities
Qu
▁hyp
▁map
▁imper
▁acting
▁requires
enced
▁helping
▁une
umber
▁minim
ishment
▁beings
Mc
rete
zing
▁Land
▁metaph
Am
▁Anne
▁Vict
▁plenty
▁chocolate
▁emotion
▁website
▁writers
▁rom
▁sir
▁mort
▁peer
▁cheek
▁woods
utation
▁failure
▁reaction
▁vamp
▁burned
▁marked
▁challenge
▁Det
▁Pass
▁toss
▁reminded
ca
▁Flor
▁commer
▁golden
▁Central
▁sources
▁examples
▁exchange
▁newspaper
▁patterns
▁Ell
▁hom
ashing
▁Mount
▁chose
▁youth
▁begun
essions
▁bloody
▁Spanish
▁selling
▁restaurant
wall
▁tow
▁guide
▁raise
▁During
och
opy
usi
Once
arly
▁bul
▁damn
▁loyal
▁recon
▁Chinese
cean
greg
icit
▁vote
▁drunk
uscript
▁leather
alle
▁chosen
▁online
▁Arab
▁Norm
▁mood
▁prove
▁lat
▁fairly
▁transfer
▁environmental
azed
▁script
▁mixture
force
aturally
▁creation
▁protection
▁IN
▁Out
▁nod
▁nuc
▁audit
▁extremely
inted
▁tape
inging
▁citizens
],
han
enly
▁Barb
▁stars
his
▁CE
eline
▁duty
▁magazine
▁exha
ivered
▁Grace
osm
▁sche
▁Jefferson
mpt
ench
▁Germ
▁totally
▁recorded
nam
uten
▁description
▁disappeared
Sp
▁Lake
inating
▁checked
▁illustr
ini
gger
▁wip
▁persu
▁opinion
▁According
▁waste
▁argued
▁investment
una
ipment
▁terrif
▁compared
▁Revolution
▁Tam
▁overw
▁killing
▁tu
ieth
▁flow
▁accur
▁apply
▁ninet
▁Sabrina
▁consciousness
▁Rog
▁rein
iments
▁assume
▁overall
▁brothers
▁breakfast
bec
aude
▁Grigori
▁traffic
▁knock
▁anticip
▁establish
▁everybody
▁department
▁application
▁professional
rian
While
pring
ucked
▁leaf
▁pour
▁sweat
reement
ollywood
▁defense
▁pulling
▁scholars
▁construction
▁dogs
▁admit
▁shift
▁bridge
▁crying
ugs
▁Kn
▁Get
onnie
▁Billy
▁Logan
▁teach
▁dimension
▁Dan
▁Jon
▁pul
▁cake
▁club
▁Finally
▁objects
▁practices
Like
▁Three
vention
▁Joseph
▁horses
▁Internet
▁announced
ker
▁Time
▁slid
levant
▁Never
▁boots
▁ideal
▁formal
▁observ
▁distract
▁election
▁TO
Somet
▁Hill
▁prem
▁Boston
▁angels
▁Mistress
▁ain
▁ded
▁voices
▁Professor
▁Bi
istry
▁hook
▁exped
▁selected
▁international
ailed
▁meal
▁sake
▁sole
▁wake
▁sched
▁candid
oir
acter
▁Such
iffany
▁Civil
▁Indeed
▁latter
▁convinced
▁documents
abis
iana
udes
inent
▁Thus
▁Oxford
▁soldier
▁offering
▁tracking
Per
▁Mem
unning
ulating
▁lovely
▁fan
▁claims
▁engage
▁referred
▁Cambridge
▁Nathaniel
▁processes
▁identified
▁Ot
rous
▁lip
▁fulf
▁jacket
▁supply
▁Ir
rick
▁Also
▁harder
▁factors
▁benefits
▁universe
eks
roup
estic
▁China
▁mothers
▁connected
venant
▁saved
▁Edward
▁Inc
▁Mal
iently
▁eager
▁adults
▁planning
▁scientific
▁Sen
istics
▁uncle
▁Malcolm
▁declared
vv
▁Pri
▁Tar
▁unit
▁genes
▁marry
▁Temple
▁shouldn
▁employees
▁sets
▁Bob
▁instinct
TM
rem
▁Ros
▁Lanc
▁Under
▁polic
▁clut
▁crim
▁glance
struct
▁responsibility
irms
▁sust
▁emerg
ologists
mony
▁cloth
▁deliver
▁demanded
▁highlight
▁operation
Go
▁bent
▁adapt
▁equipment
omed
▁Lyn
▁Right
▁compound
▁Beaumarchais
▁earn
▁Higginson
encies
▁ought
▁software
▁intention
▁frequently
▁shr
aning
stein
▁India
▁cutting
▁studied
▁capacity
rant
ij
oto
point
▁till
▁Court
▁communication
Ad
▁row
▁cart
▁chem
▁chain
▁cancer
▁deeper
▁doorway
▁temples
▁subjects
iley
▁sne
▁Arch
▁item
▁guests
▁follows
▁survive
▁determine
Our
had
amin
eren
▁Tra
otion
stract
▁intent
▁spoken
▁enthusi
▁invited
▁mistake
▁expensive
▁Mil
ronic
▁Port
▁guns
▁fourth
▁powers
▁scared
▁CH
▁desp
▁dish
▁initial
▁friendship
AK
anny
four
▁Dou
aping
▁situ
▁listened
▁Confucian
▁relatively
two
▁Air
▁san
▁quant
▁County
▁ancest
▁treated
aine
ishn
▁grace
▁pleased
TH
▁Bu
▁soci
▁resem
▁compost
▁options
ogen
inema
ittee
▁Post
▁wished
▁article
▁planned
raph
▁Nothing
▁includes
thel
uits
scape
▁agent
▁films
Any
▁jumped
▁competition
ef
viet
▁subt
▁angel
▁decor
▁runes
▁ceiling
")
ois
works
▁butt
▁decades
▁enjoyed
ibilities
col
▁cups
esides
▁bigger
nda
xual
▁Ange
▁Duke
▁fired
▁micro
asingly
igenetic
▁Italian
▁rail
▁photos
▁weapons
▁flood
▁immig
amental
▁Company
▁massive
▁centuries
▁practical
▁:
adia
ilty
▁Sund
pected
▁grasp
▁Iceland
▁surrounded
akers
terly
▁gang
▁Again
▁dynam
▁constantly
rors
agger
▁grave
▁horiz
▁excellent
▁wondering
!_
Was
top
▁tail
ington
▁memor
ogether
▁ingred
▁physic
▁entrance
▁gate
▁Andre
▁oblig
▁advent
▁letting
▁symbols
▁distingu
▁encourage
▁reference
Mar
who
▁Rom
▁Bear
▁sees
▁border
rep
▁ast
clock
▁murm
▁lucky
▁spell
▁naked
▁wheel
▁movements
ogy
eman
▁acquis
▁client
▁Lindsay
▁communities
Hey
———
odes
pted
this
child
▁poll
▁bones
▁scale
acked
enses
▁hated
▁honey
▁weeke
▁rising
▁testing
RI
amber
▁Party
▁depth
▁rarely
Get
ria
aters
umped
▁cous
▁subm
▁tied
anches
▁marks
▁Lincoln
▁visited
ta
umph
▁trib
Before
▁Martin
▁phrase
▁breaking
▁independent
uls
class
sters
herent
▁twent
ologist
▁asleep
▁dreams
▁Latinos
▁Hollywood
bur
▁Jo
otes
road
▁veh
▁Four
▁element
▁overwhel
▁expressed
▁rare
▁sins
▁parties
▁director
▁laughter
ierce
▁clin
▁furn
▁Canad
▁implic
▁losing
▁feature
ban
heim
unes
▁perce
▁island
▁liquid
▁Messiah
fortunately
▁Sil
▁rang
▁assess
▁guards
▁volume
▁Angeles
▁answers
then
thur
ammed
▁Etta
▁Church
▁horror
▁climbed
▁ID
▁Note
▁drug
▁insp
▁typically
▁International
ato
▁Page
orders
▁owner
▁seriously
rait
▁sho
▁Publ
icking
▁graph
▁waist
▁corpor
ointment
▁excited
▁Christians
abeth
Although
▁glasses
▁manager
rah
▁ash
▁ate
▁Camp
▁landed
▁whenever
oyd
rum
....
ufact
▁Clay
usalem
▁faster
▁scheme
▁conservative
Two
▁Rec
▁bat
▁chin
▁biggest
▁Department
▁ST
▁Allen
▁beast
▁regret
▁Williams
rim
▁adding
▁muscles
inch
▁Los
▁impress
▁involve
▁extended
Pl
bal
▁epis
▁puzz
▁refers
▁Jac
▁cabin
▁domin
ym
aver
▁Eli
itors
▁Holy
▁argue
▁files
▁skill
▁attrib
▁ignored
▁liberal
ado
rag
umm
▁flu
▁signed
▁kingdom
▁confront
▁destroyed
▁searching
▁Eddy
▁divor
▁occas
▁buried
▁native
▁sought
▁Florida
▁capable
▁contemporary
igg
itger
▁core
▁giant
▁Lilian
▁Russia
▁interrupt
▁regarding
▁vir
▁earthqu
▁session
▁unusual
▁external
UR
inth
▁Ass
▁keeps
▁pregn
▁whisper
▁concerns
coh
iest
uine
▁Men
izabeth
▁phenomen
▁runs
▁Melville
lon
ishes
▁Harr
▁lift
▁plus
omatic
uddenly
izations
Ne
ket
▁jer
ichol
upp
▁Victor
▁brings
▁therap
▁advance
▁committed
Have
▁Ray
▁household
Ben
John
angle
inter
▁optim
▁Soviet
▁parking
des
coming
▁Daisy
▁Pauline
▁lightly
▁emphasis
▁recalled
▁describes
IR
Con
▁Cle
ennes
▁badly
▁clock
claimed
▁contains
pan
▁plot
▁poem
▁puts
▁ships
▁split
Another
▁neighb
▁consult
▁constant
▁enormous
▁ordinary
▁Emp
▁applied
CT
onym
▁seek
ishnah
▁confident
bon
uration
▁Research
▁completed
▁interests
htm
▁Put
▁Van
▁fab
▁edited
▁extent
▁advanced
▁Di
irect
▁Marx
▁Sean
▁dirt
▁eggs
▁Roman
▁eyebr
▁limit
▁Germans
▁replaced
▁teaspoon
---|---|---
osis
▁Data
▁fart
▁stim
▁Higgs
▁beach
▁palace
agers
▁Love
▁aest
▁buck
▁blond
▁proof
▁thigh
▁artist
▁insist
▁Bre
▁shake
▁expand
▁Captain
▁distrib
▁employee
lle
ora
case
orry
▁Mir
▁Pan
▁Flash
▁orange
▁Officer
aria
———.
▁Fre
osure
▁Nazi
▁Would
▁vulner
velation
▁marketing
▁previously
▁alternative
▁imagination
overy
ungle
▁abstract
worth
▁sale
▁stereotypes
unted
▁Long
▁Make
▁route
▁largely
▁revenue
▁succeed
▁immediate
▁expedition
fr
addy
iner
useum
▁Nick
▁cheeks
▁stretched
▁consequences
iat
▁Isa
ospel
▁inev
▁wand
onents
▁trail
▁emerged
▁regularly
green
Claude
▁holds
▁driven
▁testim
▁Franklin
▁territory
▁que
▁echo
▁Sarah
▁dining
▁invent
▁occurs
▁increasingly
▁intelligence
isa
uate
▁Fed
▁por
▁sigh
▁unex
▁reduce
▁weapon
▁Austral
▁Through
▁genuine
▁impression
fall
overn
▁brand
▁quarter
ustration
▁attached
▁Jerusalem
▁confidence
step
hemat
angers
▁inches
▁combination
hard
▁bond
▁dread
▁gle
erent
▁dirty
▁models
▁softly
▁mountains
OP
going
▁Cath
▁sink
acking
orough
▁slept
through
▁transport
cul
▁sed
inked
▁grim
▁edges
▁guilt
▁stiff
utenant
▁autumn
ognitive
▁anybody
▁pushing
▁symbolic
▁precisely
ST
▁Sn
▁Myrina
▁bother
▁heavily
▁slavery
▁secretary
▁explanation
▁transactions
ii
iva
▁craw
▁games
▁minds
▁unknown
eting
▁parr
▁waves
▁courage
▁welcome
sect
wich
▁drift
▁Sunday
▁fantasy
▁agreement
▁principle
▁gods
▁rand
terday
▁users
▁perman
▁warned
▁captain
▁economy
▁methods
sell
rical
▁Moon
▁debate
▁Without
▁defined
▁Linda
▁royal
▁guilty
▁gesture
▁tension
▁existing
▁majority
▁acknowled
▁Ep
irts
outs
▁corn
▁slide
▁Mishnah
▁ultimately
▁neighborhood
▁Eth
owder
▁Asia
▁lots
▁attor
▁faced
▁homes
▁sympt
▁upset
▁lawyer
▁inherit
▁conference
▁isol
Please
▁exposed
▁returning
Int
▁Er
aren
▁Ang
▁Str
▁fate
▁random
▁cooking
▁era
alone
▁worn
ivated
▁Power
theless
▁reader
▁reveal
▁surely
▁concrete
▁sacrifice
arity
asted
▁Royal
▁tough
▁Associ
▁ensure
▁continues
▁cultivation
foot
pson
▁dawn
▁steel
▁absence
▁ceremony
▁universal
▁instructions
riff
kward
▁proced
▁anxiety
▁engaged
▁largest
▁serving
▁tort
esting
▁democr
▁heading
▁records
▁interpretation
tained
▁Eddie
▁Light
▁Psych
▁react
▁shell
▁handful
▁creative
▁suffered
▁abandoned
▁decisions
▁surrounding
IP
pes
▁Es
▁Gal
angel
▁Inter
▁evident
▁sentence
heart
▁theme
▁withd
▁proved
▁suffer
▁discipl
▁spirits
▁screamed
bow
elling
▁costs
aco
icide
hether
▁facing
▁loving
▁clothing
▁Up
appy
word
▁Bay
▁bark
▁Event
▁attractive
▁fundamental
▁tur
▁lapt
▁Queen
▁moves
▁thumb
▁Custom
arge
▁Hal
▁Son
▁wisdom
▁manufact
▁Something
▁avo
▁fuel
▁mode
▁texts
▁afford
▁owners
▁teachers
OD
▁Hot
▁Spain
▁weird
▁wounded
▁southern
▁techniques
▁via
▁ment
▁corrupt
▁feeding
▁Carolina
▁pointing
▁responded
ibid
▁pit
uable
▁Bern
▁armed
▁minor
▁verse
▁player
▁awkward
▁Squadron
bar
▁disg
▁distant
▁sending
▁shadows
▁branches
▁entertain
adel
▁Baby
▁Prot
▁bone
▁Lynch
▁brill
▁hungry
▁briefly
▁frowned
▁routine
▁Business
Most
life
▁bast
▁summ
idering
▁causes
▁entity
▁reward
▁grinned
▁Imp
▁Sur
agues
▁icon
▁knee
aining
▁march
▁yours
▁commercial
quar
▁Off
▁Take
▁Wall
▁holy
▁spark
▁reprodu
▁handsome
tha
icted
▁alcoh
▁joint
▁widely
▁enemies
▁extraord
sm
▁shar
▁folks
imental
▁Nichol
▁resistance
bra
▁thri
▁intim
▁wanting
▁raw
inson
▁couch
▁finds
▁pilot
▁option
▁dismiss
▁equally
▁singing
▁thorough
Sure
iece
▁lake
unting
▁owned
▁literally
▁epigenetic
▁Lie
▁Yah
▁spin
▁cards
▁parad
▁Little
▁apolog
▁cities
▁muscle
▁planet
▁secure
▁Islamic
▁subsequ
▁typical
▁screaming
oma
ester
▁gasp
Christ
uthors
▁Child
▁Despite
▁figured
▁attacked
reck
▁cops
▁Group
▁Center
▁conver
▁thrown
▁emotions
aned
▁aid
acher
▁myster
▁vendor
▁recommend
▁Mo
gend
eless
▁Remember
▁primarily
olve
▁Keep
▁Maud
▁Tony
itudes
▁foods
▁telephone
▁Sa
vies
▁voc
▁frozen
▁deliber
▁explore
▁helpful
Ann
Eon
apa
ena
▁Hu
gent
ortion
▁Today
▁Which
▁rolling
▁▁▁▁▁▁▁▁
▁ultimate
▁ven
First
arant
▁Have
▁lect
▁yards
▁detect
▁properly
▁grandfather
mn
mail
▁Rel
▁Fort
▁Hell
▁hers
▁teen
▁champ
▁Science
▁filling
▁painted
▁admitted
▁frequency
▁psychological
▁Marg
▁relie
▁ridic
▁shame
aturday
uper
▁lap
unnel
▁Torah
▁manip
▁recip
▁compass
▁snapped
▁definitely
BA
ros
▁EH
etics
icial
▁excess
▁Marlene
▁attitude
▁confused
▁connections
regg
unte
iture
▁neat
▁Everything
▁conventional
xim
oked
▁palm
▁Julie
▁flock
▁manif
▁rapidly
▁worship
▁Francisco
iam
eous
▁Att
▁Dor
▁Jimmy
▁elder
▁contained
▁ingredients
even
▁Pers
oration
unction
▁variation
▁philosophy
EP
IDS
ource
▁mail
▁switch
▁illness
▁Beh
▁rhy
▁wings
▁poison
▁dancing
▁federal
xy
Ind
aya
▁ye
long
▁Greg
▁Creek
▁cheer
▁craft
▁writes
▁dealing
▁indicate
equ
burg
▁goods
▁Flight
▁curious
Gen
Which
▁Jane
▁diet
▁loves
▁chicken
▁occasionally
▁Us
aism
▁Cub
▁unh
▁Using
▁Letters
▁dragged
Des
car
▁Ty
▁Tol
▁jail
erning
▁shield
▁visitors
▁personality
▁specifically
orse
▁cris
▁intr
iation
▁dried
▁nurse
▁device
▁northern
▁encounter
▁structures
eney
▁hasn
▁swim
▁blade
▁ocean
▁explos
▁landscape
walk
▁soph
▁wash
erable
reggvi
▁buyers
▁movies
▁Hreggvi
▁reputation
aying
▁guest
▁nights
▁paying
▁sequence
▁naturally
AY
cipe
resents
▁grateful
▁uncomfort
—'
pled
enger
oster
Firing
London
▁alien
▁nowhere
▁generations
osy
▁fo
amps
lets
▁tab
▁Owen
▁drugs
itement
▁regist
▁relation
▁desperate
▁supported
▁increasing
▁destruction
berry
▁alarm
▁decade
▁elabor
▁lesson
▁closing
▁covenant
▁innocent
▁Testament
▁cot
▁acid
▁fist
▁jobs
▁obsc
orious
▁reass
▁Abraham
▁Canadian
▁ministry
▁represented
asty
▁YOU
▁Human
▁facts
▁paras
▁pride
▁landing
▁located
oded
quis
▁Bav
▁Rod
▁clo
▁voters
▁assured
▁payment
▁stronger
aws
comm
▁logic
▁Elizabeth
▁elsewhere
▁Aud
▁Wind
▁scan
▁Const
▁folder
▁directed
▁friendly
▁controlled
ommun
▁Viet
donald
▁Tammy
▁expert
▁dramatic
▁purposes
Pr
eff
aste
▁Serv
▁Grand
▁lemon
▁agency
▁tender
▁governor
▁ax
▁Sir
▁pants
▁plays
anwhile
▁concepts
▁creature
▁distress
▁partners
▁opposition
▁IS
▁FOR
▁Brad
▁mere
▁firms
Nothing
▁mobile
▁pounds
▁politic
▁trigger
▁Japanese
▁Christianity
vest
▁Lew
pless
▁Rose
▁annoy
▁incor
▁screw
▁demands
▁organized
▁Sun
▁Ahab
▁pron
▁rode
stream
▁absor
gly
phe
umps
▁boo
▁gut
▁wise
▁agents
▁colors
▁cleared
▁complicated
**|
arib
▁rif
riger
▁neut
▁angle
▁exhib
▁School
▁orient
▁prophe
▁funeral
▁Everyone
▁Tre
▁alb
▁unp
itate
▁cosm
ensity
▁Chris
Tiffany
▁regions
▁concluded
jo
rad
urd
▁Nap
▁Army
▁Liber
▁blame
▁Arthur
▁betray
▁attempts
▁chapters
▁recording
aus
cks
etch
iser
inction
▁reluct
▁signal
▁billion
▁weekend
Ah
nes
▁Nav
▁syn
uster
venue
▁rush
▁shore
▁laptop
▁Kh
omin
▁Harv
▁prote
▁Valley
▁combined
▁grandmother
.:
atal
▁Heb
▁Film
▁mild
▁Simon
▁Modern
▁Yahweh
▁request
awn
human
▁appe
▁Angel
natural
▁Script
▁preced
▁acquired
▁relevant
▁yesterday
▁conclusion
▁tie
ishna
Donald
▁cheap
▁lover
▁hallway
▁normally
▁proposed
▁discourse
isse
▁Ill
▁lic
▁Dick
▁Emma
▁Tink
▁silk
orient
▁Quill
▁topic
▁excitement
OV
ias
omme
▁gene
▁godd
▁nations
ila
nel
heast
hesis
▁Jeffrey
▁reduced
▁hesitated
ayne
ollow
▁batt
▁bite
▁grip
▁joke
▁fears
▁steady
▁crucial
▁players
▁reflected
▁developing
arse
from
athan
▁shots
▁waved
▁hiding
▁devices
▁numerous
Sm
obe
bell
pass
▁reck
▁sons
unched
▁Brand
osphere
▁category
ayed
obody
arette
timore
▁outer
▁Berlin
▁margin
▁highest
▁staying
▁commission
▁Sal
oning
everal
▁awful
▁compre
▁farther
▁technical
▁traditions
Hell
▁Rad
icism
▁wiped
▁reform
▁Southern
▁supplies
▁Republican
▁represents
▁automatically
▁acts
▁cher
blical
vation
▁Candy
▁nutri
▁panic
▁layers
▁Ol
udge
▁Kat
oland
▁folk
▁Empire
▁slaves
aneously
▁amazing
▁auditor
celer
▁Rock
▁blur
▁knocked
▁studying
▁performed
▁industrial
wed
▁Sat
▁impr
▁rect
▁alert
▁batter
▁classes
▁markets
phia
weet
▁Ari
▁Hamm
▁belly
▁feared
▁versus
▁Besides
▁cannabis
rude
after
▁keys
▁Larry
▁chairs
▁poured
▁accompan
▁touching
put
crib
keep
▁Dec
▁Luc
▁Mos
orage
▁belt
▁slee
▁Apple
▁Place
▁Tarzan
▁triumph
▁reaching
▁materials
▁appreciate
olph
▁enh
▁tip
inity
▁Liter
▁analy
▁basket
▁crisis
▁estate
cia
ded
Dick
odox
merce
▁Coun
▁Down
▁rocks
▁quoted
▁edition
▁Warriors
▁chemical
▁cigarette
▁dimensions
▁threatened
stand
utive
▁brush
▁Fitger
▁Norman
▁academ
▁projects
▁servants
▁spending
cut
esty
hent
▁Ott
tains
▁Steve
▁bunch
▁reply
▁eleven
▁Job
▁cha
▁Click
▁prime
▁stare
▁incident
▁superior
▁providing
umes
▁Haw
▁inch
▁Sally
▁Judaism
▁hurried
▁prepare
▁schools
▁millions
▁authorities
▁cul
there
related
▁powder
▁prices
▁leaning
▁Catholic
▁muttered
▁evolutionary
▁Sant
▁tang
▁perpet
▁rushed
▁McDarvid
▁upstairs
▁believers
▁unexpected
▁ww
▁End
▁Ori
▁www
otted
▁slip
▁Ethel
▁slave
▁corrid
▁hearts
▁fishing
▁Div
anting
▁Stage
▁thread
▁MacBook
▁default
▁arranged
▁refriger
ua
ugg
ureau
▁holid
rection
▁gunner
▁hunting
▁tightly
▁volunte
▁affected
▁operations
Col
lers
some
▁Fer
ellow
▁Rome
▁wrap
▁Young
▁packed
▁informed
▁creatures
▁delivered
▁nineteenth
box
▁cub
about
ifies
▁Ruth
▁doub
Ernest
▁climb
▁likes
ologies
▁linked
▁allowing
ko
boy
ege
▁Sk
▁rune
inding
▁paralle
▁survival
▁concerning
II
▁Beth
▁Fore
asters
▁assert
fit
▁Kar
▁Writ
▁Andrea
▁thrust
▁detailed
▁principles
CE
▁beard
▁scent
▁charged
▁depends
▁seeking
fa
Tell
▁Mun
▁mud
▁ibid
▁Later
▁chart
▁vague
▁speaks
▁charges
▁outcome
▁technique
▁Atl
▁tact
▁torn
▁breathe
▁twentieth
▁consistent
▁max
irmed
▁Does
▁Frid
▁Town
▁deleg
▁glory
▁painful
▁leadership
▁stereotype
made
olen
▁ren
▁pile
▁unlikely
html
ellion
▁Marsh
▁rates
▁arrival
▁authors
▁guarant
▁remarkable
eton
rier
▁Back
adelphia
▁nuclear
▁interpre
▁relative
▁Macdonald
▁uncertain
IF
sl
Jes
isible
▁Harry
▁gradually
▁sophistic
En
aft
▁Fra
ordon
▁Call
▁recru
▁settle
▁explains
▁Alexander
▁photograp
ava
isk
▁Far
▁jew
▁Jake
▁guid
▁maid
▁Jason
▁grief
▁properties
▁Association
▁acquisition
▁Ast
▁Den
▁Hon
▁Tex
cluding
▁fantas
▁stores
▁corners
▁exception
arest
▁alle
▁traveled
▁statements
Jack
Right
▁Hard
▁Turn
▁cycle
▁toler
▁arrive
▁buying
▁cooper
▁folded
▁stroke
▁shifted
▁district
▁meetings
▁profound
▁inheritance
AV
aser
aylor
liest
oting
▁choo
andler
▁Death
▁humor
▁captured
▁reception
▁manuscript
▁variations
▁significance
aily
ixon
ishop
▁herb
▁lung
▁acres
▁falls
▁renew
▁suspic
▁choices
▁constit
▁programs
▁indicated
tra
pers
rine
▁Ret
essel
▁Coal
▁eaten
ertrude
▁blocks
▁firmly
▁doctors
▁drywall
▁Margaret
▁Nicholas
▁suspected
▁conversion
▁reflection
▁situations
UT
Rem
▁Ze
arios
Thanks
▁advoc
▁babies
▁fierce
▁Merissa
▁clients
▁restrict
_."
Many
sley
throp
▁ease
▁tear
▁yard
▁Jesse
▁classic
▁messages
▁investigation
▁Ele
ATION
iency
▁Mexico
▁behavi
▁jungle
▁causing
▁invoice
▁shelter
▁striking
▁arguments
▁awareness
▁recognition
ura
▁III
▁web
▁cage
▁vital
▁Cooper
▁degrees
▁affection
▁colleagues
CK
▁Av
▁CEO
istle
▁cousin
▁purple
▁attorney
▁particles
▁Star
▁wing
arling
ricult
▁simpl
▁income
▁anxious
▁attacks
▁opposed
▁gathering
▁difficulty
AG
Dr
Take
▁Eis
▁Women
umbling
▁killer
▁sheets
▁alcohol
▁engineer
▁boyfriend
▁approaches
▁advertising
▁administration
BN
bye
▁exh
▁Wood
called
▁Exper
▁cruel
▁drank
▁irrit
▁surre
velopment
▁comparison
?**
oos
ifer
nial
▁Mond
▁frustr
▁twisted
▁humanity
▁Institute
▁happiness
▁standards
za
ader
lock
▁har
neath
▁Bell
aribel
▁assign
▁factor
▁divided
isl
ayer
onel
▁mal
haped
uated
▁lamp
seless
▁bitch
▁coinc
▁sites
▁accord
▁latest
▁Harvard
▁Timothy
▁beliefs
▁capture
▁considering
▁introduction
▁concentration
Fr
Sc
iar
oons
▁Ter
▁assem
▁awake
▁boxes
▁inhab
▁pause
▁straw
▁circles
▁portion
▁sharing
formation
▁aesthetic
▁definition
▁perception
Jim
Only
▁bend
▁instr
▁scrap
▁breasts
▁privile
▁violent
▁valuable
▁directions
▁photographs
OK
▁bor
ilton
▁Jude
▁pace
▁throne
▁segment
▁birthday
▁substant
▁Baltimore
ppy
Moby
gery
▁Kev
▁atm
▁Blue
▁mask
▁estim
▁explo
ighters
opyright
▁uncomfortable
▁Dev
▁Nik
almud
arked
▁indu
▁woke
▁granted
▁possess
▁shocked
▁Saturday
▁operating
vas
▁Sus
onent
▁spat
▁tray
▁ignore
▁strain
▁swallowed
Ke
▁tas
venty
▁flex
▁Stein
▁frost
fulness
▁Sharon
▁theore
▁Studies
▁trained
▁startled
▁confusion
▁officials
azz
met
▁ON
▁Op
etime
▁inqu
thodox
▁Lewis
▁shade
▁valid
▁distur
▁rescue
rose
▁bub
andal
▁ugly
▁songs
▁flames
▁airport
▁collaps
▁strongly
▁alongside
▁currently
eur
ige
gain
▁Bra
▁Met
world
▁Vol
▁gif
iated
▁Sand
▁pist
osystem
▁appeal
▁stated
▁string
▁lessons
▁extraordinary
igs
▁von
▁Home
▁corp
inceton
▁Please
▁creates
▁priests
▁brilliant
▁preferred
▁commitment
▁effectively
onto
▁Toby
▁lord
ottage
▁Italy
▁newly
▁sixty
▁Friday
▁riding
▁feather
▁regarded
▁emergency
▁testimony
raq
▁Ash
hings
stead
▁Jenn
▁cared
▁insult
▁kicked
▁simult
▁survey
▁disgust
▁therapy
▁whereas
▁reporting
oric
writ
▁Sub
ashes
atoes
▁Luck
▁Broad
▁tests
▁affair
▁casual
▁remote
inations
▁symptoms
mel
kers
▁bot
▁bree
▁damp
▁install
URE
More
▁Eld
arson
▁fond
▁outs
▁genre
▁maxim
igenous
▁Battle
▁Talmud
▁ending
▁repeat
▁victims
edy
▁fled
▁mour
▁effic
▁spray
▁Andrew
▁extend
▁seller
▁warmth
▁assault
▁occupied
Part
▁padd
erving
▁About
▁faded
▁merch
oosevel
▁Secret
▁vessel
▁yelled
aughters
▁rational
▁revolutionary
rup
▁Ha
▁tiss
urther
▁conqu
▁draft
▁milit
▁candle
▁insect
▁presum
▁fighter
▁traveling
uz
ador
▁Bas
▁fer
ollar
▁mile
isting
▁apost
Perhaps
▁Reagan
▁gained
▁shapes
▁protest
▁instantly
▁opportunities
lie
▁Jr
▁Key
▁Tur
▁rig
▁Road
▁Ruby
▁rhet
▁email
▁goals
▁stones
▁critics
▁Lawrence
▁positions
].
istan
ushes
▁bold
▁harv
▁rage
ismatic
▁copies
▁senior
▁strict
▁endless
▁sections
▁addressed
cel
nedy
▁Jem
▁ham
ectic
▁bags
ealous
▁opens
▁Hadley
▁gospel
▁parked
▁Johnson
▁spotted
▁sessions
emed
amily
gered
▁grat
acious
asting
▁aston
atching
▁recipe
▁sacred
▁stable
▁stranger
.'"
acon
utch
▁Kath
▁Luke
▁stab
▁displ
▁harsh
▁wrist
▁Master
▁foundation
▁Ah
▁Vin
▁witch
▁yield
▁budget
▁exclus
oosevelt
▁indicates
UL
ja
▁Web
achel
▁offs
▁accent
▁Someone
▁arrested
▁implement
▁publisher
▁reasonable
Cass
▁etc
▁upd
▁Wolf
▁dipl
▁skirt
▁Doctor
▁cinema
▁waters
▁commander
Po
▁Dig
iology
▁Moses
▁hired
▁queen
▁units
▁Hebrew
▁murmured
▁collective
_'
▁Ht
hist
rics
wide
white
▁Dark
lected
▁silly
▁wives
Finally
▁shower
▁climate
▁insight
▁raising
▁domestic
▁impressed
▁accompanied
osh
▁Cut
▁rope
▁retreat
▁Whatever
▁significantly
cup
▁GTM
onial
three
▁thir
idding
orters
roduct
shaped
▁Nadia
▁disag
▁overt
▁Govern
quarters
▁cognitive
▁collected
ela
▁Come
▁Gall
▁holes
▁stair
▁ladies
▁racial
▁lowered
▁portrait
▁prospect
";
▁–,
rell
▁Lam
▁Low
▁blew
▁jeans
▁poets
ivalent
▁defeat
commerce
▁dressing
▁medicine
▁pleasant
▁constructed
gers
▁Boy
▁gre
books
▁Alan
▁elim
▁lone
▁roles
gression
vironment
▁overcome
▁professor
eyed
oves
▁Stu
▁vig
inton
▁buzz
▁http
▁frown
berries
▁disaster
▁interior
▁struggled
▁underneath
▁successfully
▁Les
▁gap
isten
▁Next
▁pros
▁Water
▁apple
▁talent
▁undert
▁affairs
▁devoted
▁visitor
▁contents
▁reserved
▁independence
IM
la
gic
▁Ba
▁sheep
▁Martha
▁bacter
▁legend
▁mystery
▁Gertrude
▁explicit
▁necessarily
.:**
cult
iche
Black
Sorry
▁Gary
▁prev
▁vine
▁Could
erennial
▁Hammett
Act
App
eras
▁Age
▁gay
▁Move
▁fert
▁Alger
▁diary
▁tossed
▁Politics
▁eyebrows
▁invisible
uns
▁Id
away
▁Cre
▁Mim
▁deck
▁fict
orting
▁branch
▁jealous
▁backward
▁incorpor
▁inspired
▁mathemat
amn
when
pense
poons
▁Soon
During
▁error
▁Taylor
▁Indians
▁division
▁purchased
▁tablespoons
lec
anor
aran
umble
▁Dist
▁Hart
▁hint
ieties
▁chuck
▁grows
▁swept
▁cooked
▁College
▁accused
▁blessing
▁controls
▁covering
low
▁Aunt
▁Fact
▁rust
▁Class
▁realm
feeding
▁persons
▁criminal
EM
vin
page
▁Alf
Would
eight
liver
▁AIDS
estine
▁spite
▁Island
▁confirm
▁episode
▁particle
▁earthquake
▁frightened
Cont
arer
osal
▁vit
▁Fran
▁puff
▁scra
giving
▁Texas
▁bench
▁moder
▁clever
▁transformation
Gu
Vir
mind
uled
▁Hor
▁sits
▁Davis
▁transp
▁acceler
▁replace
▁stretch
▁pressing
▁disappear
▁organisms
▁atmosphere
▁describing
Mer
fin
onic
uddy
level
▁Sure
▁Techn
▁compe
▁crown
▁lined
▁tracks
▁rejected
▁survived
itty
rons
▁Tri
▁Iraq
▁cler
▁lawn
▁Middle
▁excuse
▁smiles
▁vampire
▁Thompson
▁depression
wr
▁ol
▁Sol
being
▁swung
▁praise
▁Matisse
▁Vietnam
▁achieved
▁silently
▁personally
indu
will
amped
▁Jenny
oriented
dis
oard
▁Est
▁Set
iosity
▁herbs
▁innov
▁strip
▁Gordon
▁attempted
▁considerable
▁characteristics
▁Night
▁param
▁romantic
▁shopping
six
Hard
west
▁Prop
▁pine
▁Jacob
▁brick
▁profit
▁washed
outheast
▁beating
▁Claribel
▁publication
▁hyd
ounds
somet
▁Evan
▁rhyth
▁stops
▁Rather
▁injury
▁novels
▁sample
▁Stephen
▁divorce
▁servant
▁colonial
▁involves
iger
ernon
▁chat
▁fabric
▁viewed
▁seventy
▁believes
▁wireless
▁assistant
▁challenges
▁orientation
ipt
▁Gus
▁Vis
▁bon
Bosch
▁Cook
▁hips
▁kick
▁vary
▁hyper
▁moist
▁conven
ographic
▁eighteen
▁essentially
bey
burn
▁Aut
first
▁Head
▁glow
▁sear
▁carpet
▁dishes
▁infant
▁chopped
▁pregnant
▁Roosevelt
▁flowering
acco
▁Tad
▁jaw
▁pipe
▁stem
▁Obama
▁score
▁limits
▁trapped
▁horrible
▁invasion
▁Lancaster
▁afterward
▁delicious
kl
ommy
▁Fin
▁Ven
About
▁Tell
▁incl
▁vibr
▁drinks
▁beloved
▁pretend
▁sensitive
▁Blackstone
▁approaching
IA
yes
▁sque
▁exists
▁rubbed
▁uncons
▁sunlight
▁newspapers
▁differently
ati
anes
▁sob
stage
ugged
▁Lisa
▁dece
▁Stone
▁sorts
▁steep
▁launch
iliation
▁parrots
▁vehicle
▁elevator
▁schedule
▁separated
ota
rub
▁CD
▁Hy
▁Rh
mbly
▁bay
▁tap
orial
▁gear
▁tale
estion
▁flame
▁skept
▁Choose
▁Damian
▁Owsley
▁carbon
▁clouds
▁Manning
▁grounds
▁guessed
▁Chandler
▁lighting
▁Philadelphia
▁representation
iri
free
Since
ridge
▁eleg
▁stub
astern
▁crust
▁steam
▁accurate
▁depending
▁furniture
idal
▁dat
chief
orous
▁bars
▁impul
▁centre
▁combat
▁cookies
▁interact
▁daughters
▁girlfriend
Lu
ntil
▁Free
▁heal
▁irre
sembly
▁Econom
▁Munich
▁interf
▁prepar
▁subtle
▁contrad
▁conducted
▁strategies
El
▁na
hole
▁ped
erior
organ
▁View
▁Found
▁announce
▁scenarios
AND
▁Qur
ummer
▁dict
▁fest
▁mercy
▁tasks
▁Health
▁System
▁define
▁weakness
▁Ecommerce
▁insurance
agu
aints
iches
▁dull
▁grey
▁sang
haired
▁Cross
▁brave
▁Steven
▁farmers
▁picking
struction
▁relieved
▁exhausted
▁expecting
zer
▁Sid
▁les
▁nom
▁Ball
▁Whit
Hannah
▁poems
▁quake
▁dollar
▁scenes
▁summon
▁Between
▁miracle
▁settings
▁receiving
▁punishment
▁od
uild
ribly
▁tank
essler
▁porch
liament
▁serves
▁comments
▁helpless
▁criticism
▁preparing
▁Lieutenant
HT
ano
Does
tion
▁harb
▁rend
▁soot
▁pecul
▁condem
▁convey
▁Abalone
▁attended
▁corridor
▁murdered
▁Ju
erer
oving
▁clip
▁warn
Laurie
▁Super
▁banks
▁femin
▁fewer
▁revol
ciences
▁Columb
▁severe
▁Dancing
▁Patrick
▁encoura
▁loyalty
▁measures
▁tendency
▁compassion
found
▁Mich
▁links
▁blanket
▁conceal
OG
armed
press
▁Sher
▁exile
▁decent
▁pencil
▁crowded
▁originally
▁translation
▁implications
ami
roc
▁FB
▁lux
oples
▁Cast
▁drama
▁Having
▁Vincent
▁aggress
▁organic
▁ecosystem
▁righteous
▁suggesting
anna
emin
▁tox
cific
sized
▁tips
▁urge
▁yeah
▁fires
▁hopes
▁schem
▁retrie
▁tempor
ifferent
▁Kennedy
▁examine
▁observe
▁belonged
▁throwing
▁IT
▁ank
▁thy
▁Open
▁Real
▁eval
▁Creat
▁motor
▁spoon
▁tower
itative
▁Culture
▁auditory
▁carriage
▁commonly
▁discovery
▁ridiculous
▁recommended
▁architecture
AB
SE
uzz
▁Fa
▁Gra
▁mock
▁wars
▁hypot
▁towns
▁propag
▁checking
▁translated
▁charismatic
▁experiments
").
vol
fire
ikke
orton
▁heels
▁overl
▁usage
▁Graham
▁resource
▁prisoners
▁responses
Never
▁News
▁cave
▁deny
▁bearing
▁delighted
▁functions
____
such
abled
andra
▁Care
▁pond
▁Early
▁fancy
issions
▁Public
▁covers
▁stages
▁stored
▁tunnel
▁fortune
▁fourteen
▁communist
▁offspring
▁scattered
▁distinction
▁OS
▁decre
▁seism
▁Should
▁breaks
▁valley
▁generous
▁encouraged
▁),
▁Ca
▁cu
uting
urches
▁devast
▁secrets
▁suicide
▁theater
▁earliest
▁university
▁transmitted
esis
urry
▁repet
▁caring
▁seated
▁shaped
▁shares
▁profile
▁metaphor
▁Scripture
▁perennial
▁thoroughly
MW
enh
elly
ften
rior
▁Joh
olding
▁stolen
▁residents
ethe
olds
▁Ross
▁hits
rained
▁amounts
▁channel
▁existed
▁relaxed
▁returns
▁examined
▁corporate
▁subsequent
abet
▁unre
aneous
▁diagn
▁drops
▁nerve
▁Randal
▁issued
▁scarce
ifications
▁embarrassed
acc
ona
fect
arlic
▁nurs
▁trim
velope
▁bored
▁cryst
▁lingu
▁patch
▁escaped
▁magical
▁cultures
▁launched
ographical
▁perceived
▁phenomenon
▁repeatedly
Out
jud
▁Vo
heat
load
faced
▁anch
▁duck
person
▁scope
▁aboard
▁refuse
▁Council
▁embrace
▁categories
Em
UN
iate
oding
▁germ
▁seats
▁bullet
▁profession
ds
oore
uros
▁lou
▁bits
▁pizz
▁peers
▁Jersey
▁dominant
▁shouting
▁identification
Mac
via
▁Hun
▁Viv
lined
▁Coast
▁Tyler
▁album
▁Series
▁desired
▁smoking
▁inherent
▁precious
Im
tw
▁Mid
▁Ren
Jesus
▁pulls
▁chances
▁producing
▁frustration
Edd
arks
ects
ieve
ouch
ghter
▁Last
▁prob
▁Cover
▁boats
▁chrom
▁wider
because
▁partly
▁sixteen
▁husbands
▁companion
▁followers
▁physically
▁sufficient
▁civilization
és
"),
icky
▁shy
anges
▁neur
▁rank
▁instit
▁visiting
▁candidate
▁dedicated
▁secondary
▁applications
▁disappointed
▁CR
▁Kr
▁ta
Still
▁Crit
▁fifth
▁spare
osexual
▁closet
▁virtue
▁halfway
▁utterly
▁Suddenly
▁historian
▁modernist
▁permanent
▁simultaneously
▁bru
homme
otype
▁subs
▁Jerry
▁brows
ouncing
▁manifest
▁objective
▁trembling
▁composition
ERN
ervé
uity
sight
trans
▁Main
▁exit
▁rabb
ailing
▁essay
▁grade
acement
▁Letter
▁garage
▁upward
attering
▁everyday
▁theories
▁Democratic
▁complained
▁participants
urp
▁piss
▁fence
▁rings
ecticut
▁Samuel
▁backed
▁blacks
▁flavor
▁lifetime
▁ma
andi
cers
archy
▁Plan
▁Soph
▁legit
▁traum
▁Academ
▁gender
▁legisl
▁shoved
▁findings
uv
▁Mod
▁gam
ichas
▁nuts
▁alter
▁pitch
▁roads
▁bastard
▁monitor
▁shortly
▁machines
▁increases
▁possibilities
ouc
▁ads
power
▁zone
atures
teenth
▁hills
▁index
▁walks
▁whale
▁smelled
▁registered
▁expectations
bits
cled
lete
▁Pop
▁loop
acular
▁patri
▁trace
▁Barbra
▁Connie
▁Romans
▁cotton
▁intrig
▁Charlie
▁thereby
▁interaction
▁surprisingly
RL
kind
ryce
▁org
endor
piece
Father
▁bowed
▁abrupt
▁Mexican
▁attitudes
▁curiosity
▁seemingly
▁Unfortunately
▁tub
lines
▁Asian
▁blend
▁miner
▁noble
▁skull
▁Keeney
▁Twenty
▁listed
▁vanilla
▁midnight
▁squeezed
▁mysterious
▁struggling
iso
ayev
▁Pac
▁Pil
Click
▁Chief
▁illeg
▁Office
▁annual
▁denied
▁artists
▁forgive
▁storage
▁presents
▁altogether
▁discipline
kh
Mad
Time
eddy
ilet
▁Vers
▁Thank
▁impat
archers
▁Author
▁Monday
▁Theory
▁themes
▁treaty
ountered
▁languages
ryn
▁UK
▁brut
▁dare
▁dign
umping
▁Grant
itarian
onymous
▁Savine
▁prosec
▁Several
▁fighters
omas
▁hol
ormal
▁Reba
▁obst
▁colour
▁ethics
▁prompt
▁cottage
▁council
▁crushed
▁ethical
▁factory
▁foolish
▁Moreover
▁adventure
▁resulting
Pat
Also
lend
Three
▁Phot
▁balls
▁devil
▁ignor
▁rifle
▁Oliver
▁Search
▁enable
cription
▁despair
▁western
▁breathed
▁envelope
▁modernism
▁referring
▁inevitable
▁encountered
▁interactions
Lind
Over
agel
▁Inf
arded
▁admir
▁empire
urrection
▁Australia
▁terrified
gener
ishers
▁Diana
▁Nixon
▁lobby
▁sanct
iography
▁orichas
▁princip
▁enjoying
▁parallel
▁neighbors
▁salvation
ART
omy
▁Du
inna
thew
▁Box
▁Neg
▁pug
ancer
▁Wild
▁summar
▁roughly
▁wealthy
▁bacteria
▁biblical
▁Princeton
▁revelation
▁institution
▁transmission
orns
▁jun
click
ppers
▁Beld
▁cort
▁acted
▁solve
holders
▁Poetry
▁sorrow
▁abandon
▁reaches
Something
including
▁basement
▁contempl
▁entering
▁prisoner
▁sensation
▁enthusiasm
▁vulnerable
EC
ERS
jun
apse
xton
▁fee
inkle
▁Isab
▁inex
Virgil
making
▁Astur
▁Field
▁artic
▁dwell
▁Within
▁whites
▁fulfill
▁minimum
▁recover
▁rituals
▁assigned
▁confirmed
▁formation
▁Connecticut
Sch
▁ga
ivan
rust
▁Ont
▁sway
anguage
▁Market
▁Origin
▁Vernon
▁argues
▁Kessler
▁damaged
▁operator
▁containing
Br
abs
Paul
▁hal
▁haz
▁debt
▁merc
▁rack
▁sank
▁zero
▁Hotel
▁Years
▁molec
▁Thanks
▁adoles
▁expans
▁sports
▁counsel
▁profits
▁sailors
▁generated
olis
renn
▁dow
▁diam
▁forb
▁hast
uffled
▁fever
▁loaded
ollowing
▁Ottoman
▁authent
▁choosing
▁Meanwhile
phy
▁Ul
rane
umin
ostal
auhomme
▁Contin
▁Intell
▁CHAPTER
▁convince
▁matching
▁interrupted
IE
olk
acus
emet
gara
▁Him
▁Kim
state
▁Girl
▁Lane
▁adds
▁cord
▁load
▁mart
▁shoe
ifully
igence
▁Blair
▁Nikol
▁duties
▁statue
etheless
▁equivalent
▁researchers
▁demonstrated
door
▁Hay
▁Imag
▁Mand
▁Rain
People
istent
▁talks
▁Further
▁Muslims
▁buttons
▁compens
▁disrupt
▁collapsed
':
Co
▁Pic
ommod
▁Lear
▁Prin
▁hunt
ardens
▁Similar
▁chamber
▁evolved
▁origins
▁crossing
▁delicate
▁employed
▁promises
▁elaborate
▁vegetables
Ge
Mary
ocal
unny
zens
▁Cir
annel
avior
igiri
▁rows
akespe
▁Being
▁demons
piration
▁intimate
▁controvers
ba
asso
eters
▁None
olitan
▁Organ
▁Third
▁grain
▁stake
▁veter
ilosoph
▁corpse
▁hunger
▁visits
▁Brother
▁cabinet
▁offices
▁exciting
▁imperial
▁reporter
Gl
_"
Sim
▁Ali
▁dil
▁dug
achus
ammad
▁Year
rolled
▁closest
▁exhaust
▁musical
▁interrog
▁observation
▁threatening
kel
uin
front
▁prec
atches
▁hered
▁multi
emetery
▁Antich
▁sooner
▁sticks
▁prayers
▁switched
▁maintained
La
hma
sch
list
ysical
▁kings
▁teams
▁Jonnie
▁Others
▁expend
▁plates
▁senses
▁neutral
▁planted
▁quarters
▁prominent
▁downstairs
▁association
Te
▁_"
Fitz
Wait
omic
asses
esley
occup
▁gifts
▁geomet
▁mixing
▁worlds
▁bottles
▁attracted
▁extensive
▁protected
hs
▁Li
neys
▁Arm
▁Bol
jamin
▁arrow
▁Donald
▁Rogers
▁Whether
▁Eventually
FC
sex
▁Ext
▁Walk
▁quit
engers
▁Satan
▁cough
▁Albert
▁Miller
▁insert
▁rhythm
▁tissue
▁fathers
▁composed
▁diseases
▁dropping
▁underground
Man
Spe
good
grad
igan
owski
gennes
▁Jules
▁Think
▁Connor
▁Present
▁venture
▁involving
▁Development
ét
ito
hire
loyd
rawn
▁Bed
▁Dun
▁nap
▁Colin
▁Karen
▁Treat
▁chill
▁infin
ificial
▁Barthes
▁arguing
▁elected
▁reminds
▁sharply
▁thunder
akespeare
▁Children
▁focusing
▁networks
▁policies
▁varieties
▁continuing
▁appointment
▁practically
SD
UM
iro
elin
ller
▁fog
▁Cone
alysis
ingham
▁Beach
▁Georg
▁panels
▁pistol
▁congreg
▁priestess
▁qualities
ILL
▁ber
Hello
Those
ennis
▁intu
▁obtain
▁safely
▁logical
▁passages
▁explosion
▁capitalism
▁influenced
▁expressions
va
Cam
race
elson
eston
▁bore
headed
▁Blood
▁Small
spector
▁behalf
▁earned
▁darling
▁lecture
▁shining
▁surgery
▁accommod
▁articles
▁stopping
▁assistance
Lev
aky
Coll
Hist
ials
unks
▁Ess
▁Papa
▁thee
Mother
cribed
estyle
▁Start
▁Roland
▁traits
▁essence
▁channels
▁peculiar
▁strangers
▁remembering
RA
bi
Bet
nut
hour
rels
▁oxy
ordan
▁vice
inting
istair
▁crisp
▁rival
▁slice
▁sniff
▁Morgan
▁actors
▁societ
▁wounds
▁dynamic
▁physics
Sometimes
▁Anderson
▁churches
▁patience
▁imaginary
▁temporary
▁communicate
rett
unic
▁Read
iences
▁hurry
▁surge
▁filter
▁firing
▁garlic
▁cracked
▁evangel
▁holiday
abilities
▁football
▁detective
▁nutrients
▁comprehens
Back
soft
▁Def
▁URL
▁Emily
▁shrie
▁Prince
▁dating
▁ethnic
▁Toronto
▁conspir
▁Russians
▁miserable
▁separation
jah
etts
▁Alg
▁til
impse
rants
▁Rout
▁infl
▁trap
ainted
However
angible
▁lonely
▁pillow
▁trials
McDarvid
▁monster
▁Columbia
▁produces
▁Southeast
▁suggestion
▁satisfaction
inks
▁Han
burgh
keley
▁Best
▁Form
inkled
▁Fraud
▁Story
▁funds
▁tries
Cassius
▁sovere
▁spaces
▁founder
▁Mountain
▁Northern
▁climbing
▁versions
▁supporting
sky
ghan
▁Oak
▁Bird
▁zomb
▁Among
▁Color
▁punch
version
lessness
▁package
▁protein
▁shallow
▁agricult
▁acknowledge
▁theoretical
Jul
alli
black
plete
▁fake
▁idol
▁tech
▁penet
▁vivid
oucault
▁Things
▁loudly
▁Conserv
▁winning
▁Political
▁exclaimed
▁indigenous
▁distinctive
ée
IGHT
▁lur
pling
▁Iran
▁Toll
▁caut
▁hous
▁Select
▁horrif
▁generate
▁accompany
▁acceptance
▁invitation
adow
▁Adm
Daily
▁Ford
▁Know
▁aunt
▁Short
▁Nobody
▁Square
▁clinic
▁peered
▁Pacific
▁blinked
▁eternal
▁peoples
▁portray
▁promote
▁trusted
▁measured
▁princess
▁disciples
ez
wa
yd
name
quet
▁Ref
Other
onomy
▁File
▁Hand
▁Josh
▁Resp
▁crop
▁tore
▁Roger
▁gazed
▁marsh
▁pulse
Despite
isation
▁Alfred
▁Museum
▁horizont
▁immigration
▁intelligent
MA
did
gal
lem
agne
char
ttps
▁Six
steps
▁Cold
▁Lola
minded
▁Asuna
▁sheer
▁Avenue
▁posted
▁rubber
▁hospice
▁virtual
conscious
▁Vergennes
▁committee
▁satisfied
▁occasional
▁si
▁Club
▁Kong
▁swear
▁tempt
▁tribes
▁Dorothy
▁desires
▁printed
▁clearing
▁segments
▁thirteen
wen
▁caf
mates
▁elbow
▁souls
▁Arabic
▁deaths
▁format
▁formula
achusetts
▁biological
▁possession
▁sophisticated
assy
▁Cab
bound
▁Trane
▁cloak
▁lands
▁assass
▁marble
▁refuge
▁ongoing
▁resting
▁insights
▁sympathy
tan
▁Bru
▁Ten
▁Too
▁awa
▁beef
rating
▁Rubin
▁Susan
ciously
▁Howard
▁Murray
▁Person
▁brains
▁dialog
▁electronic
▁incredibly
▁references
▁underlying
War
yll
inny
tings
unned
uture
▁Fire
▁Sull
▁hood
▁award
▁deals
▁dimin
▁stall
▁swing
▁Remove
▁divide
▁ticket
▁blessed
▁comprom
▁approxim
▁framework
▁mechanism
▁paintings
▁impressive
▁politicians
▁refrigerator
bet
idel
otch
▁Nic
▁Leon
▁Very
▁gown
▁pleas
▁reads
▁pockets
ologically
▁occasions
PS
OUR
rip
▁au
Note
wart
▁NBA
apple
▁Give
▁disgu
▁swift
uhammad
▁Barton
▁Stella
▁correl
▁mighty
▁Atlantic
▁vanished
▁inherited
▁incredible
)_
EST
brid
clam
ucky
▁Ally
▁Burn
▁thou
active
▁dates
▁purse
▁Senator
▁besides
▁brushed
▁horizon
▁Timeline
▁meanings
▁democracy
▁initially
▁procedure
▁organizations
DA
Hi
"**
Sec
fare
only
▁Spr
▁ben
▁crou
▁obey
ptions
▁Judge
▁aimed
▁alley
▁risks
▁tense
ilation
▁Gerald
▁dozens
▁saving
▁slides
▁pageview
▁Nikolayev
▁extension
▁deliberately
ovan
▁Ron
▁Rus
▁sty
▁Corn
▁pant
enguin
▁Micah
▁altar
▁phase
▁pizza
▁shove
▁towel
▁urged
▁carved
▁contest
▁remarks
▁sandwich
▁vertical
▁writings
▁Nikolayevich
mil
idem
odge
▁Gab
▁Gre
▁Tag
obile
▁Gent
▁Nash
▁soup
▁Dutch
▁actor
▁breeze
▁nerves
▁tucked
▁glimpse
▁happily
▁Detective
▁overnight
▁boundaries
▁electricity
Fl
▁RE
coal
▁Pot
▁Try
▁Five
▁Rabb
▁ratt
▁synt
▁wishes
▁Clinton
▁periods
▁revenge
▁tremend
▁charming
Hel
▁AN
Very
oken
vity
▁McK
▁pig
▁eman
▁rely
▁chaos
▁crash
▁datab
▁embod
▁rolls
▁trash
ictions
▁incomp
▁reserv
▁worker
▁academic
▁cleaning
▁defeated
▁basically
▁fantasies
▁introduce
▁institutions
ATE
lly
ogs
▁AL
ener
mill
rists
style
▁Otto
▁bund
Myrina
▁bombs
▁toilet
▁Control
▁Special
▁Committee
▁Inspector
▁classical
▁spreading
▁Historical
▁unconscious
Jew
Par
town
ulus
▁Lud
ilant
▁Self
▁encl
▁oath
▁scul
▁tomb
▁Calder
▁seized
▁worthy
▁Confeder
▁contrary
▁mistakes
▁withdraw
▁efficient
▁concentrate
▁Nevertheless
bro
apel
▁mig
itled
mberg
ooled
ragon
▁****
▁Gree
▁bust
▁lion
Though
ppelin
▁flick
▁Johann
▁duplic
▁emerge
▁revers
▁Service
▁compare
▁payroll
▁slammed
▁Harrison
▁exposure
▁substance
▁virtually
▁transition
▁desperately
Fe
MWA
yard
▁Maj
▁lin
olves
ulent
▁Nure
▁beds
▁Dogen
▁collar
▁mainly
▁melted
▁Project
▁confess
▁inhabit
▁injured
▁displays
▁illusion
▁strategic
▁anticommun
▁behavioral
▁accomplished
VD
.'_
ras
thy
▁oh
▁py
▁bol
▁hem
hears
range
▁Quar
▁Word
Walter
▁charm
▁allies
▁fruits
▁traged
▁adopted
▁manufacture
▁headquarters
inf
uty
vet
have
inge
lings
▁Much
modern
▁midst
▁spots
▁trunk
ections
forward
itating
▁geneal
▁polite
▁Babylon
▁Matthew
▁Stanley
▁texture
▁psychiat
▁appointed
▁rejection
may
oust
▁Hat
ensus
▁Kill
▁Penn
▁garb
▁ling
▁shed
▁surf
▁Given
▁Labor
▁appet
▁Action
▁Darwin
▁pepper
▁Twitter
▁Palestine
▁identical
▁passenger
▁discussions
Put
hell
roft
text
▁unl
comes
angled
onsense
▁unders
ertainly
▁Fauhomme
▁Hamilton
▁critique
▁isolated
▁correctly
▁displayed
▁witnesses
▁populations
▁transformed
▁Massachusetts
MS
care
gram
oper
umed
▁gig
▁tob
▁Pant
▁downt
▁scram
▁steal
▁Jordan
▁burden
▁anthrop
▁cameras
▁nearest
▁overhead
▁theology
▁wherever
▁believing
▁conceptual
BS
iry
▁AD
aund
itle
vals
▁Jen
shirt
▁soap
▁ward
▁jewel
▁lungs
athetic
▁Proper
▁Return
▁rested
▁installed
▁forgiveness
▁identifying
dy
axon
onica
▁Gore
▁boot
▁comr
▁seal
incing
▁Pryce
▁gloom
agement
▁prayed
▁retail
Remember
▁Foucault
▁counting
▁suitable
▁artificial
Mrs
Ste
Fuck
amon
fuck
seen
unge
ieval
▁Amaz
▁Lloyd
▁utter
Grigori
▁poetic
▁Clayton
▁combine
▁counted
▁deserve
▁founded
▁useless
▁Muhammad
▁frequent
▁guidance
▁lightning
▁assumption
▁explaining
▁mechanisms
▁experimental
▁overwhelming
alo
esy
igm
Stop
post
umer
▁Jay
▁Len
▁Supp
▁nipp
▁wolf
amming
itably
reated
uously
▁diver
ressing
▁waving
▁readily
▁tobacco
istically
▁navigator
▁vegetable
▁accomplish
ref
uum
zes
empl
izer
▁ath
Words
▁Cham
▁brow
▁cuts
cation
▁curse
arently
▁modest
▁wicked
▁flashed
▁greatly
▁warrant
▁Tinnitus
▁).
lain
▁Fall
▁hier
▁Arend
▁Point
▁aloud
▁hence
▁Access
▁deploy
National
▁avoided
▁enforce
▁pursuit
▁improved
▁wandered
▁Nuremberg
▁engagement
▁Shakespeare
▁influential
▁Da
itar
oner
ussy
onder
▁UMWA
▁pose
▁Quran
▁accum
▁alleg
▁gorge
▁illum
▁spont
amiliar
▁ruined
▁forests
▁transcend
▁distracted
▁arrangement
elle
▁Bab
▁Haz
kered
verty
▁Nell
▁Daddy
▁backs
▁Juliet
▁exceed
▁farmer
▁fucked
olitical
▁candles
▁eastern
▁poverty
▁agencies
▁discussing
rowed
▁Karl
▁dock
▁raid
▁exerc
▁ranks
▁shiny
▁theor
▁Unlike
▁hatred
▁surviv
Everyone
▁Academy
▁Alistair
▁Benjamin
▁intensity
▁industries
▁meaningful
Acc
rat
▁OK
esame
inety
leton
▁Hend
▁dumb
▁gigg
▁glim
▁loaf
▁Rights
▁repair
▁thighs
▁expense
▁kissing
▁stuffed
something
▁bothered
▁collapse
▁floating
▁sidewalk
▁variable
▁assessment
▁percentage
▁potentially
WH
ih
Ger
aux
ira
mare
rock
▁Fif
▁ink
▁dies
▁Maver
▁Plant
▁Terry
▁camps
▁olive
▁palms
▁stack
▁Harold
▁criter
▁curled
▁elders
▁prohib
atherine
▁gentleman
?—
oof
▁rim
▁Roll
▁mate
enging
▁fluid
▁meals
▁suits
▁tribe
▁trous
▁Leslie
▁Nation
▁Porter
▁config
▁resent
▁tested
▁decline
▁derived
▁furious
▁joining
▁Orthodox
▁approval
▁faithful
▁terribly
▁linguistic
▁consideration
PR
Jan
sal
Rich
bted
▁Gene
social
uccess
▁Janie
▁creep
▁lawyers
▁reverse
▁sustain
▁Passover
▁acknowledged
▁contributions
cus
ikh
ilm
ques
were
▁Bad
▁Fle
▁Hab
▁Hol
gebra
icity
▁flee
▁ware
▁depos
▁Change
▁assets
▁courts
▁tended
▁Eastern
▁forming
▁goddess
▁greeted
▁sliding
▁Zeppelin
▁Mavericks
cf
ACK
Res
ali
▁hip
▁hug
▁iPh
▁oun
▁vel
anked
aware
seven
▁bake
▁conj
commun
igenia
lights
▁Freder
▁cattle
▁hugged
▁popped
phigenia
▁Neither
▁Isabella
▁collabor
▁celebrate
▁gratitude
▁involvement
bn
Red
ggy
irk
oli
▁Ide
▁Way
▁Past
▁lust
icular
orence
owered
▁Cinna
▁Ishma
▁Janet
▁Table
▁stems
▁Friend
▁Nature
▁Sidney
▁absent
▁oldest
Whatever
▁reminder
especially
▁ancestors
▁dependent
▁demonstrate
▁distinguish
▁fascinating
▁restaurants
▁substantial
▁disappointment
▁representative
TY
éc
ean
rin
auld
orus
your
▁Bow
▁Joy
▁crum
handed
▁gates
▁indul
pending
▁habits
▁Ishmael
▁Raymond
▁publish
▁indicating
▁intangible
CC
has
acts
▁bid
▁navy
▁ours
▁pots
▁sofa
▁alike
▁bears
control
ocation
▁Hunter
▁freely
▁gasped
▁locate
▁marvel
▁murderer
▁revealing
▁solutions
▁difficulties
pheus
▁Fair
▁amid
▁poly
▁snap
▁Micro
▁Trust
▁crews
▁salad
▁shops
ciation
viously
▁bishop
▁drives
▁oricha
▁Christy
▁concert
▁lifting
▁reveals
▁bleeding
▁expanded
▁intentions
▁journalist
roe
▁MA
cond
pres
rome
rove
wear
wild
▁lid
arthy
▁Elmo
▁Pent
▁cert
▁dual
arents
azines
▁favour
▁gloves
▁mature
▁spider
▁mounted
▁Robinson
▁searched
▁sticking
▁philosophical
ARY
FIG
yan
▁NE
▁ml
ifax
oped
pent
▁Non
▁Rud
engzi
leans
▁arts
▁stew
▁Teddy
▁snake
▁tends
▁Global
▁framed
▁admired
▁elderly
▁entries
▁flavour
▁marched
▁curtains
▁remarked
▁revenues
▁broadcast
▁ts
bury
▁Mah
upert
▁Dest
▁Lead
▁buff
▁dash
▁dorm
▁sore
▁Anita
▁Clear
▁Order
▁Santa
▁yeast
aration
▁Heaven
▁Justin
▁Nelson
▁Philip
▁banker
▁eighty
▁intend
▁prince
▁invented
▁historians
▁mechanical
▁narratives
▁Environment
▁conversations
cca
▁Ms
▁Ra
▁Ur
odus
▁Net
early
▁Stal
▁keen
▁nest
▁robe
heimer
mering
▁nasty
▁regul
▁pursue
▁shiver
▁thresh
▁Democrats
▁publishing
ptic
▁RAF
▁eds
▁fet
▁pad
▁boil
▁mast
▁mini
Thomas
▁Keith
▁mines
▁Except
▁exclud
▁immense
▁sadness
▁unhappy
▁suspicion
▁strengthen
▁transferred
."_
mit
anke
utor
▁gym
▁mos
uther
▁Bull
▁clue
▁cruc
▁Until
▁candy
▁syrup
▁tooth
▁jerked
▁Orleans
▁sheriff
iological
▁infected
▁magnific
▁computers
▁demanding
▁guarantee
▁strangely
▁celebrated
▁performing
▁characteristic
LA
Arn
hot
▁PR
than
▁CERN
▁Eight
▁winds
colored
▁Almost
▁Family
▁courty
▁advised
▁signals
▁slapped
▁catching
▁attempting
▁Constitution
ORE
▁GK
Give
▁eru
▁yog
ambod
▁Cher
▁Ohio
▁Poll
▁whim
▁Maria
▁Moore
innamon
▁bureau
▁hollow
▁louder
▁passes
▁verses
▁Barbara
▁alleged
▁lifestyle
▁reasoning
▁aggressive
hend
poon
Latin
cular
▁Case
▁Dise
▁Hosp
▁Show
▁pity
▁Rikke
▁motiv
▁stern
▁waiter
▁potatoes
▁Therefore
▁surrender
▁Commission
▁conscience
▁electrical
ANT
Add
▁Wy
Both
aire
ippi
yrus
▁CON
▁fans
▁ruin
▁Hervé
▁Perry
▁dense
▁Eisner
▁invite
▁dreamed
▁elegant
▁artistic
▁exploded
▁suspicious
▁consequence
Up
Mom
erie
lein
▁Ent
▁Gas
▁jar
▁mamm
▁numb
FIGURE
Script
elcome
weight
▁Reich
▁onion
▁Napole
▁Rachel
▁shorter
▁upright
▁MacDonald
▁seventeen
▁integration
abl
obb
asha
ools
seud
uter
every
▁Gust
anchez
▁cliff
▁theat
Letters
▁cookie
▁Halifax
▁carries
▁earnest
▁infection
▁instances
▁competitive
Sam
UCK
mate
roph
▁DVD
asive
ierre
▁Mama
▁dart
▁lobb
▁span
dollar
▁Uncle
▁corps
▁lists
assador
▁Carson
▁Finder
▁Golden
▁Sophie
▁admire
▁Account
▁Justice
▁ashamed
▁rounded
▁scratch
▁washing
▁reflects
▁trousers
▁departure
▁executive
▁sustained
Jn
▁Ho
Life
high
Tunes
shend
▁ages
▁beam
▁odds
▁pier
▁Anton
▁abuse
▁ruled
▁shaft
▁facult
▁laughs
▁mutual
▁oxygen
▁sculpt
▁selfish
▁stunned
▁contempt
▁succeeded
▁Collection
▁destination
▁interpreted
vy
hou
rak
edge
▁Doc
ansas
▁alph
▁goss
▁maps
▁plug
▁sage
▁toes
verend
▁accus
▁prost
▁reign
issippi
▁coarse
▁needle
▁shells
▁highway
▁proposal
▁components
▁tablespoon
▁tremendous
▁challenging
▁distribution
▁#
▁BE
▁SE
anne
ocks
▁Bon
olded
prise
third
▁Anna
▁Mort
▁Prim
▁Trad
▁bind
▁flut
▁lets
▁vest
▁Check
Madison
emption
▁deadly
▁echoed
▁parade
▁Federal
▁summary
▁tragedy
▁cemetery
▁associate
▁engineers
▁inventory
▁medicinal
▁experiencing
▁developmental
Ac
LY
fly
▁mic
▁twe
chers
▁jury
Poetry
icating
▁Isaiah
▁makeup
▁battles
▁curtain
▁maximum
▁District
▁delivery
▁disorder
▁relatives
▁witnessed
▁Manuscript
▁ow
beat
iano
ldom
nine
orie
▁Top
▁Lang
▁Oper
▁clen
▁ribs
ounted
▁Stand
▁drain
▁weigh
▁Palace
▁Stories
▁focuses
▁register
ortunately
▁scientist
▁societies
Ro
Cal
Dav
def
▁DE
▁WH
Comp
ovie
▁Gil
▁Mine
▁Orso
▁Text
▁gran
▁tack
Really
hattan
itches
▁Irish
▁abund
▁beans
▁quote
▁whisk
▁campus
▁inject
▁museum
▁patrol
▁tapped
▁Command
▁puzzled
▁abruptly
▁gestures
▁producer
▁resulted
▁stirring
▁courtyard
▁principal
▁psychology
Fig
err
ISBN
ante
tail
▁**"
▁Dur
agged
cling
illes
▁lane
▁proc
▁wool
▁Study
▁groom
▁Rebels
▁absurd
▁insane
▁thirst
▁belongs
▁exagger
▁insects
▁license
▁masters
▁placing
▁warrior
▁Egyptian
▁feathers
▁Communist
▁answering
▁campaigns
▁certainty
▁Gh
aval
otal
▁Loo
▁ski
▁tin
iolet
upper
▁Food
▁noon
irties
atement
section
▁Better
▁Michel
▁Number
▁damned
▁sensed
▁sticky
▁Bavaria
▁Lindsey
▁destiny
▁outward
▁dragging
▁reliable
▁locations
▁magazines
▁horizontal
▁processing
▁presidential
▁correspondence
Publ
entz
riel
▁Occ
▁Wal
▁voy
Again
Peter
proof
▁leap
▁slim
alcony
▁bride
▁fists
▁limbs
▁trips
▁Amazon
▁Memory
▁cortex
▁methyl
appropri
▁Polgara
▁goodness
▁permitted
▁similarly
amy
Could
Under
aryng
eches
▁Talk
▁Trib
▁eyel
encing
▁Oprah
▁bills
▁elite
▁idiot
▁ratio
▁twins
mentary
▁county
▁iTunes
▁underm
ennessee
▁acquire
▁privacy
▁rubbing
▁strikes
▁whoever
▁scarcely
▁footsteps
▁corruption
▁presumably
hi
psy
▁Ja
atus
pack
▁wal
atism
thood
▁Bush
minute
▁Blake
▁Dougl
▁Edgar
▁Elect
▁fatal
▁nucle
▁tales
▁wrest
▁Harris
▁Living
▁raises
▁shakes
▁disturb
▁forcing
▁madness
▁stumbled
▁Similarly
▁capitalist
Tw
Yet
ima
▁Ec
coll
▁cob
Hardy
endix
gines
ilipp
words
▁sadd
▁Brock
▁codes
▁gotta
▁Transl
▁mining
▁ripped
▁superf
▁balcony
▁digging
▁freshly
▁Cultural
▁entitled
▁managers
▁regiment
▁removing
▁shifting
▁execution
▁reactions
▁structural
ISH
rive
▁lun
frame
urned
rennan
▁Elody
▁cries
▁delay
▁sweep
achment
ishnaab
▁Cassie
▁Senate
▁commod
▁crimes
▁shifts
▁smells
▁glowing
▁percept
▁stations
▁necessity
▁frustrated
Eve
usk
acre
oria
▁Eug
ensed
peror
▁Play
▁pane
▁tide
terior
▁drown
▁taxes
▁wreck
avender
lighten
▁Quoted
▁phones
▁sprang
▁gallery
▁praying
▁assuming
▁swimming
▁encouraging
▁concentrated
Bill
apor
aton
▁Nev
oping
storm
▁Hoff
▁fits
▁masc
keeper
▁Ellis
▁Geran
▁coord
▁pills
▁wheat
▁advers
▁barrel
▁ginger
▁ladder
▁slowed
▁topics
▁recipes
▁ideology
▁warriors
▁nightmare
▁challenged
▁complexity
▁maintaining
▁approximately
NT
Old
iki
obs
run
▁"'
itic
tery
▁Sel
belie
▁Grey
▁nurt
acusis
ilized
umbers
▁Build
▁nails
endorff
retched
▁Afghan
▁immune
▁wheels
▁wildly
interest
▁blowing
▁experts
▁flowing
clamation
▁Nishnaab
▁troubled
▁activists
▁Literature
▁requirements
iox
fish
held
hips
▁Eff
scale
▁Comb
▁Left
▁chef
▁radar
▁spine
hearted
▁Penguin
▁reviews
▁strains
itionally
▁emerging
▁mistaken
▁vacation
▁elections
▁Publishing
▁pronounced
▁Mississippi
▁instruction
▁photography
Rub
Sem
iac
▁Has
plane
▁lime
fashion
▁Making
▁gardens
▁troubles
▁possessed
▁predicted
▁engineering
▁intervention
opt
utt
izar
▁ais
▁kne
actly
grade
▁Cuba
▁Disc
▁Java
▁Sara
▁oval
normal
uesday
▁Brook
cession
▁Future
▁equality
▁inclined
▁peaceful
▁radicals
▁gentlemen
▁Antichrists
▁examination
iph
▁nu
iary
iper
omer
▁Ald
getic
itage
▁mant
▁succ
▁crept
▁irony
▁Flying
▁Random
▁harvest
▁hitting
▁impulse
▁speaker
▁fragment
▁occupation
▁repetition
▁intellectuals
ITH
eav
edar
know
shot
star
▁Mum
▁Wac
Frank
Point
endar
ooped
reens
stick
▁clay
▁mans
▁Ident
▁blast
▁Garden
▁Rupert
▁exempl
▁solemn
▁tragic
▁garbage
▁metrics
▁Florence
▁alliance
▁injuries
▁appearing
▁rebellion
▁recovered
▁containers
▁pretending
▁questioned
BL
yer
Read
blem
ione
ucks
▁Edu
▁dub
▁laz
▁Kane
▁Magn
▁Save
▁Pound
▁curve
▁gloss
▁greed
▁stole
ustomed
▁onions
▁gripped
▁spilled
▁accessed
▁medieval
▁vehicles
▁pretended
▁Foundation
▁candidates
▁Republicans
▁establishment
uri
▁,"
▁Ga
gies
ping
▁Sue
Today
would
▁Hans
▁Hull
▁Path
▁abol
igious
ogical
resses
ulsion
▁Looby
▁Major
▁adequ
▁align
▁label
▁Arnold
▁drawer
▁ghosts
▁sleeve
Suddenly
ographer
▁columns
▁couples
Cambridge
▁stepping
▁descended
▁expansion
▁Charleston
▁companions
▁mainstream
Ev
Ma
IST
ico
▁SP
otle
otte
▁qui
acker
imens
plate
▁Expl
▁Sapt
▁lens
▁pupp
▁seam
▁seve
Evelyn
ounded
▁digit
▁facil
▁mouse
▁ninety
▁supper
▁Digital
▁colored
▁onigiri
▁Morpheus
▁entities
▁policeman
▁instrument
▁OR
Cons
Eddy
beck
ritz
wind
▁Saf
▁enl
fight
▁frag
▁hire
▁ties
▁Bobby
▁boost
▁dated
▁shone
penagel
▁beaten
▁gossip
▁relate
▁chromos
▁prosper
Hemingway
▁gorgeous
▁resolved
▁Tennessee
▁addresses
▁dismissed
▁conviction
SP
Pre
elu
pit
▁CO
▁DC
gency
iller
▁Piso
▁Yale
▁cats
▁fare
▁Medic
▁Regin
▁arise
▁flies
▁sadly
▁twist
▁Common
▁torture
▁acquaint
▁culinary
▁database
▁Townshend
▁assembled
▁threshold
▁Nishnaabeg
▁businesses
▁inspiration
▁overwhelmed
▁theological
aust
▁Dra
▁Hud
comed
ermas
▁Hein
▁Hope
▁Jere
▁Jess
▁prey
▁tube
▁Huang
▁Rober
▁prize
▁trend
justice
ulously
▁Indust
▁domain
▁preval
kerchief
ventions
▁Colonel
▁Nations
▁Working
▁rehears
▁resolve
ilization
▁glorious
▁regardless
BC
▁Ta
Miss
shit
ollen
▁Bald
▁Cost
▁Song
▁pump
Listen
omeday
▁cable
▁cauld
▁draws
▁gross
▁jokes
▁reson
▁urban
iversal
▁Anyway
▁floors
▁nurses
▁shoots
▁fingert
▁graphic
▁invaded
▁reinfor
▁romance
▁Reverend
▁downtown
▁preserve
▁classroom
▁concludes
▁investors
▁moonlight
▁operators
▁respected
▁sequences
▁straightforward
▁__
anim
oops
salm
insky
pread
▁Mind
▁bail
▁obed
▁Negro
▁arist
▁booth
▁pagan
▁Archer
▁Scient
▁lately
▁ragged
▁engines
▁illegal
▁driveway
▁overlook
▁supplier
▁teaspoons
▁acceptable
▁divination
▁instructed
▁procedures
Use
ube
▁Aff
isons
overs
▁Bank
▁Honor
▁Nazis
▁audio
▁setup
▁sixth
▁cultiv
▁danced
archment
▁Majesty
▁hostile
▁lighter
▁operate
▁consists
▁estimated
▁evidently
▁reinforce
▁reluctant
▁functional
▁Jacksonville
▁resurrection
▁breastfeeding
Car
Mon
Keep
▁Bry
▁Cas
▁Opp
▁inh
▁rude
usions
▁piety
Someone
angling
▁neatly
▁Algiers
▁Looking
▁altered
▁clicked
▁charcoal
▁graduate
▁administr
▁liberation
Med
ONE
Sil
rod
lvan
▁Hou
▁mim
▁owe
agram
apolis
change
▁Guard
▁Torak
▁arrog
▁cited
▁remem
▁shelf
▁unple
▁Warren
▁affirm
▁canvas
▁regime
▁Russell
▁drifted
▁enabled
idespread
▁cinnamon
▁kindness
▁celebration
▁representing
▁distinguished
pic
uer
...'
itan
rise
▁Sem
▁True
▁blog
▁coin
▁horn
▁lied
▁scal
Hitler
▁sober
▁wages
angular
ructure
▁Wesley
▁bomber
▁purely
▁Kingdom
▁dignity
▁retired
▁thanked
▁vinegar
▁whipped
▁prompted
▁vampires
▁practiced
▁Parliament
▁convincing
▁passengers
▁battlefield
▁contributed
▁negotiations
Com
gage
wick
▁beg
eries
▁grie
▁nods
▁spun
alling
▁dealt
▁gaunt
▁suitc
▁League
▁Morris
▁Report
▁Vivian
▁Wright
▁cherry
▁guided
▁legacy
▁rooted
▁solely
▁ceremon
▁scandal
▁suspend
▁embraced
▁snatched
▁welcomed
▁audiences
▁delegates
▁partially
▁protested
▁supposedly
▁handkerchief
PA
lad
Love
▁Pen
Later
▁synd
ermaid
liness
▁Force
▁Pilot
▁flung
▁ruler
▁trait
▁Bolshe
▁cursed
▁lasted
▁manual
arations
▁Picasso
▁failing
▁outrage
▁perched
▁threats
▁virtues
▁Marshall
▁baseball
▁interven
▁behaviors
▁measuring
▁commentary
▁conception
▁meditation
▁participate
ESS
kov
sub
Wind
okes
size
▁Ral
▁vom
itals
usive
▁Bert
▁Need
▁Todd
▁glue
▁semi
▁trop
sylvan
uddled
▁Saint
▁fleet
▁flown
▁squad
▁Angela
▁boring
▁fellows
Copyright
▁aristocr
▁narrator
▁socially
▁swinging
▁animation
▁countless
▁disturbed
▁finishing
▁corresponding
INE
rac
rec
why
Jeff
Shit
break
store
▁Fern
erness
irling
verted
▁Large
▁coach
▁scrub
▁stalk
▁reconc
▁smoked
▁Eleanor
▁chronic
▁diverse
▁prophet
▁ringing
▁Magazine
▁dialogue
▁attacking
▁proceeded
▁eighteenth
▁technologies
TO
di
AKE
Ber
avan
icts
plex
▁Kam
▁bos
▁unb
arkos
atell
▁cure
▁cust
inners
ourage
ranean
ursing
▁Payne
▁agenda
▁epidem
▁splend
▁Natural
▁caution
▁Berkeley
▁criteria
▁ignoring
▁parasite
▁quantity
▁stripped
▁residence
▁illustrate
▁preparation
BER
imm
▁AP
▁rue
athed
ingle
uston
▁Belg
▁Braz
▁drum
▁mall
urpose
▁toast
▁legion
▁planes
▁titles
sylvania
▁broader
▁schemes
alliarkos
▁opinions
▁organize
▁abilities
▁dominated
▁instincts
▁privilege
▁contribution
▁dramatically
▁vulnerability
eu
Rep
ste
Next
awed
kell
▁Adv
▁Guy
▁Wat
▁rav
acent
amous
esome
▁Mult
▁clar
▁fury
▁Anglo
▁prone
▁Surely
▁begged
▁filial
ignation
▁enhance
▁faculty
▁avoiding
▁doctrine
▁equation
▁managing
▁pounding
▁Manhattan
▁collecting
▁vs
Make
alhs
ingo
▁Hur
▁kil
▁ram
arrow
geance
▁Arjun
▁ankle
▁crude
▁rigid
▁Create
▁angles
▁endure
▁genius
▁noting
▁weekly
alhswith
▁AdWords
▁cleaned
▁scholar
▁claiming
▁clicking
▁cuttings
▁preoccup
▁saucepan
▁sickness
Washington
▁commanded
▁efficiency
▁widespread
PU
gie
sen
agle
▁Hop
▁adj
▁fib
▁tan
Deane
▁Iron
▁ribb
▁Haven
▁Pages
▁chains
▁depths
▁frames
pectives
▁intimid
▁matches
▁targets
▁yelling
▁assembly
▁lobbying
▁calculated
▁descendants
▁emotionally
▁mathematics
awa
▁Vi
conn
thir
▁Die
▁Pur
▁sip
amins
▁Requ
▁orph
enneth
people
vering
▁Baker
▁Faith
▁crush
▁obser
▁paths
avement
▁Factor
▁Irving
▁comedy
▁destro
▁Tuesday
▁amongst
▁convert
▁finance
▁weeping
▁hardware
▁opponents
▁physician
▁practition
▁concealment
▁politically
FK
OC
SS
angs
grim
omon
pret
▁Lan
▁mac
nicus
osity
udged
▁Godd
▁horm
▁tops
strong
▁Truth
▁ambul
▁dared
▁ruins
ancroft
▁Bright
▁Julian
▁noises
orenicus
▁Sanchez
▁crashed
▁diamond
▁wishing
▁Movement
▁Victoria
▁payments
▁Rebellion
▁exchanged
▁explicitly
▁appreciation
▁consistently
gom
rot
▁TW
qual
nergy
olley
▁Earl
▁Sign
▁pear
▁Judah
▁Kevin
▁pharm
▁tract
ortions
▁Inside
▁Yellow
▁ceased
▁rumors
▁seldom
▁activist
▁greeting
▁organism
▁prophets
▁publicly
▁Psychology
▁employment
Af
aki
eem
imb
MENT
comp
cope
imir
▁Bog
▁Dos
▁FBI
▁McM
▁Sup
▁Vie
▁elf
abbat
inois
▁porn
▁ramp
▁stag
▁tatt
blings
istles
▁Fried
▁Front
▁clips
▁roses
renched
▁Federo
▁Spider
▁compos
▁sucked
▁squeeze
▁tactics
fashioned
▁Routledge
▁cultivated
▁physicists
▁Introduction
▁developments
▁reproduction
▁comprehensive
Ant
iem
phew
▁Cow
▁wax
ersed
izmel
▁tons
necess
second
▁Hindu
▁clasp
▁stove
▁virus
▁behave
▁patted
▁urgent
▁Brennan
▁Krishna
▁Jonathan
▁Randolph
▁parchment
abe
dem
▁BC
Gold
milk
uded
unts
▁ech
▁gal
▁Crow
▁Wars
▁chim
▁pugs
▁rats
▁spit
flower
▁antim
▁coats
▁knelt
▁sunny
General
Through
Without
▁apples
▁diplom
▁extrem
▁nephew
▁persec
▁paradox
▁touches
▁complain
▁struggles
▁Pennsylvania
"'
fi
USA
▁MP
love
ripp
▁tum
▁Carm
▁Less
▁Navy
▁bike
itious
olving
selling
▁cannon
▁taller
Actually
▁Philipp
▁conclus
▁crawled
▁outline
▁seventh
▁Hatfield
▁Napoleon
▁consumed
▁parental
▁treasure
Everything
▁Philosoph
▁parenting
▁inevitably
▁magnificent
Rec
anti
isan
ttes
▁Ads
uming
▁Cann
▁deaf
boards
ophers
riages
uality
▁Devil
▁Yanke
▁Source
▁exotic
▁tastes
▁timing
▁waking
▁Kathryn
▁mattered
▁monsters
▁regional
▁Augustine
▁Iphigenia
▁fireplace
▁repeating
▁confronted
▁highlights
cow
Eric
uffle
▁Farm
▁fame
▁Brian
▁asset
▁cella
▁farms
▁mayor
▁Always
▁endeav
▁hybrid
▁leaped
▁openly
▁trading
▁Campaign
▁clutched
▁dynamics
▁featured
▁knocking
▁priority
▁summoned
▁Evolution
▁negotiate
▁sentences
▁Experience
▁proportion
▁protecting
▁substitute
▁anticipated
▁arrangements
▁photographer
Karp
bank
▁pas
chair
story
woman
▁Card
▁Draw
elines
gomery
▁aimer
▁prose
Richard
▁Cinema
▁crowds
▁curved
▁fridge
▁lovers
▁tasted
▁framing
▁clenched
▁deserved
▁spinning
▁Otherwise
▁converted
lightenment
▁contribute
▁improvement
▁inhabitants
▁nonetheless
UD
OOD
Rel
▁cf
Step
peat
▁pee
▁fork
▁heir
▁reun
Mattie
essert
formed
ources
▁Jaime
▁Seven
▁blown
▁intact
▁nutrit
etically
▁infants
▁jumping
▁slender
▁swallow
ictionary
▁Property
▁arriving
▁casually
▁clinical
▁notebook
▁recovery
▁component
▁intermedi
▁Australian
▁passionate
▁subjective
▁investigate
▁questioning
▁sympathetic
Che
klah
▁Bor
▁pod
Green
anton
orate
▁Meth
▁Tree
▁bald
▁loft
▁Ethan
▁ambig
▁catal
▁embed
▁erect
▁swell
▁weary
itivity
▁Beyond
▁aggreg
▁blamed
▁fortun
▁memoir
▁reflex
▁rivers
▁Gregory
▁Houston
▁battery
▁kidding
▁facility
▁sergeant
▁decorated
▁promising
▁unpleasant
▁descriptions
▁determination
Joe
cap
▁Ce
▁Ez
▁UN
▁Lab
▁Led
Billy
Smith
White
ettle
▁Bent
▁Matt
▁nail
izable
master
oubted
uating
▁frank
▁freed
▁spraw
▁attent
▁harbor
▁heroes
▁hyster
▁ledger
▁sailed
▁savage
▁slices
▁spells
▁Whitman
▁imprison
▁merchant
▁Following
▁champagne
▁innocence
▁motivated
▁pregnancy
▁stretching
Fine
cker
riet
skin
▁toy
▁Minn
▁Send
▁bour
entric
market
urning
▁Arist
▁Kevon
▁discl
▁etern
▁inaug
▁trays
▁punish
▁rounds
▁tilted
▁verbal
▁bullets
▁discern
▁filters
▁obliged
▁rendered
▁shattered
▁worldwide
▁enforcement
▁regulations
ieg
conf
left
sted
▁aer
▁ego
▁Kari
▁Paco
▁Pitt
▁knot
▁melt
▁Candi
▁revel
▁slope
▁Native
▁finest
▁hooked
▁poster
▁sealed
▁suited
▁Douglas
▁Radical
▁actress
▁fragile
▁vessels
▁heredity
▁misunder
▁narrowed
▁attending
▁behaviour
▁consumption
▁earthquakes
vo
_?"
aza
tem
▁EU
agen
ansk
▁Alt
▁Chap
▁apps
▁odor
▁Photo
▁aisle
▁canal
▁rises
▁Either
▁Ground
▁abroad
▁amused
▁errors
▁namely
▁shirts
▁tradem
▁Baldwin
▁costume
▁pouring
▁Princess
▁consumer
▁automatic
▁fictional
▁assumptions
▁countryside
Uh
Cor
cha
dri
net
opp
▁AT
▁Pak
▁kit
▁orn
▁pub
▁ric
▁unm
think
▁Ever
▁flip
▁rejo
▁Guide
▁Julia
▁Media
▁Pract
▁Starb
▁assim
▁entre
▁suite
▁gazing
▁Gabriel
▁drained
▁matched
▁advertis
▁approved
▁educated
▁grinning
▁stressed
▁pollution
▁hypothesis
▁supernatural
Cut
ICE
Mat
rer
▁AM
▁ox
Buck
fold
gate
▁Scot
▁coch
▁twin
▁advis
▁chick
▁pyram
▁sages
▁squat
▁surve
ounding
▁bewild
▁darker
▁glared
▁render
▁bombers
▁casting
▁embassy
▁growled
▁Bancroft
▁Behavior
▁deserted
▁gestured
▁thinkers
▁whispers
▁nervously
▁indication
▁encouragement
IVE
oft
sor
sts
▁LA
pton
rast
rnst
▁Inn
▁Ire
cover
eterm
udder
▁Budd
▁atop
▁nick
▁ripp
blentz
gerald
ulates
ursday
▁Theod
▁brass
ountain
▁junior
▁luxury
▁recept
▁tricks
▁berries
▁biology
▁backpack
▁memorial
▁basketball
▁emphasized
bu
pin
rix
▁PM
nings
▁Acts
▁Cock
▁Half
▁Mach
▁Priv
▁bisc
▁cute
▁pudd
▁verb
pelled
▁Bruce
▁Close
▁array
▁aspir
▁bites
▁males
▁shred
▁Danish
▁Dragon
▁incarn
specific
▁blocked
▁exhibit
▁haunted
▁terrain
▁Copyright
▁integrity
▁realistic
▁announcement
▁constitution
▁observations
▁philosophers
TR
▁TR
▁Wr
feld
hill
▁Moh
▁Ram
▁hid
▁tid
maker
▁Eden
▁wart
itness
▁clung
▁gover
▁motif
▁naval
▁Cambod
▁Monroe
▁deemed
▁discom
▁algebra
▁seismic
▁Habermas
▁Michigan
▁champion
▁genetics
▁intimacy
▁moderate
▁rhetoric
▁duplicate
▁realizing
▁stability
▁wandering
▁accustomed
▁Information
ZZ
Mor
Wil
▁Ya
Mark
coat
esar
icop
ithm
▁Ibn
▁Ker
https
rogen
stock
udhis
▁Were
▁mand
ioxide
screen
▁Lamar
▁Leave
▁Prize
▁clerk
Jackson
klahoma
▁Pierre
▁guitar
▁rented
▁wrists
oubtedly
▁adolesc
▁flipped
▁flushed
▁groaned
udhisthir
▁Represent
▁appealing
▁forbidden
▁variables
▁attributed
▁instruments
▁anticipation
riv
cium
cock
oots
pher
stra
▁bou
▁mug
▁bron
▁epic
▁herd
▁wage
▁Clark
▁Freud
▁Ghost
▁Karna
▁Rebel
▁meets
▁slipp
▁swamp
▁wears
▁wrath
▁Mengzi
▁Norton
▁Ruthie
▁brutal
▁retire
▁sector
▁Viereck
▁crystal
▁psychic
▁comrades
▁disappro
▁nonsense
▁outcomes
▁treating
▁continent
▁contracts
▁Apparently
▁compelling
▁protective
GH
bas
bery
both
vell
▁Jam
▁Wed
asper
▁Carr
▁Stre
▁canon
▁mould
▁picks
▁treas
igation
▁Corpor
▁filthy
▁locals
▁lowest
▁virgin
function
ribution
▁Wallace
▁islands
▁smashed
▁weighed
▁Response
▁magnetic
▁speeches
▁persuaded
▁immigrants
SA
▁HE
inis
stoy
type
▁Imm
▁JFK
▁Rap
Great
onies
prene
print
▁Rice
▁Room
▁Stra
▁Swed
▁quot
Second
nesday
▁Sound
▁bells
▁eased
▁fatig
▁landl
▁pseud
▁solar
▁widow
▁Amanda
▁Elijah
▁Toller
▁arrows
▁imagin
▁Genesis
▁Kenneth
▁Reading
▁lacking
▁partial
▁shelves
▁worries
anchester
▁Sciences
▁cauldron
▁feminist
▁sweeping
▁fragments
▁reporters
▁surviving
▁fascinated
▁resolution
▁attachments
",
Four
gard
▁Lay
▁asc
▁cyn
▁rab
Trans
alism
blood
itzer
odhan
uffed
venth
▁Zion
▁soda
arlock
blance
▁Often
▁flags
▁prick
▁sliced
▁upside
opolitan
uryodhan
▁Hopkins
▁centers
▁favored
▁restore
▁commands
▁gleaming
▁polished
▁Certainly
▁consumers
▁defensive
▁scheduled
▁slaughter
▁staircase
▁addressing
▁continuous
▁regulation
▁unfamiliar
▁suggestions
▁anticommunist
".
Nor
har
▁gn
Conn
Prop
bird
chen
nals
▁Kan
▁Leg
▁esp
Think
plant
▁Barr
▁Luci
▁halt
▁sexy
ardeur
lihood
▁Space
▁dusty
▁flush
▁robot
▁Import
▁conced
▁drying
▁prejud
▁turret
▁affects
▁borders
▁citizen
▁dessert
▁dresses
▁induced
▁mansion
▁notions
▁runners
▁Beldaran
▁Coblentz
▁Division
▁Language
▁McCarthy
▁Greenland
▁belonging
▁publicity
▁Stupenagel
▁motivation
▁organizing
.*
zo
ERV
▁_'
▁vo
Seed
abul
▁Fay
▁gau
▁spy
allow
itory
unken
▁Beat
▁junk
▁pork
▁Baron
▁retro
▁copper
▁strips
ognition
▁Borders
▁Ontario
▁Stevens
▁compete
▁fitting
▁perpetr
▁Algerian
▁daylight
▁episodes
▁accepting
▁purchases
▁slightest
▁beneficial
▁fingertips
▁integrated
▁whispering
▁exclusively
▁scholarship
▁congregation
▁nevertheless
!)
UE
AST
▁Os
▁SH
AKES
wife
▁Lot
▁Pour
▁Pref
▁lend
▁whip
mented
▁Gener
▁Isaac
▁Leelu
▁tents
▁Behind
▁Circle
▁Kizmel
▁bubble
▁traces
▁Clearly
▁helicop
▁postwar
▁recalls
▁witches
▁Consider
▁conclude
▁emphasize
▁primitive
▁unwilling
▁ambassador
▁settlement
▁frightening
▁spectacular
?)
Har
OOK
bag
deg
lee
too
airy
alty
▁Der
▁Hof
▁Wel
▁bin
▁lam
alted
iants
roach
▁List
▁Stew
▁cane
▁loos
August
▁Heart
▁Liver
▁arose
▁chase
▁deeds
▁nause
▁piled
▁catast
▁contam
▁echoes
▁thrill
▁editors
▁mermaid
▁nursing
▁warfare
ironments
▁Illinois
▁Probably
▁adjusted
▁dripping
▁steadily
▁imagining
▁conspiracy
▁solidarity
▁wilderness
,—
ARD
ERE
mes
rev
▁Ak
aman
drop
ecil
quin
rily
▁CRM
▁din
atisf
▁Kore
▁anom
▁roar
▁sarc
▁vain
ilight
▁Evans
▁adopt
▁fragr
▁piano
▁theft
▁unity
renches
▁blonde
▁humili
▁masses
▁puzzle
▁retain
▁roared
▁theirs
▁traced
ensively
▁Channel
▁conting
▁Together
▁actively
▁keyboard
▁obtained
▁stubborn
▁realities
▁influences
▁parameters
.")
adv
rok
anan
arms
ignt
onya
uffs
▁USA
ardon
opard
▁Vick
▁pans
filled
illery
irable
▁Mason
▁ambit
▁bands
▁crops
▁grant
▁liver
▁tween
arettes
▁Esther
▁Hudson
▁Parker
▁astron
▁beasts
▁boards
▁neural
▁sketch
▁Chamber
▁Gaskell
▁Supreme
▁colonel
▁descent
▁neglect
▁plaster
▁scanned
▁visions
▁persuade
▁settling
▁exploring
▁preserved
▁Montgomery
▁philosopher
▁preferences
▁representations
)**
apy
chi
tle
Brit
▁Sit
▁cel
▁hed
▁lod
izers
▁bulk
▁ensl
herson
onomic
▁Cathy
▁Lynda
▁Peace
▁Castle
▁Naples
▁hissed
▁peeled
▁pushes
▁soaked
▁timber
▁Imagine
▁Station
▁editing
▁vaguely
astically
▁ancestry
▁freezing
▁initiate
▁courtroom
▁characterized
GE
▁IV
elts
itzv
▁Bud
▁arc
edged
▁YOUR
▁styl
▁Begin
▁Lenin
▁Scrib
▁clust
▁feast
▁width
compass
uilding
writing
▁fitted
▁funnel
▁layout
▁mouths
children
▁annoyed
▁charity
▁handled
▁stroked
▁McDonald
▁civilian
▁youngest
▁Ealhswith
▁genuinely
▁reproduced
▁controlling
▁compensation
Mel
cre
▁Cra
▁pip
ignty
riers
agraph
▁Cohen
▁knuck
▁spons
▁stays
▁toxic
Chicago
▁Winter
▁kisses
iciently
▁Prophet
▁imagery
▁lasting
▁rushing
▁estimate
▁indirect
▁sideways
▁thirties
▁Duryodhan
▁excessive
▁advantages
▁thoughtful
FE
gue
seh
squ
——.
Barb
Each
Nora
ikes
ixed
omber
▁evac
belief
ieling
ugging
▁Fritz
▁beams
▁blunt
▁delic
▁risen
ressive
▁Harper
▁Newton
▁Portug
▁Thirty
▁coffin
▁doubts
▁transf
▁Believe
▁Indones
▁analogy
▁customs
▁eyebrow
▁renewed
▁Thursday
▁balanced
▁darkened
▁honestly
▁inferior
▁invoices
▁mutation
▁resident
▁secretly
▁slipping
▁strained
aryngology
▁Frederick
▁legitimate
▁navigation
▁officially
▁supporters
▁productivity
dep
lit
mor
nik
▁FR
Work
▁Ins
▁Row
▁Sky
▁dod
▁maj
Psych
adequ
again
aired
uling
▁Coul
▁limp
▁remn
▁sock
▁sung
houses
▁Laure
▁handy
▁hurts
▁votes
▁Bridge
▁Pentec
▁Repeat
▁calmly
▁humble
▁plague
▁proven
▁Getting
▁Records
▁deepest
▁glances
▁obscure
structure
▁Oklahoma
▁colorful
▁dreadful
▁railroad
▁realised
▁restored
▁commented
▁editorial
▁horrified
▁survivors
▁terrifying
▁governments
▁embarrassment
▁traditionally
.[
ALL
aska
blue
ggle
▁bob
eller
▁Shar
▁bolt
▁duke
▁grid
▁mush
prints
▁Ralph
▁Recon
▁Sales
▁athlet
▁trench
▁trucks
▁unfair
▁boiling
▁nodding
▁satisfy
▁stirred
▁applying
▁responds
▁sounding
▁Community
▁exclusive
▁injustice
▁cigarettes
Ap
cor
eded
mund
▁huh
ishly
isive
▁Marie
▁Tommy
▁float
▁heter
▁stamp
raining
tenance
▁Bureau
▁liquor
▁misery
▁poorly
▁precip
▁voyage
▁Writing
▁dioxide
▁doubted
▁sinking
fortunate
▁Jennifer
▁disagree
▁mentally
▁villages
▁defending
▁Yudhisthir
▁adaptation
▁disturbing
▁preference
▁measurement
▁enthusiastic
Ob
Tor
hin
Harv
Lord
Phil
cery
ianc
iman
▁Dub
▁Kal
▁Wic
dream
inals
rency
stant
▁Anth
▁matt
▁mint
▁mold
▁nois
▁peak
▁pest
▁repr
▁yawn
except
istani
▁gramm
▁recur
Pherson
itching
▁Moscow
▁castle
▁coward
▁relent
▁varied
▁harmony
▁screams
▁tempted
▁absorbed
▁calendar
▁declined
▁historic
▁reducing
▁isolation
▁Management
▁accessible
▁confession
▁discomfort
oan
Call
amel
heel
imal
requ
utsch
▁adap
▁cush
▁sals
▁tune
arring
phones
really
▁flows
▁sandw
▁Marian
▁eighth
▁nicely
▁sphere
▁trains
▁Manager
▁applies
▁reserve
▁snorted
▁trailer
▁calories
▁modified
▁websites
▁Charlotte
▁ambitious
▁complaint
▁concealed
▁Fortunately
▁cooperation
▁ideological
▁alternatives
▁historically
_?
Ver
mad
pat
▁NY
cuse
icer
▁Bhe
▁Bou
▁elb
amonn
cloth
guard
rooms
▁Rest
▁Tire
▁Week
▁oral
▁wipe
German
▁Cuban
▁Joyce
▁reapp
▁sport
▁swore
▁tones
▁Design
▁bushes
▁judged
▁laying
▁voting
▁Tolstoy
▁farming
▁funding
▁imposed
▁jewelry
▁railway
▁someday
▁starter
▁graphics
▁mourning
▁outlined
▁supports
▁targeted
▁uniforms
▁Government
▁Kalliarkos
▁Ludendorff
▁entreprene
▁importantly
▁temperatures
▁entertainment
ELL
LEY
Ser
▁RA
Lucy
affe
emen
ruit
▁Equ
▁Hum
▁Sac
ilize
ysics
▁anat
▁ecst
▁pars
▁prol
ecting
▁Music
▁cubes
▁ridge
▁stool
▁ascend
▁freeze
▁rulers
▁Brandon
▁begging
▁envelop
▁Economic
▁confined
▁divorced
▁feedback
▁festival
▁meantime
▁clutching
▁conflicts
▁depressed
▁ignorance
▁attraction
▁functioning
▁hyperacusis
▁realization
FP
IES
III
▁Kl
Five
fits
ifix
▁Pay
▁Say
▁Seb
▁pic
CTION
▁Nina
▁heel
▁math
pencer
spoken
▁Ghana
▁Parad
▁Whale
▁cares
▁clone
▁shudd
Merissa
▁Treaty
▁zombie
ervation
▁Herbert
▁Merrill
▁Solomon
▁longing
▁vendors
▁Campbell
▁Pakistan
▁believer
▁betrayed
▁brightly
▁contacts
▁handling
▁smoothly
▁Quarterly
▁limitations
▁permanently
▁surroundings
LD
](
ui
asn
gon
oks
▁AR
▁ya
Dear
bris
olfe
roit
▁Mall
▁Plus
▁scor
▁bizar
▁pairs
▁punct
itchell
▁juices
▁knight
▁licked
▁vacuum
▁Marcell
▁Tiffany
▁dispute
▁housing
▁resumed
▁teaches
▁Eldridge
▁Scribner
▁grabbing
▁opponent
▁Microsoft
▁Wednesday
▁fantastic
▁sixteenth
▁redemption
▁foundations
▁undoubtedly
▁associations
iti
Sean
asis
cked
keys
▁Hug
▁Sig
▁apt
▁kin
▁Okay
▁Prov
▁bush
should
urally
▁Nancy
▁badge
▁torch
▁wagon
▁Ariana
▁bucket
▁checks
▁cleans
▁denial
▁helmet
▁losses
▁shorts
although
▁Century
▁grasped
▁outdoor
▁receipt
▁sweater
▁departed
▁depended
▁planting
▁spectrum
▁unnecess
▁Victorian
▁Vorenicus
▁competing
▁examining
▁Fitzgerald
▁committing
▁popularity
▁devastating
VI
Bee
Dad
Div
ahl
ika
oqu
▁CS
▁pir
▁wag
Using
ogged
▁Sett
▁Vane
▁bulb
▁cham
▁loan
▁peas
hetics
udging
▁Stick
▁avail
▁pains
▁posts
▁sizes
▁socks
▁voted
anskrit
ittered
▁Compan
▁Tolned
▁gravel
▁stance
▁dangers
▁militia
▁Hospital
▁crouched
▁drawings
▁expenses
▁flashing
imensional
▁anonymous
▁conceived
▁staggered
▁compliment
▁likelihood
▁reflecting
▁expectation
▁fulfillment
▁seventeenth
▁mathematical
avy
tes
wan
▁..
▁Ni
auer
obel
ouin
▁Mas
▁sug
shine
▁Find
▁aged
▁arou
▁caps
▁coup
▁pean
▁rasp
▁ster
employ
▁armor
▁comic
▁globe
▁laund
▁leans
▁obliv
▁posed
▁smoot
istence
▁Luther
▁pissed
▁racing
arrative
▁Fernand
▁Thought
▁intrins
▁stagger
▁swollen
According
ifference
▁prophecy
▁thrilled
▁apprehens
▁extracted
▁paragraph
▁flashlight
▁beautifully
▁coincidence
▁considerably
▁subsequently
▁technological
▁responsibilities
CR
TE
Leo
hyd
mun
▁Cy
▁Ut
Alex
Such
lien
pool
▁fal
inery
regon
▁bapt
▁barn
▁bias
▁dive
▁verd
▁breed
▁exert
issance
istance
olutely
▁Hester
▁Taking
▁Wacune
▁burial
▁guides
▁parted
▁swords
▁Somehow
▁Tirelle
▁cluster
▁emperor
▁inadequ
▁specify
▁nineteen
▁squadron
▁suitcase
▁warehouse
▁environments
▁conservatives
▁interrogation
"?
hr
Les
VER
chs
ZZLE
▁bri
▁jam
James
death
rates
▁plun
ateral
berger
thirty
▁bloss
▁freak
▁synag
▁Harvey
▁facial
▁inward
▁ounces
▁patron
ositions
▁Bernard
▁Hunting
▁clarity
▁hastily
▁tickets
▁whistle
▁Actually
▁Contents
▁Stanford
▁circular
▁defining
▁genealogy
▁imitation
▁invention
▁parasites
▁democratic
▁emphasizes
▁homosexual
▁stimulation
▁similarities
▁architectural
▁participation
SH
Bel
die
far
▁FL
akov
oche
recy
robe
▁Roy
▁ape
▁umb
#####
Table
acies
inged
psych
▁ampl
▁taxi
▁wept
PUZZLE
urious
▁froze
▁incap
▁shine
▁Caesar
▁parrot
▁petite
▁recoll
▁scores
▁Frances
▁Mediter
▁appoint
▁blender
▁cousins
▁fingern
▁mirrors
▁vicious
▁viewers
▁Building
▁ambition
▁breeding
▁engaging
▁receives
▁supervis
▁withdrew
▁compelled
▁sentiment
▁assignment
▁exploration
▁shareholders
Que
sta
▁_(
Army
ands
news
rion
uels
▁Lex
▁vic
Cover
amsin
chant
vable
▁Deep
▁Isle
▁Vill
▁unst
▁veil
Anyway
Garden
Intern
abetes
urable
utable
▁bowls
▁filed
▁inhib
▁monst
▁scree
History
Phillip
▁Weaver
▁amazed
▁salary
▁flicked
▁flooded
▁growers
▁inspect
▁posting
▁wartime
▁borrowed
▁coverage
▁equipped
▁perceive
▁vocation
▁artillery
▁blessings
▁chemicals
▁civilians
▁colleague
▁offensive
▁startling
▁initiation
▁treatments
▁progressive
▁unfortunate
▁righteousness
SL
ws
cht
pot
▁ME
▁xx
uish
Ethel
Nadia
marks
salms
▁Edit
▁Pain
▁curb
author
istant
thouse
▁Eliot
▁Magda
▁agony
▁baked
▁careg
▁pione
▁scare
▁absorb
▁debris
▁lament
▁Medical
▁circled
▁kicking
▁railing
▁tearing
▁Colorado
▁energetic
▁expertise
▁legendary
▁Manchester
▁accounting
▁admiration
▁connecting
▁convenient
▁diplomatic
▁enterprise
▁positively
▁Furthermore
▁distributed
Ju
td
tis
▁ly
cart
elia
▁Bea
▁GOP
▁Loc
▁Mot
▁awe
▁mum
▁rib
Their
ennel
ortal
▁Noah
▁Sing
▁brid
▁chip
Boston
Having
Nature
sburgh
untary
▁Rosen
▁Works
▁blows
▁chips
▁scrut
▁spear
▁sprou
ulative
▁Regina
▁Venice
▁dumped
▁strode
▁wasted
▁Consequ
▁Islands
▁Tribune
▁calcium
▁debates
▁drivers
▁fearful
▁Kentucky
▁Starlock
▁Sullivan
▁bitterly
▁blankets
▁embedded
▁frontier
▁infinite
▁surfaces
▁McPherson
▁provision
▁reminding
▁scrambled
▁destroying
▁obligation
▁Preferences
TV
iy
én
Pol
Char
Maud
acer
also
ican
iens
rary
ubby
▁Sin
ricia
▁Holl
uffalo
▁Along
▁sends
▁tunic
Buckley
olester
▁Altern
▁Peters
▁Spring
▁counts
▁cracks
▁enters
▁heated
▁provin
▁velvet
▁Persian
▁backing
▁barrier
▁heavens
▁implied
▁implies
Christian
▁implicit
▁inviting
▁proteins
▁province
▁sweating
▁worrying
▁cardboard
▁occurring
▁reproduce
▁expressing
▁medication
▁reluctantly
▁Presentation
▁acquisitions
▁Mediterranean
gra
BUCK
aple
bler
pels
pron
stad
vely
▁RNA
Arnot
Inter
anity
jects
▁Mimi
▁duel
ximity
▁incon
▁maneu
▁oddly
▁plaus
abulary
prising
tically
▁Invest
▁longed
▁reckon
▁wander
▁Bedouin
▁emerges
▁floated
▁pilgrim
▁stained
▁sucking
▁wonders
Meanwhile
▁Brighton
▁Brooklyn
▁Question
▁appetite
▁aromatic
▁energies
▁marching
▁promoted
▁condemned
▁patiently
▁ecosystems
▁achievement
▁capabilities
▁practitioners
pa
ITY
mie
▁CA
Last
▁Fox
▁NOT
▁oak
Event
aders
their
▁Conc
▁Emer
▁Rick
▁amaz
▁begg
▁fade
▁limb
ifties
▁Chron
▁Klein
▁Stour
▁brace
product
▁Exodus
▁Method
▁creamy
▁joints
▁yogurt
▁Freedom
▁artwork
▁conform
▁liberty
▁needles
▁recruit
▁veteran
▁viewing
▁Governor
▁Veronica
▁blocking
▁chuckled
▁executed
▁flexible
▁glancing
▁lavender
▁phenomena
▁privately
▁teachings
▁Revelation
▁compromise
▁rhetorical
▁journalists
▁embarrassing
ho
.),
Dou
osa
anic
bone
ecum
elsh
eted
scar
▁Pam
▁Tan
▁coc
▁sup
erers
▁Harp
▁Zeal
▁ferv
▁foul
▁goat
▁lump
▁unch
▁whit
▁Dream
▁Ridge
▁burns
▁clues
▁inval
▁races
▁reper
working
▁mascul
▁overhe
▁Algeria
▁Marxist
▁Shabbat
▁loosely
▁minimal
▁Anything
▁Cassovan
▁airplane
▁bureaucr
▁crawling
▁relating
▁Education
▁confessed
▁requested
▁seedlings
▁perfection
▁maintenance
▁understands
▁straightened
▁interpretations
Art
gor
mal
tre
usp
▁iP
Kent
strom
▁Beck
▁Fold
▁Marj
▁User
▁crad
▁sire
anking
▁Aaron
▁Bring
▁Hazel
▁Hills
▁Ocean
▁ammun
▁chron
▁coins
▁glare
covered
hematic
▁Helena
▁Mooney
▁escort
▁glimps
▁oracle
▁uncont
▁Ireland
▁Stewart
▁punched
▁Standard
▁colonies
▁consolid
▁supplied
▁teenager
▁vitamins
▁celebrity
▁confusing
▁intuitive
▁neighbour
▁suspended
▁underwear
▁creativity
▁ecological
▁conclusions
▁incorporated
Tar
eda
iba
sis
ghed
oebe
open
seat
▁icy
▁Batt
▁Hong
▁Maya
▁Pred
▁feud
perial
▁grabs
▁linen
▁pinch
▁seeks
ructive
▁flowed
▁outfit
▁refres
▁satell
▁shudder
▁nutrient
▁siblings
▁Universal
▁portrayed
▁interviews
▁presenting
▁productive
▁appreciated
▁replacement
Big
ICK
iel
▁NT
▁hi
Half
Soon
iors
▁Kaz
▁Kuk
▁jet
World
fried
gence
▁Ivan
▁Went
▁hind
mmetry
ucking
▁Paper
▁compr
▁empir
▁flatt
▁spill
▁stark
ickered
perhaps
reading
▁Duncan
▁anchor
▁trauma
▁Workers
▁bombing
▁contend
▁generic
▁neurons
▁packing
▁secular
▁teasing
▁teenage
▁travels
▁widened
olesterol
▁eternity
▁restless
▁maintains
▁merchants
▁tightened
▁ammunition
▁encounters
▁remarkably
Sy
REE
Too
▁NO
▁ic
"...
serv
uana
▁Fig
▁Hoo
▁TIP
▁idi
▁jur
Logan
those
▁Coff
▁Name
▁Pine
▁adul
▁beet
▁lamb
▁mice
▁worm
Daniel
illyer
otypes
▁Mingo
▁Paint
▁Store
▁drill
▁fried
▁scrib
ecumseh
inarily
▁Angels
▁Jackie
▁McCree
▁Valent
▁evenly
▁exquis
▁grains
▁ironic
▁tugged
▁bizarre
▁screens
▁secured
▁skilled
▁tangled
▁Security
▁defended
▁frowning
▁politely
▁resigned
▁solitary
▁strictly
▁strikers
▁Selection
▁consensus
▁helicopter
▁practicing
▁competitors
▁documentary
▁demonstrates
del
rus
Damn
anta
bian
furt
girl
meal
wixt
▁McG
▁gru
chnya
▁Sven
▁unto
▁Award
▁Laney
▁Trina
▁aging
▁pests
inkling
▁Haller
▁Murphy
▁analyt
▁hazard
▁labour
▁lacked
▁superv
▁Austria
▁Bradley
▁Fearing
▁faintly
▁happier
▁rewards
mediately
▁Cambodia
▁crucifix
▁copyright
▁prevented
▁afterwards
▁comforting
▁Confederate
▁abstraction
▁circulation
▁sufficiently
Ot
▁IP
▁Lo
▁om
None
ocus
opes
orig
arled
intus
ipher
▁Cain
▁Gulf
▁Pick
▁Slow
▁WITH
▁tags
Should
loaded
▁Woman
▁fairy
▁monop
▁trave
regular
▁Around
▁McMarn
▁armies
▁insists
▁Independ
▁Sanskrit
▁assorted
▁courtesy
▁founders
▁moisture
▁sometime
▁warnings
▁Churchill
▁justified
▁sovereign
▁violently
▁innovation
▁relaxation
▁reparations
▁uncertainty
▁measurements
▁restrictions
Mir
ORD
bly
West
erek
yson
▁COM
▁Dog
▁Veg
aiser
antry
irled
might
urred
▁Pict
▁Sina
▁pole
▁seas
writer
▁Trump
▁Allied
▁Double
▁Oregon
▁dragon
▁fights
▁heroic
▁recess
▁shaken
▁strand
▁Capital
▁Corinth
▁Goddess
▁cheered
▁gravity
▁handing
▁millenn
▁motives
▁peering
▁pursued
▁sixties
▁volumes
▁Interest
▁epidemic
▁headache
▁notation
▁receiver
▁twenties
▁Cassandra
▁diversity
▁ownership
▁prophetic
▁shuddered
▁antimodern
▁classified
▁hesitation
▁irrelevant
▁establishing
▁implementation
Ly
sim
Tony
asse
erbr
▁Ted
▁tac
Death
raits
utors
▁Diet
▁Fest
▁bury
▁rays
▁scow
▁weed
Jewish
assium
ignant
ourdes
▁Glass
▁Price
▁Sweet
▁chalk
▁hesit
▁neuro
▁raced
▁shrug
Instead
agation
aterina
instein
▁Bailey
▁Forest
▁Fourth
▁Joshua
▁Stuart
▁anarch
▁nearer
▁worksh
▁Perkins
▁declare
▁kilomet
▁startup
▁Customer
▁Literary
▁bastards
▁bullshit
▁clinging
▁sexually
▁stunning
▁wrinkled
▁communism
▁monuments
▁travelers
▁deliberate
▁problematic
▁spontaneous
.).
RED
San
agi
coe
gia
lla
rug
▁SU
Pres
olia
rows
▁Tun
▁dys
▁rod
▁toe
brown
isand
ogene
ousse
ucker
urban
▁Poss
▁Stop
▁Ward
▁guts
▁ripe
▁Value
▁eleph
▁tenth
Windows
▁archae
▁differ
▁sailor
rational
▁Actions
▁Antonio
▁Miranda
▁females
▁mankind
▁varying
▁Chechnya
▁invested
▁shivered
▁Secretary
▁histories
▁hostility
▁preceding
▁proximity
▁qualified
▁scratched
▁skeptical
▁socialist
▁comprehend
▁Afghanistan
▁resemblance
Sl
NOW
Code
educ
suff
▁liv
esota
yalov
▁Bapt
▁Dash
▁Hold
▁Shaw
▁carn
▁dick
▁hats
▁slap
Modern
length
rowing
▁Quick
▁amuse
▁tanks
▁veins
▁Carlos
▁Visual
▁overth
▁resear
▁styles
▁Marshal
▁eagerly
▁inquiry
▁notable
▁onstage
▁sleeves
▁streams
▁adaptive
▁Aristotle
▁briefcase
▁comparing
▁Especially
▁proclaimed
▁appearances
▁counterpart
▁presentations
Ori
PER
▁Dh
Long
Luke
Shut
inic
llen
plus
▁FDA
Afric
allen
naire
sided
▁Dire
▁Gard
▁airl
▁dans
▁deer
▁hipp
▁logs
▁sack
Robert
antine
idency
imeter
ourses
▁Griff
▁autob
▁cripp
▁rural
▁unpre
▁Silver
▁Symbol
▁bodily
▁boiled
▁deputy
▁lining
▁overly
▁pilots
▁saints
▁Hillyer
▁goodbye
▁grocery
▁plunged
▁Whenever
▁decrease
▁devotion
▁mattress
▁mystical
▁soothing
▁Europeans
▁Louisiana
▁ambulance
▁apologize
▁consisted
▁offerings
▁remembers
▁laboratory
▁sweetheart
▁agriculture
▁sensitivity
▁Environmental
▁reconciliation
▁representatives
Beh
Blue
▁Ara
▁Eck
▁Obs
▁Grow
▁beta
▁dice
▁disl
Little
itures
orable
▁Bette
▁Robin
▁defic
▁fails
▁Eamonn
▁Unless
▁bundle
▁contra
▁organs
▁robust
▁ruling
▁stares
▁Monique
▁arrives
▁bedside
▁chilled
▁courses
▁fatigue
▁harness
▁rescued
▁awaiting
▁geometry
▁heritage
▁mistress
▁readings
▁emergence
▁fundament
▁initiated
▁messenger
▁obsession
▁submitted
▁targeting
▁accurately
▁objectives
▁satisfying
▁continually
▁temporarily
Bar
Imp
sur
vii
▁iv
ATER
Thus
iery
▁Dob
▁Gib
▁Ian
asket
enter
oking
▁Kamp
▁Type
▁Yeah
▁fung
Sharon
achers
ounces
▁Amaya
▁Ernst
▁Notes
▁Welsh
▁admon
▁brisk
▁depri
▁embro
▁fiber
▁neckl
▁tiles
▁Stalin
▁giants
▁parish
▁uneasy
▁unseen
▁viewer
icularly
ittering
▁Product
▁shotgun
▁strokes
▁cautious
▁operated
▁resisted
▁settlers
▁Catherine
▁diagnosis
▁impatient
▁observing
▁retreated
▁signature
▁uncovered
▁vengeance
▁complaints
▁contradict
▁volunteers
▁controversial
CA
Bre
Hen
Isn
Max
fif
hum
Sept
mary
otyp
ugar
▁cod
▁gum
aceae
glass
ifier
▁cens
▁tunn
access
akened
ifting
import
uddick
▁Cabin
▁Mitch
▁bully
▁crawl
▁sting
Besides
▁healed
▁pastor
▁potato
▁shades
▁tattoo
▁topped
▁infrast
▁justify
▁labeled
▁phrases
▁stacked
▁strands
▁deciding
▁twisting
▁disorders
▁eliminate
▁fulfilled
▁producers
▁positioned
▁reconstruct
▁restoration
▁transparent
Hig
ORY
dar
▁Az
▁dé
Grok
atry
chat
▁Fel
▁Jun
▁Vic
annon
grown
still
▁dump
▁golf
▁lazy
Jonnie
▁Enter
▁antib
▁claws
▁enfor
▁escal
▁polar
▁scarf
plicity
▁Herman
▁Mimbre
▁bounce
▁colony
▁hammer
▁parach
▁update
national
▁Insight
▁Sherman
▁folding
▁hopeful
▁offense
▁prolong
▁Diseases
▁Hoffmann
▁adequate
▁fraction
uroscience
▁Minnesota
▁Mountains
▁aggregate
▁employers
▁obedience
▁Philosophy
▁aggression
▁oppression
▁supplement
▁tendencies
▁possessions
▁accidentally
▁Understanding
;_
RY
ér
?'_
EAR
HER
Had
Rev
beh
bes
Ever
OUGH
adic
rams
tkov
uffy
▁dip
▁sab
David
aline
aller
osher
oward
▁Bene
▁Mail
▁envy
▁holl
▁pays
▁tire
Nobody
ensing
ibular
velyan
▁Camus
▁disli
▁gains
▁hears
▁lifel
▁sneak
▁Butter
▁Energy
▁Reform
▁biting
▁bronze
▁genome
reements
stration
▁Mandela
▁Spencer
▁assumes
▁discont
▁doubled
▁oneself
▁accuracy
▁adjacent
▁crashing
▁splendid
▁stealing
▁machinery
▁molecules
▁regulatory
▁succession
▁legislation
Av
PC
Cap
HEN
Mus
aic
dia
iii
non
uan
▁pH
▁yo
Hold
atum
orin
prom
rils
worm
▁bug
▁——'
Notes
could
great
itism
month
retty
▁Dock
▁Moby
▁gaps
▁owed
▁redd
▁welf
George
before
enberg
orship
▁borne
▁curls
▁lonel
▁mixer
▁uncon
olation
▁Lucian
▁aching
▁lesser
▁mortal
▁solved
▁wallet
▁winner
▁Arendia
▁Darlien
▁Foreign
▁browser
▁drunken
▁inflict
▁praised
▁samples
▁deterior
▁diabetes
▁motioned
▁numerals
▁reviewed
▁threaten
▁triangle
▁Socialist
▁closeness
▁distances
▁stereotyp
▁tolerance
iographical
▁initiative
▁temptation
▁manufacturing
TA
ben
fol
cycl
pert
▁Iss
▁Sud
▁Tal
▁Ton
Child
Curry
borne
cross
doors
maybe
mouth
orman
tight
▁Pear
▁Poor
▁topp
Excuse
Within
akable
alized
legged
ummies
▁McKin
▁Month
▁antit
▁disgr
▁piles
▁rocky
▁seize
▁stain
British
Looking
aternal
inology
▁Essays
▁doomed
▁pinned
▁racism
▁repent
▁skinny
▁static
▁trends
▁urging
cknowled
▁Roberts
▁drowned
▁propped
▁unaware
▁vitamin
▁warming
▁welfare
antically
erbrowski
▁Medicine
▁currency
▁depicted
▁internet
▁variants
▁authentic
▁fortunate
▁intensely
▁attributes
▁forgetting
▁membership
▁resentment
▁restricted
▁supervisor
▁Continental
▁illustrated
▁methylation
Far
hal
▁"[
▁-,
Anal
anie
make
pine
sche
supp
▁Exp
▁Isn
▁LSD
▁pap
▁soy
actic
▁Side
▁edit
▁fuss
▁ther
Except
agging
▁Brits
▁Clair
▁Hence
▁Serge
▁Sonny
▁arche
▁daddy
▁scary
▁slick
parents
▁Elliot
▁Norway
▁export
▁kindly
▁pastry
▁shrink
▁submit
▁Outside
▁Usually
▁Zealand
▁condemn
▁enables
▁guarded
▁hurting
▁laundry
▁markers
▁shaping
▁swiftly
▁tapping
▁treason
▁advocate
▁electron
▁holidays
▁promptly
▁pursuing
▁Everybody
▁inclusion
▁mutations
▁selective
▁starboard
▁motherfuck
MP
▁AS
▁HR
Comm
grow
hran
isco
oren
uced
Charl
iries
leman
liter
never
▁Aber
▁Exam
▁thum
▁toys
▁tsar
health
ouched
▁Adolf
▁Below
▁Watch
▁Wiley
▁arbit
▁hosts
akening
▁Brazil
▁Foster
▁choked
▁fertil
▁foster
▁incons
▁intens
▁joking
▁metric
▁output
▁quiver
▁Freeman
▁relates
▁slumped
▁toasted
▁trailed
▁creeping
▁navigate
▁opposing
▁sensible
▁steering
▁Gusterson
▁disbelief
▁encompass
▁selecting
▁Translated
▁disappoint
▁guidelines
▁reassuring
▁supportive
▁illustrates
▁willingness
!—
FF
rd
sk
Walk
opia
pace
▁Ask
▁Fan
▁Hav
▁Pie
▁gul
panic
▁Kitt
▁peel
▁prow
holder
intage
rehens
▁Betty
▁ached
▁naive
▁norms
▁Kansas
▁Policy
▁banner
▁closes
▁fading
▁loaves
▁obsess
iversary
▁Anthony
▁Georgia
▁awesome
▁circuit
▁melting
▁renewal
▁sympath
▁undersc
▁Montreal
▁enhanced
▁retained
▁shocking
▁tourists
▁convicted
▁expanding
▁interfere
▁potassium
▁reduction
▁sandwiches
▁acquaintance
▁communications
▁infrastructure
gm
]).
asi
erc
Evie
crit
imag
mans
ulas
unzi
▁Zak
▁hob
▁mes
▁nig
iotic
owell
▁Burg
▁Dave
▁Peep
ankind
▁Brain
▁Catal
▁Kelly
▁cigar
▁input
▁rever
▁safer
▁Agency
▁Marcus
▁crunch
▁permit
▁Windows
▁empathy
▁freezer
▁legally
▁murders
▁boundary
▁cheerful
▁contexts
▁deserves
▁talented
▁trenches
▁sexuality
appropriate
▁facilities
▁propaganda
▁vocabulary
▁witchcraft
▁unnecessary
▁expenditures
Kn
Got
OVE
aca
hor
▁DO
▁Wa
▁Zh
▁ze
Port
aque
corn
give
orph
week
▁Got
▁Tib
▁hub
antom
hetto
ianic
▁Pont
▁bump
▁cant
▁dusk
▁nost
▁nour
▁sket
Indeed
antage
depend
inters
school
▁Cecil
▁Trish
▁Words
▁acids
▁loses
▁puppy
▁Gospel
▁assure
▁cosmic
▁daring
▁module
breaking
▁Detroit
▁antagon
▁fifties
▁frantic
▁signing
▁Mitchell
▁explored
▁punished
▁favourite
▁rectangle
▁Originally
▁agricultural
▁investigated
▁sophistication
Os
Tom
pop
bott
date
ding
irch
vous
▁Aja
▁Dry
▁rye
▁Arts
▁Didn
▁Pink
▁cows
atered
idered
ooting
▁Above
▁cance
▁masks
▁vigor
ynamics
▁Archie
▁Clover
▁Police
▁Saxton
▁Spread
▁graves
▁infect
▁metals
▁bounced
▁footage
▁heating
icultural
▁Grateful
▁Highness
▁applause
▁dreaming
▁enduring
▁envision
▁hopeless
▁minerals
▁noticing
▁obsessed
▁pavement
▁predomin
▁severely
▁stresses
▁interface
▁persistent
▁Chamberlain
▁cholesterol
▁explanations
ME
NE
Day
UST
var
Text
gart
▁ave
areth
atile
geois
▁Deal
▁Kind
▁Laur
French
makers
▁Fanny
▁Mayor
▁acute
▁appar
▁feeds
▁grate
▁hints
▁inequ
▁manic
▁orche
▁vault
astrous
lements
uffling
urchase
without
▁Greece
▁elbows
▁expose
▁finely
▁linear
▁locker
▁quotes
cipation
igration
ithmetic
▁Network
▁asshole
▁individ
▁urgency
▁Archives
▁Broadway
▁Patricia
▁chairman
▁dominate
▁ignorant
▁liberals
▁watering
▁radically
▁unusually
▁responding
▁yourselves
▁determining
▁exceptional
▁fascination
▁sovereignty
PL
oi
ahn
gone
kish
stan
▁Lad
▁Lim
▁ger
▁sul
▁tyr
inges
ivism
izard
▁Band
▁Huff
▁Luft
▁Pand
▁medi
▁sped
▁weep
enance
illian
▁Khmer
▁Kings
▁bonds
▁mirac
▁Andrey
▁Editor
▁chunks
▁paddle
▁scroll
▁sunset
▁tennis
optional
▁apostle
▁corpses
▁echoing
▁huddled
▁peasant
▁perfume
▁seasons
▁superst
▁unclear
▁Minister
▁battered
▁coherent
▁singular
▁configure
▁economics
▁extending
▁prospects
▁Huntington
▁sacrifices
Introduction
▁controversy
▁manufacturer
▁confrontation
▁reconstruction
Ep
HC
▁AG
▁il
airo
ieur
▁Cit
▁Mam
▁Mey
▁pel
Bless
ioned
utton
▁Baum
▁boom
▁café
▁clam
▁foil
▁glac
▁glam
▁morn
ailles
▁Hawai
▁Lucas
▁Marci
▁Nobel
▁Titus
▁Vegas
▁arena
▁ashes
▁halls
▁locks
▁modes
▁scalp
iolence
▁AdGrok
▁Louise
▁divers
▁judges
▁league
▁microw
▁napkin
▁occupy
▁pedest
▁robots
▁titled
▁winced
▁Lourdes
▁awarded
▁catches
▁manners
▁procure
▁winding
▁Svensson
▁Theodore
▁betrayal
▁brushing
▁marrying
▁pictured
▁printing
▁terrific
▁evergreen
▁intellect
▁judgments
▁personnel
▁volunteer
▁criticized
▁desperation
▁interviewed
▁obligations
▁proportions
International
df
LED
Sal
Try
opf
pox
▁ty
Anne
Pick
▁Dim
▁Eze
▁NIV
▁dyn
▁rug
Blood
court
lette
paper
stood
▁Hugh
▁Kris
▁ally
▁bout
▁kidn
▁logo
______
ashire
ocaust
▁Jonas
▁Title
▁Wayne
▁buddy
▁paste
Michael
Several
jective
western
▁Carter
▁Eckart
▁chorus
▁consec
▁sleepy
Probably
ceedings
▁adapted
▁denying
▁earthly
▁heavier
▁posture
▁Maryland
▁centered
▁deceased
▁discount
▁disguise
▁smallest
▁desirable
▁discarded
▁strongest
▁villagers
▁▁▁▁▁▁▁▁▁▁
Propagation
▁Publishers
▁Cultivation
▁superstructure
Att
Cur
END
dig
lda
Didn
eque
kiel
maid
nuts
oval
stru
▁WAS
▁haw
▁lan
▁wig
Saxon
party
raine
▁Heat
▁Snow
▁Soft
▁Wald
▁cope
▁sham
Almost
Arctic
Barbra
inence
integr
▁Henri
▁Miley
▁bacon
▁bloom
▁monks
▁salsa
▁Heming
▁Poland
▁Quebec
▁Wilkes
▁borrow
▁cowboy
▁impart
▁rocket
▁shaved
ibration
neapolis
▁Betwixt
▁Leonard
▁approve
▁discrim
▁senator
▁whiskey
unciation
▁Bavarian
▁Transfer
▁backyard
▁downward
▁feminine
▁formerly
▁monaster
▁muscular
▁novelist
▁sunshine
▁tomatoes
▁unlocked
▁Obviously
▁Streisand
▁abolition
▁exercises
▁resembled
▁quantities
▁manipulation
▁configuration
▁unfortunately
Die
akh
rea
▁ft
ello
hile
orno
quit
warm
acity
andel
equeg
▁Live
▁Prom
▁Rost
▁bead
▁beck
▁brig
▁mesh
▁panc
▁rape
▁wary
ersson
idable
ijuana
iotics
taking
▁Barry
▁Drake
▁Lydia
▁Morte
▁beads
▁hates
▁kills
▁tires
onsieur
written
▁Edmund
▁almond
▁backup
▁cursor
▁essays
▁rifles
▁saddle
▁salads
▁silhou
▁Baptist
▁Drawing
▁crosses
▁exasper
▁fertile
▁linking
▁refusal
▁rocking
▁umbrell
▁unbelie
▁dangling
▁maternal
▁objected
▁paradigm
▁starving
▁transmit
Harvesting
▁hospitals
▁memorable
▁patterned
▁radiation
▁Buckingham
▁Lancashire
▁citizenship
▁educational
▁proposition
▁Conservative
CL
eer
grat
ilia
kets
rend
rift
▁Lac
▁Lat
▁Sex
▁Tax
Sweet
alach
arbon
awing
ctive
ravel
▁Anti
▁Cond
▁Full
▁José
▁Loss
▁Myst
▁barr
marked
▁Crase
▁Syria
▁saint
▁throb
▁whist
Sistani
owering
▁Allies
▁Direct
▁Heeney
▁Leaves
▁awhile
▁bosses
▁exhort
▁naming
▁rabbis
▁slogan
▁slower
▁Thunder
▁mammals
▁muffled
▁nipples
▁Marjorie
▁elevated
▁ordering
revolution
▁activated
▁considers
▁dominance
▁preaching
▁biologists
▁completion
▁loneliness
▁motionless
▁accordingly
▁astonishing
▁Intelligence
▁confirmation
OUT
Sav
dev
▁NJ
ENTY
June
Nove
izzy
rigg
rost
▁hay
▁lav
ITION
March
aspor
elled
onsin
river
▁Days
▁Ezra
▁Gwen
▁Lena
▁Link
▁Nero
▁dude
▁void
actory
icable
ilated
millan
uclear
▁Admir
▁Camer
▁Chase
▁Crown
▁avant
▁grape
▁queer
entieth
▁ankles
▁banana
▁chased
▁draped
▁faults
▁ideals
▁ration
▁server
▁stride
▁delayed
▁designs
▁dialect
▁endured
▁honored
▁seeming
▁supreme
▁defenses
▁discreet
▁forecast
▁homeless
▁imported
▁impulses
▁revolver
▁speakers
▁attendant
▁hopefully
▁improving
▁notorious
▁Confucians
▁astonished
▁commanding
▁disastrous
▁respective
▁constituted
▁highlighted
▁registration
▁respectively
QU
Lou
auc
▁BR
Rose
Russ
math
▁Bul
▁Gel
▁ine
backs
icals
oline
▁Brid
▁Game
▁Knox
▁Kurt
▁Pack
▁fees
▁heap
inical
raints
script
seller
▁Banks
▁Bucky
▁bases
▁lamps
▁leapt
▁Marcia
▁Motion
▁Sebast
▁climax
▁mildly
▁nipple
▁prover
▁serial
▁spared
▁winked
▁wiping
orically
▁Indiana
▁Stanton
▁killers
▁margins
▁reminis
▁shepher
▁Accessed
▁detached
▁fiercely
▁forgiven
▁lifelong
▁sciences
▁squinted
▁plausible
▁adventures
▁constitute
▁dispatched
▁exhaustion
▁negotiating
▁perspectives
KE
Ang
ILD
Cent
ENTS
King
Open
dale
iege
itis
prem
root
talk
ulum
zona
▁Gem
▁woo
Early
floor
▁Nine
▁Quin
▁Scen
▁ruth
▁tens
ingled
intell
▁Tools
▁monot
▁opera
▁overr
Science
William
ousseau
present
purpose
rolling
▁Ancest
▁Anyone
▁Babies
▁Beldin
▁Jenner
▁Tehran
▁Warner
▁advise
▁ducked
▁halluc
▁overst
▁wholly
isconsin
▁angrily
▁horrors
▁marking
▁rattled
▁sharpen
▁spatial
hetically
▁Courtney
▁download
▁famously
▁offended
▁refusing
▁template
▁abundance
▁avoidance
▁distorted
▁seventies
▁violation
▁Conference
▁Technology
▁adjustment
▁developers
▁politician
▁recognizes
▁perceptions
▁intersection
oz
gov
mod
pdf
▁Tu
Conf
Jean
bour
odka
oven
roke
ushi
▁Cop
▁NFP
▁Tab
risis
ships
▁Gray
▁Must
▁Summ
▁Walt
▁agon
▁aims
▁bord
▁nort
▁pith
▁skip
▁thie
Friend
ivable
ooping
oustic
romagn
▁Errol
▁finan
▁glaze
respons
▁Polish
▁Ronald
▁blades
▁charts
▁dipped
▁marker
▁runway
▁subord
▁apology
▁bending
asionally
▁Presence
▁Regiment
▁Tecumseh
▁blinking
▁cochlear
▁drifting
▁jealousy
▁minority
▁portions
▁suppress
▁tangible
▁temporal
▁Johannine
▁Wentworth
▁dissolved
▁neglected
▁obstacles
▁painfully
▁pineapple
▁platforms
▁populated
▁portraits
▁Throughout
▁detectives
▁formidable
▁consciously
▁Organization
Dig
Val
Vis
agg
ibi
▁PD
▁PE
ardi
eles
iddy
onia
rans
rium
uned
▁Gle
▁Ltd
Almon
Islam
▁Grou
▁crap
▁slit
Social
gender
ilings
izzard
▁paran
▁thief
▁verge
aterial
ativity
▁Dennis
▁Passos
▁iPhone
▁orphan
▁shouts
▁warmed
▁Jieling
▁Whereas
▁breaths
▁desktop
▁legitim
▁notably
▁quantum
▁conveyed
▁designer
▁enclosed
▁keyframe
▁uncommon
▁Starbucks
▁advancing
▁replacing
▁bitterness
▁capacities
▁exceptions
▁reinforced
▁complaining
▁definitions
▁probability
▁respectable
▁accompanying
cknowledgments
BT
sw
Men
Say
cat
las
vil
wyn
zzy
▁BL
▁ot
boat
cipl
deal
roid
▁Alb
▁Dew
▁Log
▁Sad
▁dot
▁tut
Start
ctors
heres
idity
ooked
quila
▁Race
▁budd
▁buds
▁fren
▁hamm
▁lett
Commun
levard
ocated
▁Fives
▁blink
▁gangs
▁lakes
▁minus
▁myths
▁steak
Malcolm
October
istical
onomous
otional
▁Integr
▁Seeing
▁analys
▁harass
▁petals
▁whales
ceptible
▁broadly
▁chasing
▁plucked
▁serpent
▁sobbing
▁Chertkov
▁hesitate
▁admission
▁customary
▁miniature
▁monstrous
▁Arcticness
▁accordance
▁extraction
▁overlooked
▁procession
▁consistency
▁prosecution
▁specialized
▁improvements
▁performances
▁demonstration
Du
Gus
bot
ecd
exp
Mike
Turn
avia
crew
dest
into
▁Ord
▁hut
Pests
exper
icott
opian
▁Olga
▁Pike
▁Sons
▁Wait
▁foam
▁quad
itutes
keness
letter
▁MacLe
▁Niger
▁Vidal
▁Wales
▁enact
▁wired
respect
▁Riders
▁Rudolf
▁Tamsin
▁chewed
▁curves
▁dispar
▁fuckin
▁intrud
▁motive
▁overse
▁plural
▁scraps
▁truths
▁Quintus
▁easiest
▁mumbled
▁painter
▁pillows
▁reperto
▁secrecy
▁sniffed
▁squares
▁surrend
▁testify
▁tongues
addington
cientific
represent
▁Tracking
▁crumpled
▁paradise
▁protests
▁incapable
▁precision
▁shivering
▁Versailles
▁biographer
▁objections
▁parliament
▁plantation
Beaumarchais
▁speculation
▁technically
▁continuously
▁questionable
▁professionals
SI
Jac
aiy
dam
eta
▁AB
inqu
iped
prot
stri
▁Cat
▁Kra
▁Mab
▁pup
elect
henia
shire
wartz
▁Bess
▁Saul
▁dazz
▁dose
▁recy
▁Angar
▁Downs
▁messy
▁ropes
ignific
istrate
olitics
reating
▁Prison
▁cables
▁copied
▁orgasm
▁resort
▁tomato
▁viable
cultural
▁analyze
▁preview
▁propose
▁Nazareth
▁Services
▁evenings
▁likewise
▁passport
▁situated
▁composted
▁hierarchy
▁ministers
▁poisonous
▁projected
▁reservoir
▁Hemingways
▁attendance
▁casualties
▁ceremonies
▁purchasing
▁accommodate
▁fashionable
▁Intellectual
▁digitization
Ha
Us
COM
IEW
Reg
Six
Sur
▁Mu
abol
beit
edra
half
ilah
▁DFC
▁Run
▁nob
▁rip
Jimmy
Linda
Young
amine
eemed
erred
▁Fill
▁Made
▁Ryan
▁ethn
▁indo
▁tant
Better
ermont
iances
▁Beaut
▁Board
▁Domin
▁Psalm
▁anecd
▁morph
▁sworn
▁vocal
BUCKLEY
entials
history
ifiable
leading
ucumber
usually
▁Kamion
▁cement
▁routes
▁screws
▁traded
▁clasped
▁congrat
▁consume
▁erupted
▁flights
▁literal
▁refuses
▁Ancestry
▁certific
▁fountain
▁syndrome
▁treacher
▁weekends
▁affecting
▁irregular
▁spectacle
▁courthouse
olaryngology
▁discovering
▁mentalizing
▁disappearing
▁faithfulness
▁psychologist
▁effectiveness
▁considerations
Pa
si
ACE
AGE
Dis
End
Eng
ffe
uma
voc
▁WE
arah
disc
flow
gran
leen
rais
udda
▁Mix
▁Yor
▁mol
▁piv
▁sow
ector
garon
▁ISBN
▁cues
▁hagg
Randal
erting
hesive
wright
▁Derek
▁imply
▁perch
▁scorn
▁stomp
▁vodka
Neither
clusive
induced
keeping
▁Fields
▁Jungle
▁Madrid
▁Phoebe
▁Twelve
▁autism
▁bricks
▁knives
▁packet
▁skirts
iability
▁Against
▁Lamarck
▁conspic
▁forearm
▁massage
▁sincere
▁textual
▁uncover
▁Mathemat
▁adoption
▁annoying
▁develops
▁embodied
▁heavenly
▁requests
▁shipping
▁tensions
▁Darklands
▁Different
▁graduated
▁intrigued
▁phenotype
Christopher
▁Correspond
▁Dictionary
▁disgusting
▁reasonably
▁indifferent
▁programming
BM
DP
Rob
VEN
cal
fed
▁EC
▁Py
▁RO
Adam
Arch
Supp
Writ
acey
ande
horn
mile
▁Abs
▁Cro
▁Hem
▁blo
▁bun
▁rag
Liber
aiyue
ocaly
▁Ging
▁Maur
▁Stay
▁bunk
▁deme
▁hash
▁sunk
sonian
▁Proud
▁conve
▁ethic
▁guild
▁negro
▁shack
▁wanna
Exactly
atorial
inement
▁Copper
▁Slowly
▁Truman
▁battal
▁proves
▁sugars
▁valued
November
▁Numbers
▁dislike
▁epistle
▁lantern
▁lineage
▁needing
▁oracles
▁tunnels
▁verdict
▁Critical
▁observes
▁peripher
▁resemble
▁wrapping
▁estimates
dimensional
▁adolescent
▁insistence
▁celebrating
▁hospitality
▁persecution
▁surrendered
▁volunteered
▁preparations
bad
god
ims
omi
▁LE
▁PC
amas
iffs
oser
oter
rape
▁Cru
▁Inv
▁Kay
▁Rou
▁Sah
▁Sep
▁Syl
▁raz
Colin
Paris
Times
Watch
adays
odies
techn
▁Myth
▁Sart
Fitger
Oxford
luence
▁Anwar
▁Krist
▁groan
▁intol
▁pussy
arrison
quality
raising
▁Johnny
▁depict
▁rebels
▁scrape
▁shroud
▁snakes
▁unsure
▁Coulter
▁appeals
▁defines
▁drawers
▁longest
▁shipped
▁tourist
▁Memorial
▁Miracles
▁bouncing
▁currents
▁excluded
▁petition
▁protocol
▁twilight
▁Frankfurt
▁Wisconsin
▁contacted
▁inability
▁molecular
▁announcing
▁comfortably
▁corresponds
▁recognizing
▁reflections
▁calculations
Min
afe
hil
sin
▁OT
Page
aith
hart
isch
owen
rene
▁...
▁Rid
Grand
igion
women
▁Lost
▁lace
▁rans
▁tile
▁todd
uminum
▁False
▁Jenna
▁Sinai
▁Tunis
▁fract
▁jumps
▁lifts
▁trigg
▁trump
▁Dolley
▁Greeks
▁ashore
▁bolted
▁genres
▁hearth
▁relied
▁sweaty
▁thumbn
rophenia
▁Buffalo
▁Gilbert
▁bargain
▁blazing
▁blurred
▁butcher
▁lengthy
▁patches
▁proudly
▁alphabet
▁biscuits
▁boarding
▁bursting
▁destined
▁founding
▁idolatry
▁mustache
Eventually
▁Architect
▁combining
▁satellite
▁submission
▁suppressed
▁adjustments
▁anniversary
▁calculation
▁crucifixion
Ext
Has
arf
avi
nex
▁Fu
▁uh
emer
file
hrop
llor
miah
mmet
offs
▁Eye
▁Poo
▁cad
▁cue
▁fox
Given
balls
iably
roads
▁Glad
▁Robb
▁Sold
▁bass
▁bicy
▁hort
▁lugg
arians
direct
jected
lantic
ulsive
▁Clare
▁Fifth
▁Hotch
▁Incre
▁clich
▁niche
▁pragm
▁risky
▁sturd
▁taped
▁worsh
nothing
▁Across
▁Survey
▁Turner
▁Vyalov
▁digest
▁lenses
▁picnic
▁quakes
▁ribbon
▁throws
▁tipped
▁Belgium
▁Popular
▁Protest
▁boarded
▁coughed
▁credits
▁ferment
▁goddamn
▁luggage
▁strings
▁surgeon
▁watches
▁Thinking
▁knuckles
▁likeness
▁momentum
▁respects
▁scanning
▁tropical
▁intrinsic
▁magnitude
▁monastery
▁multitude
▁releasing
▁Marcelline
▁fellowship
▁manipulate
▁systematic
▁adaptations
SO
cs
Imag
efin
folk
icip
inea
ruly
sole
▁Fat
▁HMS
▁Sum
▁axe
▁bum
▁ost
olyne
▁Andy
▁Juan
▁Prei
▁Stru
▁carb
▁moss
ometer
worthy
▁Based
▁Misty
▁Urban
▁Welch
▁ninth
▁sandy
▁weeds
Welcome
levance
▁Bishop
▁Gelane
▁Jimmie
▁Raines
▁agrees
▁arises
▁rotten
▁chewing
▁flashes
▁Analysis
▁Gargaron
▁decisive
▁duration
▁harmless
▁hovering
▁intercom
▁overview
▁skeleton
▁veterans
▁criminals
▁directors
▁electoral
▁flickered
▁heartbeat
▁modernity
▁mysteries
▁associates
▁bewildered
▁delivering
▁greenhouse
▁lieutenant
▁occurrence
▁implication
▁impressions
▁methodology
▁momentarily
▁perpetrator
▁astonishment
uy
Det
McC
Ten
aun
div
fat
lan
▁UP
Film
arte
etti
olon
▁Amb
▁Emm
▁dan
▁psy
ecess
named
nered
usage
▁Harb
▁Lamb
▁Mick
▁fuzz
▁omin
▁unin
athing
▁Champ
▁bonus
▁cakes
▁grill
▁monet
▁ranch
▁robes
▁tapes
ographs
▁Karina
▁cooler
▁insuff
▁nostal
▁salmon
▁spokes
▁thesis
▁united
▁Gardner
▁catalog
▁colours
▁consent
▁crooked
▁extends
▁frankly
▁gaining
▁grunted
▁melanch
▁recount
▁talents
▁Austrian
▁Military
▁outdoors
▁proceeds
▁Biography
▁amusement
▁calculate
▁specified
▁strengths
▁definitive
▁mathematic
▁originated
▁underwater
HS
Ir
Aye
Jos
ché
dog
▁Od
▁RC
▁SC
July
Poor
Stay
asts
food
lite
mont
must
phys
tech
ults
ylan
zzle
▁Dal
▁hen
▁yer
ostya
pound
rable
uties
▁Mack
▁Stir
▁Ther
▁ache
▁bees
▁fret
▁jerk
▁owns
▁vols
abbath
ricane
▁Adobe
▁Daran
▁Isern
▁Kenny
▁Maine
▁Wells
▁clubs
▁hatch
▁overd
▁pipes
▁poked
▁popul
▁resid
▁slack
African
▁Advert
▁Hoover
▁Madame
▁chapel
▁magnet
▁skelet
▁unsett
▁Knowing
▁Mission
▁clapped
▁guiding
▁habitat
quisition
▁Katerina
▁Marianne
▁backseat
▁congress
▁conquest
▁drowning
▁imposing
▁maturity
▁underest
▁Trevelyan
▁achieving
▁civilized
▁empirical
▁exclusion
▁heritable
▁integrate
▁valuation
▁cautiously
▁intriguing
▁persuasive
▁rectangular
▁confidential
▁conservation
▁classification
HI
Sir
Sit
cam
him
oup
▁Na
dead
evna
help
home
ousy
▁Ark
▁CIA
▁Enh
▁Lor
▁Meh
▁Tro
▁owl
Julie
atics
ochka
otsky
smith
yllis
▁Body
▁Caut
▁Suff
▁Vien
▁aven
▁brim
▁disd
▁garn
▁guer
▁narc
▁plac
Tarzan
arding
cartes
irting
▁Arabs
▁Chart
▁Knopf
▁artif
▁cinem
▁fills
▁ingen
▁irres
▁rites
▁torso
inished
ovochka
▁Deuter
▁analog
▁compat
▁edible
▁glossy
▁hunter
▁induce
▁interl
▁potent
▁unbear
▁masking
▁Appalach
▁Settings
▁ceilings
▁constitu
▁escorted
▁pathetic
▁releases
▁remnants
▁softened
▁assertion
▁curiously
▁defenders
▁nutrition
▁predecess
▁requiring
▁theorists
▁Depression
▁consulting
▁domination
▁profoundly
▁staggering
▁Pentecostal
▁exaggerated
Unfortunately
▁combinations
!"_
,'"
Aut
Jud
dad
▁Ki
▁Pa
▁Ye
Down
High
Ruby
bean
holt
iffe
igma
▁ARE
▁Ana
▁Kon
▁Nep
agiig
esium
liers
opath
▁Decl
▁Fund
▁Help
▁Jour
▁Shap
▁Upon
▁Vlad
▁curl
▁dile
▁pend
enheim
wealth
▁Elder
▁fetch
▁flirt
▁hairy
▁hardy
inburgh
▁Divine
▁Walker
▁antiqu
▁decomp
▁discou
▁herbal
▁invade
▁lively
▁occult
▁Teacher
▁creator
▁disconn
▁roaring
▁screwed
▁tracked
ocalyptic
▁cupboard
▁formally
▁proclaim
▁simplest
▁unwanted
adrophenia
▁Armstrong
▁lingering
▁marriages
▁objection
▁promoting
▁beginnings
▁comparable
▁delegation
▁designated
▁encourages
▁distraction
▁fingernails
▁ActionScript
▁unexpectedly
Dar
Del
Isa
bul
igi
mus
▁Bf
▁GR
▁SA
audi
coun
ouri
rana
viks
▁Els
▁Fem
▁PhD
▁omn
redit
until
▁Beau
▁Cape
▁Dien
▁Kate
▁Mend
▁bang
▁chew
▁chop
▁pony
growth
igible
ischer
▁Cream
▁Might
▁Perse
▁Siber
▁noisy
▁poles
▁posit
▁rally
▁seams
▁subdu
Collins
omegran
▁Gloria
▁cooled
▁cycles
▁exting
▁fisher
▁glowed
▁hanged
▁sipped
▁tricky
▁Edition
▁custody
▁unclean
▁asserted
▁autonomy
▁disliked
▁disputes
▁gripping
▁intently
▁outright
▁republic
▁retrieve
▁tortured
▁diligence
▁musicians
▁sparkling
▁synagogue
▁teenagers
▁translate
▁unnatural
▁Pittsburgh
▁PowerPoint
▁dependence
▁discourses
▁prevalence
▁provisions
▁declaration
▁neighboring
▁Additionally
▁illustration
▁metaphysical
▁intentionally
▁Reconstruction
'?"
Bro
Mag
ags
owe
pha
▁.'
▁—"
Evan
Kath
ktop
moon
onyn
▁Rez
▁Typ
▁gin
▁pam
isine
isure
makes
vered
▁Chan
▁Crus
▁Lion
▁clan
▁tilt
abling
charge
iantly
inalis
ospels
▁Jamie
▁Lives
▁Movie
▁Sandy
▁Tracy
▁Zedar
▁caval
▁rider
culture
▁Minist
▁Mobile
▁Reader
▁Santer
▁extrav
▁hiring
▁intric
▁monkey
▁rocked
▁sparks
▁spices
▁uneven
itations
▁Country
▁Ezekiel
▁Program
▁Ruddick
▁Saagiig
▁Strange
▁baptism
▁hideous
▁portfol
▁reacted
▁simpler
connected
▁earnings
▁exterior
▁homework
▁miracles
▁populate
▁Icelandic
▁gauntlets
▁insisting
▁intervals
▁irritated
▁paperwork
▁perimeter
▁physicist
▁breathless
▁microphone
▁negotiated
▁meaningless
▁Consequently
▁commentators
▁thoughtfully
OB
ASE
Abs
Huh
Inc
Ret
Sub
Tri
rik
▁BY
▁_[
Fort
Marl
iell
plan
umsy
▁BMA
▁MAR
▁cyl
▁luc
Henry
allic
anium
ierra
▁Herm
▁Pete
▁abdu
▁cans
▁riot
▁trig
issors
soever
▁Basic
▁Bryan
▁Vicky
▁bleak
▁ineff
▁penis
▁peril
▁slips
▁snack
Profess
▁Ashley
▁Denver
▁Kongzi
▁Screen
▁Turkey
▁cocked
▁grated
▁kosher
▁liking
▁scored
▁subsid
▁unreal
▁volcan
▁Destroy
▁Reports
▁Writers
▁antique
▁cocaine
▁decides
▁multipl
▁overlap
▁penalty
▁solving
▁symptom
▁zombies
ineteenth
▁Africans
▁Imperial
▁Queequeg
▁cheering
▁commerce
▁communal
▁gracious
▁grounded
▁morality
▁trembled
controlled
▁alternate
▁bothering
▁commodity
▁compounds
▁diagnosed
▁masculine
▁triggered
▁Andreyevna
▁Convention
▁distinctly
▁identities
▁mentioning
▁presidency
▁prosperity
▁radicalism
▁separately
▁indifference
▁psychiatrist
▁assassination
▁fundamentally
zm
Jer
fig
ozy
weg
▁Ry
▁Ve
Jose
cury
hall
ideo
ohyd
upon
▁Bee
▁Rat
▁sly
Queen
astre
ettes
heads
▁Ages
▁Cart
▁Gods
▁Judy
▁Lily
▁beak
▁eyed
▁pige
▁turb
▁vacc
agonal
inates
itzvah
rising
▁Antio
▁Corps
▁Ellen
▁Herod
▁Stock
▁bould
▁decay
▁eloqu
▁folds
▁haunt
▁hello
▁loops
▁pools
▁spies
▁stray
▁wield
avanese
ivities
▁Bernie
▁Brooks
▁Dollar
▁Havana
▁behold
▁dagger
▁erotic
▁impose
▁vulgar
colonial
emporary
speaking
▁Clement
▁McAlmon
▁angelic
▁banking
▁motions
▁utility
▁advances
▁pleading
▁reciproc
▁suspects
▁annoyance
▁attorneys
▁attribute
▁blackmail
▁blackness
▁disguised
▁exquisite
▁geometric
▁indicator
▁completing
▁guaranteed
▁inadequate
▁optimistic
▁thereafter
▁Corinthians
▁articulated
▁inappropriate
▁psychologists
Cr
AVE
eye
uli
▁PL
Aren
Much
abyr
kill
osph
▁Ple
Makes
brevi
grand
pired
views
▁Brig
▁Glen
▁Spot
▁Stri
▁lick
▁salv
▁seaf
▁vind
United
course
covery
▁Grove
▁Hegel
▁Radio
▁Yorub
▁bliss
▁curly
▁icons
▁mourn
▁parks
telling
▁Alaska
▁Quincy
▁Recent
▁Rodney
▁Shadow
▁evolve
▁fixing
▁incent
▁tribal
▁Process
▁cartoon
▁eyelids
▁gasping
▁mustard
▁pounded
▁preheat
▁realism
▁snarled
▁stamped
▁torment
Nathaniel
▁Appendix
▁Colonial
▁Creating
▁aluminum
▁cellular
▁hardened
▁minimize
▁mornings
▁nonhuman
▁nostrils
▁shuffled
▁wretched
gressional
▁anxiously
▁discusses
▁microwave
▁pleasures
▁victories
▁welcoming
▁apartments
▁glittering
▁Littlefield
▁chromosomes
▁destructive
▁Enlightenment
▁congressional
▁recommendations
su
ASS
Ami
Cle
owa
Papa
boff
elli
fact
film
orde
▁Sty
Light
names
ricks
ulfur
▁RAAF
▁flak
▁pitc
▁zeal
Sesame
inkles
▁Eugen
▁Floyd
▁Matth
▁Schne
▁chunk
▁cocon
▁disob
▁peach
▁whore
▁zones
Western
ersonal
ingling
stained
▁Darson
▁Eugene
▁Notice
▁Tamara
▁blouse
▁chiles
▁honour
▁intake
▁prints
▁roller
▁simmer
▁singer
▁trails
economic
lections
▁Creator
▁alarmed
▁hunched
▁removal
▁surreal
▁tighter
▁traject
▁uttered
astreboff
▁anchored
▁collider
▁guardian
▁lingered
▁mainland
▁mortgage
▁observer
▁steaming
▁Indonesia
▁Sebastian
▁featuring
▁remainder
▁sanctuary
▁therapist
▁caregivers
▁diminished
▁expressive
▁innovative
▁monitoring
▁Minneapolis
▁outstanding
▁preoccupied
▁corporations
▁subjectivity
GS
PE
Ass
DNA
NOT
ahr
gam
mid
mma
typ
▁SW
obic
path
▁Eva
▁Fab
▁coo
hadra
these
▁FROM
▁Kant
▁Stat
▁baff
▁stif
▁tran
▁wins
Arthur
Miller
uffles
▁Apart
▁Michi
▁Model
▁Yaweh
▁amino
▁comed
▁insec
▁maple
▁stink
▁Sancho
▁Sister
▁Watson
▁allele
▁evapor
▁indisp
▁prelim
▁regain
▁scales
▁unions
▁wolves
Anything
▁Desktop
▁Friends
▁Kittles
▁Sanders
▁conquer
▁cramped
▁dormant
▁folders
▁glaring
▁lettuce
▁monthly
▁Evidence
▁Schwartz
▁coughing
▁crushing
▁farewell
▁imminent
▁incompet
▁pastoral
▁terminal
▁accidents
▁bourgeois
▁breakdown
▁declaring
▁favorable
▁meanwhile
▁stretches
▁vibration
▁communists
▁culturally
▁disability
▁accelerator
▁electromagn
▁officinalis
▁projections
▁requirement
▁concentrating
▁transportation
▁]
IND
cir
enz
iov
osc
yen
▁eh
olar
onge
unti
▁Amy
▁Gam
▁Hey
▁err
Small
abbed
adium
ocado
overe
watch
▁Bomb
▁Burr
▁Dana
▁Hero
▁Riva
▁dent
▁glor
▁raft
▁syll
▁taco
▁tart
▁unle
former
oyalty
rality
▁Forty
▁cargo
▁cease
▁werew
Whether
nthesis
ocument
▁Rosten
▁arched
▁bursts
▁dancer
▁jammed
▁learns
▁magick
▁moaned
▁naught
▁purity
▁racist
▁spiral
▁wholes
abyrinth
avenport
daughter
▁Arizona
▁bridges
▁exploit
▁indoors
▁passive
▁prefers
▁statues
▁bullying
▁flourish
▁formulas
▁headline
▁journals
▁necklace
▁Relations
▁consulted
▁cultivate
▁furiously
▁oblivious
▁outsiders
▁articulate
▁governance
▁irrational
▁skepticism
▁structured
▁suspicions
▁discoveries
▁expenditure
▁overlooking
▁predictable
▁interference
Jo
ANG
anz
gus
pad
sea
try
▁?"
Nick
Post
Were
amic
awha
engl
oise
uber
uese
▁Emb
▁LEP
▁Nad
▁WOR
▁Wis
bones
▁Dear
▁Fish
▁Mang
▁Said
Connor
accept
redict
▁Level
▁admin
▁coven
▁muddy
▁paces
Lindsay
fitting
idently
oughton
▁Safari
▁Sambor
▁atomic
▁canopy
▁clicks
▁errand
▁labels
▁murmur
▁peanut
▁puppet
▁segreg
▁shovel
▁sturdy
▁videos
▁Machine
▁Requiem
▁bubbles
▁buzzing
▁choking
▁exclude
▁martial
▁pyramid
▁scraped
September
▁Biblical
▁Gentiles
▁Infantry
▁Jeremiah
▁Purchase
▁awakened
▁climates
▁clusters
▁employer
▁monument
▁operates
▁preacher
▁propriet
▁sinister
▁sprinkle
▁Available
▁aftermath
▁ancestral
▁incidents
▁resembles
▁continuity
▁Smithsonian
▁resignation
▁entertaining
▁instinctively
BR
gi
kk
ANS
Ham
Mem
Mic
azi
emn
kor
mph
nom
▁CL
cuts
dark
fsta
iami
leys
seed
▁MIT
▁ONE
▁Sox
▁sid
Water
ician
ivist
olate
▁Brah
▁CEOs
▁Feed
▁Joel
▁Rein
▁flaw
▁mute
▁subl
ancers
estone
▁Allow
▁Chere
▁Swiss
▁blush
▁burnt
▁chees
▁hairs
▁petty
▁pouch
▁vowed
January
icester
uations
whether
▁Adorno
▁Curtis
▁grower
▁housed
▁kettle
▁plaint
▁sativa
fstaengl
▁Ontrose
▁adviser
▁aligned
▁anomaly
▁lengths
▁perplex
▁reduces
▁tribute
▁tumbled
▁updated
important
▁Personal
▁agitated
▁damaging
▁exposing
▁mentions
▁obstacle
▁rattling
vernacular
▁parachute
▁viewpoint
▁Communists
▁belongings
▁contingent
▁generosity
▁repertoire
▁whatsoever
▁businessman
▁frantically
▁frustrating
▁genetically
▁introducing
▁proceedings
▁remarketing
▁photographers
▁recommendation
'_
Ay
Sn
Bob
Boy
Hmm
lag
lar
uhr
Mart
Toby
utic
▁Gor
▁Kel
▁Sau
▁Sof
▁USB
▁Von
▁neo
▁ont
▁vow
Among
Seven
Until
asily
ceans
isans
ische
zanne
▁Area
▁Base
▁Fear
▁Mars
▁Nord
▁cone
▁deed
▁dele
▁epit
▁powd
illips
imated
ogenic
piring
urated
▁Bogie
▁Final
▁Rabbi
▁Wheel
▁Wolfe
▁lease
▁peaks
▁prest
▁tread
ocative
versely
▁Cronyn
▁Funnel
▁Listen
▁Ruston
▁aliens
▁bathed
▁clumsy
▁darted
▁demise
▁disadv
▁eschat
▁treats
▁yanked
Melville
onderful
▁Ancient
▁Defense
▁binding
▁caramel
▁cruelty
▁leisure
▁monarch
▁ranging
▁thieves
▁wheeled
izational
political
▁Administ
▁abnormal
▁arrogant
▁backdrop
▁chickens
▁nickname
▁swirling
▁unemploy
omegranate
▁Callicott
▁Narrative
▁Orthodoxy
▁intuition
▁mortality
▁penetrate
▁squeezing
▁subjected
▁trademark
▁Bolsheviks
▁Carmichael
▁authorized
▁concluding
▁hereditary
▁households
▁scratching
Quadrophenia
▁Corporation
▁superiority
▁availability
▁individually
OSE
OST
Set
Wow
big
mag
▁PA
ablo
chak
gets
uche
ynch
▁Hit
▁Lib
▁Oil
▁dye
▁lyr
count
cream
erius
icker
ipper
izens
mares
rophe
table
▁Benn
▁Born
▁Soci
▁harp
▁scur
▁undo
Making
Twenty
uction
▁Birth
▁Carib
▁Craig
▁Ender
▁Money
▁awoke
powered
versive
▁Durant
▁Ethics
▁dashed
▁hauled
▁invari
▁mentor
▁meters
▁midday
▁pardon
▁thumbs
▁towers
▁weaker
▁Biology
▁awfully
▁bathing
▁bidding
▁coastal
▁fumbled
▁pillars
▁revival
▁Javanese
▁Schuster
▁childish
▁cracking
▁eventual
▁grandson
▁landlord
▁loudness
▁orthodox
▁outsider
▁spilling
▁trailing
▁vigorous
▁Liverpool
▁acquiring
▁corrected
▁directing
▁intercept
▁magnesium
▁pageviews
▁promotion
▁reverence
▁buttermilk
▁foreigners
▁introduces
▁collections
▁comparative
▁correlation
▁incarnation
▁medications
▁exploitation
▁Correspondence
▁administrative
Sw
yt
▁é
Nah
hai
ovo
▁MY
▁vv
Stud
amer
eway
▁Laf
▁vie
amper
ascal
bread
ccoli
lived
orthy
oters
uddle
▁Appl
▁Nice
▁Rach
▁bart
▁glee
▁lent
anners
iander
naires
ouring
volent
▁Avoid
▁Drive
▁Kampf
▁Randy
▁abdom
▁chess
▁creek
▁ditch
▁dizzy
▁dunge
▁fangs
▁irrig
▁raven
▁worms
inently
isphere
thought
▁Altman
▁Asrana
▁Dobson
▁Images
▁Kostya
▁Rodrig
▁Travel
▁Yorker
▁grotes
▁hoarse
▁liable
▁merger
▁sights
▁streak
enheimer
▁Anthrop
▁Bolshev
▁Denmark
▁Measure
▁auction
▁gradual
▁handles
▁lurking
▁mocking
▁natives
▁nucleus
▁relieve
▁sensory
▁Cannabis
▁Rousseau
▁failures
▁foremost
▁fragrant
▁invading
▁mounting
▁optimism
▁peasants
▁unsalted
▁wardrobe
▁Macmillan
▁occupying
▁persisted
▁surprises
▁Industrial
▁consisting
▁imperative
▁imprisoned
▁refreshing
▁simplicity
▁statistics
▁psychiatric
▁territories
▁personalities
Dec
Ele
Mal
omn
sac
Help
Home
Wood
feed
mitt
stop
▁Bug
▁Few
▁sod
April
atern
cedes
earth
garde
rigan
▁Cool
▁Finc
▁Fine
▁Ping
▁RCAF
▁Tori
▁auto
▁brad
▁heed
▁maze
▁shim
▁vein
Things
atical
igraph
inberg
istine
olling
seeing
▁Apoll
▁Scale
▁Sorry
▁condo
▁dairy
▁login
▁raids
▁rumor
▁shaky
▁soils
Library
ilantro
limited
ositive
▁dismay
▁grades
▁grapes
▁improv
▁thrive
probably
ublished
▁Catalog
▁Eternal
▁Private
▁amusing
▁barrels
▁clearer
▁ecology
▁filming
▁pitched
▁rightly
▁steamed
gradation
▁detected
▁grinding
▁kneeling
▁password
▁rewarded
▁towering
▁youthful
▁Audiology
▁Greenwich
▁Holocaust
▁Resources
▁Zerbrowski
▁fraudulent
▁vegetative
▁Hanfstaengl
▁departments
▁conservatism
▁collaboration
Es
Id
ACT
Der
Hon
Lee
▁Pu
▁ou
Face
Star
este
otta
tuch
▁Eat
▁Ida
▁Own
▁Tyr
▁bio
▁ree
▁tug
Short
block
ensen
ouver
▁atom
▁chau
▁radi
▁toll
tuchik
▁Ephes
▁Kazin
▁Oscar
▁Storm
▁Upper
▁knead
▁ornam
▁overc
▁roast
▁stout
▁waits
Getting
alfield
anguard
ronting
▁barbec
▁barked
▁frying
▁gloomy
▁heaved
▁poised
▁poking
▁sewing
▁spouse
ogeneous
timately
▁Cautery
▁Cleaver
▁Kanawha
▁Section
▁cooling
▁cuisine
▁diagram
▁honesty
▁newborn
▁spreads
▁stabbed
▁thirsty
itzerland
▁Greenlaw
▁graceful
▁panicked
▁smoothie
▁snapping
▁wildlife
▁Decisions
▁Descartes
▁Leicester
▁awkwardly
▁backwards
▁immigrant
▁placement
▁portfolio
▁presently
▁prevalent
▁scholarly
▁traumatic
▁Icelanders
▁electorate
▁ingredient
▁undertaken
▁worthwhile
▁partnership
▁clickthrough
▁complementary
IRE
Mur
cur
hoe
Cult
itas
mons
opic
ruff
weed
▁Cer
▁Raj
▁mit
Eddie
brush
feiff
flies
ounge
▁Shit
▁Vamp
▁babe
▁bony
▁bugs
▁cabb
▁muff
▁pigs
▁tidy
▁toug
Latino
icians
utives
▁Sigur
▁cling
▁niece
▁outst
Outside
ilizing
▁Events
▁Garcia
▁braced
▁hopped
▁libert
▁shrimp
giveness
▁Heinkel
▁Jacques
▁Running
▁Sabbath
▁apprent
▁aroused
▁balloon
▁bruised
▁coconut
▁dresser
▁ghostly
▁hovered
▁impacts
▁refined
Professor
▁inconven
▁insanity
▁inserted
▁reversed
▁strolled
▁tolerate
▁disgusted
▁disintegr
▁muttering
▁mythology
▁pronounce
▁relevance
▁stationed
▁Portuguese
▁complement
▁documented
▁privileged
▁dysfunction
▁flexibility
▁preliminary
▁susceptible
▁Revolutionary
▁independently
'—
Ak
hl
hm
Haz
OME
ité
oen
▁cm
Phot
Slow
anky
bach
card
helm
▁GDP
▁Hag
agans
allas
brook
degwa
essen
igent
separ
start
▁Bour
▁Edna
▁Ethi
▁Kend
▁Rise
▁aide
▁aura
▁carc
▁crab
▁crow
▁doom
▁flap
▁fres
▁jeep
▁slab
everly
global
insula
veland
▁Darby
▁Faust
▁Smart
▁grind
▁inspe
▁lyric
▁query
▁razor
▁twigs
arewell
enhower
lington
▁Benton
▁Compar
▁Really
▁Summer
▁Vienna
▁addict
▁equity
▁famine
▁offend
▁raging
December
ccentric
changing
▁Yankees
▁crimson
▁cursing
▁explode
▁parsley
▁presses
▁sailing
▁skipper
righteous
▁Davidson
▁Learning
▁Stickney
▁abortion
▁extravag
▁hormones
▁routines
▁Philander
▁decidedly
▁marvelous
▁predators
▁prejudice
▁premature
▁rejecting
▁inspection
▁irritation
▁liberalism
▁preventing
▁retirement
▁vernacular
▁constitutes
▁conventions
▁illuminated
▁manuscripts
'"
Gr
HY
ACC
Lie
NIV
aan
bin
dec
▁dy
avas
itol
▁MAN
▁ale
▁nic
Brown
Cloud
ablon
becca
chemy
elfth
hardt
▁Sche
▁Used
▁anth
▁coil
▁fats
▁idle
▁rupt
▁triv
Golden
moving
ogging
sexual
ynolds
▁Ahmad
▁Algar
▁Dylan
▁Graph
▁Hardy
▁cents
▁merge
▁poses
▁rehab
▁roofs
▁tease
ablonka
▁Cherie
▁delete
▁modify
▁oppose
▁pacing
▁parlor
▁squire
▁unjust
utations
▁Atlanta
▁Collins
▁Express
▁Fiction
▁chooses
▁clipped
▁grammar
▁posters
▁shadowy
▁theatre
▁wasting
▁Brothers
▁Ministry
▁cocktail
▁enslaved
▁flooding
▁outraged
▁pastures
▁shrieked
▁surveyed
▁Goldwater
▁Knowledge
▁amazement
▁streaming
▁temperate
▁anticipate
▁displaying
▁facilitate
▁melancholy
▁profitable
▁weaknesses
▁humiliation
▁incorporate
▁procurement
.-
Er
SF
?"_
ORT
irs
lay
rob
tor
Bull
iage
rien
stud
▁Ear
▁Gun
▁Sod
▁hoo
▁rud
Being
Eight
Helen
omans
raint
rings
uates
ullah
▁Bake
▁Ches
▁Feri
▁Hind
▁Root
▁Vice
▁oils
almost
cipher
▁Arnas
▁Bless
▁Daily
▁Dieng
▁Kunti
▁Macie
▁Silas
▁docks
▁doctr
▁drums
▁edged
▁horns
▁perse
▁plots
ascular
estions
▁Corrie
▁Record
▁falcon
▁iPhoto
▁puffed
▁stacks
▁undead
▁yields
February
▁Asturia
▁Gentile
▁bradass
▁daytime
▁disdain
▁premise
▁shields
▁tossing
▁updates
▁Panthers
▁animated
▁protagon
▁Canadians
▁Cleveland
▁Edinburgh
▁Interview
▁consuming
▁religions
▁troubling
▁auditorium
▁autonomous
▁eliminated
▁executives
▁identifies
▁nightmares
▁unbearable
▁Immediately
▁colonialism
▁compartment
▁grandparents
▁receptionist
PP
jar
▁oy
ABLE
INGS
Less
OUND
Self
Tink
abin
aeda
lona
many
nant
take
urst
▁Ale
▁Coc
▁Ran
▁Rot
▁Var
araoh
arkar
check
clude
inian
reate
unity
▁Dhri
▁Fuck
▁Happ
▁Mild
▁THAT
▁pert
▁pulp
Always
Europe
Google
▁Clean
▁Crane
▁Sudan
▁postp
▁spicy
▁stere
endment
quitoes
taining
▁Milton
▁clones
▁dialed
▁feeble
▁flared
▁pestic
▁rabbit
▁stakes
▁taping
▁vanity
▁warmer
cedented
cycloped
▁Concept
▁Extreme
▁Heights
▁Holland
▁Killane
▁Liberia
▁Seattle
▁cafeter
▁inmates
▁plainly
▁tequila
▁terrace
▁trivial
criptions
ographers
▁Marriage
▁airtight
▁deployed
▁lectures
▁preceded
▁refugees
▁rotation
▁uprising
identified
▁Henderson
▁ambiguous
▁districts
▁grotesque
▁processed
▁stressful
▁thickness
▁evaluation
▁infectious
▁modernists
▁specialist
▁Switzerland
▁cosmopolitan
IZ
Um
IAL
UTH
awl
bia
ede
tub
▁QU
True
abby
full
oway
urol
▁Ban
▁Fei
▁Gut
▁gag
Larry
chool
estly
ijing
liber
▁Apes
▁Arms
▁Gran
▁Salm
▁Virt
▁dome
▁drib
▁gren
▁hack
▁lest
▁smug
Sounds
Spring
angles
atized
celona
lasses
retion
▁Luftw
▁Molly
▁Tears
▁eagle
▁gleam
▁glist
▁https
▁oiled
▁onset
▁typed
minster
▁Baiyue
▁Harbor
▁Nicola
▁breads
▁futile
▁hotels
▁incumb
▁stench
▁sullen
arvation
marriage
untarily
▁Flowers
▁Hearing
▁cheaper
▁emptied
▁glitter
▁gunners
▁invoked
▁lateral
▁loading
▁pleaded
▁ratings
▁replies
pretation
▁Enhanced
▁Genetics
▁Italians
▁Specific
▁appealed
▁chatting
▁definite
▁deputies
▁figuring
▁provoked
▁slippery
▁thankful
▁umbrella
▁Schneider
▁Valentine
▁biography
▁champions
▁chemistry
▁inhabited
▁retrieved
▁sentenced
▁straining
▁undermine
▁agreements
▁compliance
▁generating
▁accusations
▁operational
▁Occasionally
▁assimilation
▁photographic
▁proclamation
FO
LC
ei
ji
sn
Fra
hol
vir
▁Bh
Care
Data
Owen
Vict
cile
game
leaf
unct
▁Las
▁Myr
▁iOS
▁ted
Anita
South
illas
izzie
orked
osaur
shore
since
uning
▁Bond
▁Male
▁aids
▁dove
▁kins
▁monk
▁muse
▁skim
▁sobs
arming
aspora
opping
riving
▁Canal
▁Diary
▁Leone
▁Sleep
▁livel
▁membr
▁rests
▁sighs
▁wires
ividing
oddings
▁Coming
▁Violet
▁banged
▁medial
▁nausea
▁portal
▁storms
▁throng
▁Alexand
▁dynasty
▁foliage
▁premier
▁spelled
sometimes
▁Scotland
▁Vladimir
▁analyses
▁escaping
▁lipstick
▁massacre
▁psychoan
▁smoothed
▁Authority
▁addiction
▁arrogance
▁cafeteria
▁divisions
▁geography
▁intertext
▁recurring
▁routinely
▁stumbling
▁thumbnail
▁Television
▁delightful
▁playwright
▁constraints
▁emphasizing
▁financially
▁plantations
▁reminiscent
▁Independence
▁optimization
▁recognizable
FL
mi
ré
zs
,'_
Bal
leb
oda
ols
uez
▁SS
▁TE
▁rh
Camp
Disc
Show
enda
idly
olks
them
▁Bat
▁Mis
▁peb
▁sew
▁vag
Harry
Night
Rikke
Sarah
agner
birds
cause
eshma
event
illar
inous
itous
rians
urous
▁Anim
▁Grad
▁Hast
▁Hung
▁Joan
▁Term
▁cunt
▁leak
▁liar
▁orch
Unless
driven
outhed
rategy
▁Arawn
▁Seeds
▁Sills
▁Sofya
▁Trade
▁adren
▁afore
▁boson
▁hangs
▁lacks
▁laser
▁rooft
▁siege
▁stung
borough
letcher
▁Nellie
▁Strong
▁cavern
▁disple
▁equals
▁flares
▁plight
▁triple
▁varies
erential
▁Current
▁Gallery
▁Passion
▁Phyllis
▁abbrevi
▁crammed
▁traitor
▁MacLeish
▁McKinsey
▁barracks
▁billions
▁cabinets
▁circling
▁despised
▁portable
▁semester
▁shortcut
▁telegram
▁Caribbean
▁Companies
▁Whitehead
▁collusion
▁marijuana
Proceedings
▁Israelites
▁attendants
▁chromosome
▁disappears
▁flickering
▁fulfilling
▁inequality
▁priorities
▁prophecies
▁relentless
▁sacrificed
▁theatrical
▁thirteenth
▁Deuteronomy
▁extensively
▁terminology
▁apprehension
▁motherfucker
▁outstretched
BE
ICS
Pal
Tre
mat
neg
Nope
PART
Tube
avil
avor
does
hift
▁Cou
▁Eid
▁Gol
▁Kul
▁oct
innie
ocate
ovich
raise
rolin
value
▁Brew
▁Near
▁Phys
▁Vari
▁arse
▁hose
▁mund
Inside
always
estial
▁Enoch
▁Thess
▁bucks
▁flare
▁paced
▁quart
▁scoop
▁smugg
▁squir
Jeffrey
Lincoln
illance
uminous
▁Cowley
▁Crisis
▁Patron
▁Yankee
▁affili
▁aiming
▁builds
▁costly
▁dubbed
▁filmed
▁grease
▁remedy
▁rotate
▁teased
fighting
▁Disease
▁Systems
▁Talmuds
▁applaud
▁benches
▁cynical
▁manages
▁variant
▁Aberowen
▁Agricult
▁Einstein
▁Mercedes
▁briefing
▁brighter
▁detector
▁disposal
▁fortress
▁hillside
▁infamous
▁leverage
▁reserves
▁severity
▁upcoming
▁Luftwaffe
▁Tradition
▁advocated
▁dashboard
▁metaphors
▁pressures
▁suppliers
▁worthless
▁Waddington
▁insignific
▁magistrate
▁persuasion
▁publishers
▁similarity
▁vigorously
▁Publications
▁horticultural
Ref
lif
▁Ay
REAT
Wild
rays
tale
tell
ummy
witz
▁Gay
▁Kin
▁Syd
▁aug
▁bak
▁lak
Clara
othes
ramer
rilla
veled
▁Troy
▁coco
▁foss
▁nude
▁taut
Height
finger
outing
rapped
unless
uspada
▁Josef
▁Poole
▁apron
▁hedge
▁lever
▁poker
▁sushi
▁whirl
Between
enstein
growing
hundred
umbered
▁Conway
▁Employ
▁Engine
▁Mostly
▁Rhudda
▁Sierra
▁Vision
▁albeit
▁evoked
▁metres
▁outset
▁resume
▁spellc
▁splash
▁swayed
▁tavern
▁typing
▁Coalton
▁Vermont
▁behaved
▁blushed
▁grazing
▁pension
▁pricing
▁printer
▁revised
▁roasted
character
ographies
▁barriers
▁connects
▁infantry
▁mermaids
▁reversal
▁Davenport
▁Destroyer
▁adjusting
▁cleansing
▁contempor
▁factories
▁oppressed
▁prolonged
▁recruited
▁retrieval
▁sculpture
▁willingly
▁workplace
▁Petersburg
▁critically
▁heightened
particularly
▁aspirations
▁predictions
▁Thanksgiving
▁prescription
▁demonstrating
je
xx
INK
Rad
..._
Aust
Cong
Live
anse
aris
etin
fair
much
ozyg
prop
▁Abd
▁PRE
▁THR
▁Tob
Alice
blems
doing
falls
ocity
riana
tonor
▁Boys
▁Dust
▁Late
▁SUSA
▁THIS
▁Wend
▁Wing
▁ants
▁bait
▁pren
▁surg
▁tipt
▁tuna
▁unve
enthal
omical
racted
shield
vasive
▁Korea
▁MAKES
▁Petro
▁noses
▁spice
▁troop
▁tubes
ernacle
hemical
▁Masses
▁TWENTY
▁basics
▁gifted
▁greedy
▁handic
▁hurled
▁indoor
▁madman
▁nudged
▁ornate
▁sesame
Interest
gressive
▁Blanche
▁Commons
▁Hundred
▁Israeli
▁Lillian
▁compact
▁flavors
▁indefin
▁licking
▁potting
▁spoiled
▁topping
▁whereby
▁Document
▁Proudfit
▁daydream
▁filtered
▁hierarch
▁limiting
▁mythical
▁realizes
▁Democracy
▁Lyovochka
▁attentive
▁bartender
▁chromatin
▁crumbling
▁governing
▁observers
▁patriarch
▁recounted
▁Eisenhower
▁accidental
▁apologized
▁determines
▁distressed
▁outrageous
▁provincial
▁scriptures
▁adolescents
▁nationalist
▁commissioned
▁documentation
Fre
Ros
asa
gas
upa
News
Nice
juna
▁Rac
▁dre
Jenny
Leave
Movie
audov
boats
quake
quito
ultan
▁Barn
▁Cohn
▁Cree
▁Prep
▁Stev
▁chir
▁heft
▁info
▁nect
▁slot
▁spur
broken
otypic
ppings
report
strate
ulling
▁Congo
▁Crime
▁Diego
▁Fight
▁Hayes
▁Patri
▁Rouge
▁await
▁chlor
▁drone
▁evoke
▁satin
▁scars
▁wells
develop
herence
onement
▁Burial
▁Easter
▁Gibson
▁Humans
▁Simone
▁Willie
▁barbar
▁commem
▁connot
▁fusion
▁impass
▁richer
▁sweats
▁weakly
▁whisky
Children
roducing
▁Bunning
▁Ctuchik
▁Ottonor
▁Success
▁anytime
▁baggage
▁clarify
▁density
▁giggled
▁hardest
▁heights
▁inspire
▁notices
▁perlite
▁realise
▁stating
overnment
▁Angelica
▁chambers
▁charging
▁costumes
▁paranoid
▁relaxing
▁scissors
▁swelling
▁ventured
▁violated
▁Barcelona
▁Cognitive
▁alcoholic
▁automated
▁emptiness
▁labyrinth
▁parallels
▁reassured
▁symbolism
▁descending
▁elementary
▁presidents
▁unfinished
▁adolescence
▁adversaries
▁backgrounds
▁friendships
▁acknowledges
▁authenticity
▁participated
▁appropriately
▁communicating
▁institutional
▁unprecedented
▁discrimination
';
,*
olo
ser
Emma
bals
ccer
hews
inus
neum
sels
▁ALL
▁Bak
▁Bec
▁Cox
▁Daw
▁Dom
▁Efe
Bring
Willi
edong
rsula
▁Izzy
▁Tina
▁calf
▁nond
▁plea
▁solo
▁unav
▁wast
ERVIEW
Unlike
ologne
ustain
▁Chile
▁Laura
▁Mahon
▁Mehdi
▁Occup
▁Prime
▁batch
▁bluff
▁dehyd
▁penny
▁sells
▁spike
▁tacos
▁tours
between
raction
▁Raeder
▁Ronnie
▁Stress
▁Window
▁admits
▁cellar
▁contag
▁cruise
▁eldest
▁emphat
▁forens
▁merged
▁oceans
educated
▁Goldman
▁anatomy
▁blended
▁formats
▁monkeys
▁pitcher
▁popping
▁proving
▁reunion
▁staging
▁tremble
▁watered
▁communic
▁ecstatic
▁fabulous
▁grimaced
▁marginal
▁searches
▁weighing
▁Operation
▁conquered
▁flattened
▁horseback
▁mushrooms
▁policemen
▁resonance
▁stockings
▁decorative
▁researcher
▁standpoint
▁starvation
▁sunglasses
▁housekeeper
LL
PH
Su
VP
Dam
Job
chy
mem
yre
▁Ka
▁eb
▁um
Lady
REAM
arlo
baum
bish
iler
lder
lett
lies
obia
send
▁CAR
▁Lit
▁fry
▁stu
▁wob
▁wry
Place
ocide
sheet
▁Kirk
▁Palm
▁Taur
▁Thor
▁axis
▁blot
▁cove
▁haul
▁haze
▁helm
▁herm
▁hymn
▁rags
living
rophic
unicip
▁Alorn
▁Barth
▁Cloud
▁Primo
▁Share
▁Sulla
▁atoms
▁crest
▁debts
▁fools
▁fuzzy
▁incom
▁merit
▁parap
▁plump
▁seder
▁skies
▁tails
Abalone
hetical
meaning
stadter
umental
▁Disney
▁Emmett
▁Graves
▁Rivers
▁Sydney
▁hosted
▁hypnot
▁inland
▁labore
▁manure
▁pearls
▁realms
▁rubble
▁softer
▁spends
▁tablet
▁tranqu
▁violet
iancarlo
▁Ecology
▁Jenkins
▁Setting
▁Wilhelm
▁accents
▁bathtub
▁cunning
▁endorse
▁imprint
▁panting
▁patriot
▁swaying
▁wrought
▁Guardian
▁Pastoral
▁Phillips
▁Reynolds
▁analyzed
▁disgrace
▁fleeting
▁guarding
▁immature
▁reasoned
▁reassure
▁solemnly
▁sprawled
▁waitress
▁Katherine
▁alignment
▁ambitions
▁antitrust
▁arbitrary
▁assurance
▁coalfield
▁coalition
▁decreased
▁eccentric
▁impending
▁rendering
▁unpredict
vironmental
▁compressed
▁instructor
▁tenderness
▁Institution
▁conflicting
▁conspicuous
▁convenience
▁entertained
▁nationalism
▁transported
▁systematically
▁extraordinarily
)?
TW
nn
PRE
det
igo
▁Ko
Hall
Jews
Nine
Wall
anto
asat
iott
usel
▁Fal
▁aqu
▁paj
▁sap
...."
adows
aldun
apper
ateur
ibaou
types
▁Anto
▁Fasc
▁Geor
▁ench
▁knob
▁rapt
▁swam
Savine
Wilson
▁Allan
▁Alpha
▁Moral
▁Rivan
▁Snake
▁Tower
▁bland
▁choke
▁fiery
▁goats
▁ounce
▁racks
▁rides
▁rusty
▁shrew
ategory
▁Carrie
▁Centre
▁Invent
▁Ndegwa
▁Newman
▁Pepper
▁Pfeiff
▁Walton
▁albums
▁buzzed
▁hunted
▁linger
▁reiter
▁vacant
▁wither
OVERVIEW
rumental
▁Admiral
▁Khaldun
▁Problem
▁Revenue
▁YouTube
▁chaotic
▁dreaded
▁excuses
▁humming
▁mercury
▁obliter
▁rainbow
▁savings
▁shoving
▁trimmed
▁waiters
Following
Published
▁Kathleen
▁Somebody
▁Writings
▁airfield
▁elephant
▁evaluate
▁frosting
▁generals
▁giggling
▁irresist
▁obscured
▁pleasing
▁premises
▁unstable
▁Boulevard
▁Somewhere
▁cooperate
▁favorites
▁generates
▁makeshift
▁recipient
▁summarize
▁assistants
▁extinction
▁millennium
▁miraculous
▁prevailing
▁recognised
▁trajectory
▁triumphant
▁vegetation
▁apocalyptic
▁countenance
▁Professional
▁instrumental
▁universities
▁commissioners
Kh
ju
yg
!**
Ess
Fed
ITE
adi
bsp
iko
iks
kee
pri
uru
▁SI
Fore
otus
quer
wald
ynos
▁Deb
▁cav
▁fri
▁pew
▁ved
Human
Marie
faith
ihood
kirts
olars
olics
▁Rust
▁Tbsp
▁burd
▁hust
▁mids
▁rebu
ampled
arrant
idants
rontal
▁Bavli
▁Block
▁Cisco
▁Juice
▁Trees
▁alpha
▁inert
▁juicy
▁overh
▁props
▁sleek
▁vomit
Kuhlman
Toronto
morning
pitched
▁Ghosts
▁Knight
▁Miners
▁endors
▁nectar
▁padded
▁perish
▁phosph
▁rental
▁shrine
▁straps
▁unlock
________
bringing
ervative
▁Beijing
▁Cameron
▁Genetic
▁Jessica
▁Queenie
▁Rolling
▁barking
▁drought
▁judging
▁popcorn
▁skipped
▁tedious
▁thicker
▁Assembly
▁Director
▁Missouri
▁Strategy
▁activism
▁altitude
▁fortunes
▁signaled
▁twitched
▁batteries
▁defendant
▁entourage
▁narration
▁prevailed
▁JavaScript
▁aesthetics
▁prescribed
▁projecting
▁Westminster
▁impatiently
▁implemented
▁sentimental
▁supermarket
▁contaminated
▁grandchildren
▁investigations
ALK
Dem
Est
TML
aba
haw
ieu
nor
oga
▁GU
aney
atha
aulk
camp
ilyn
lymp
oths
vice
▁Gro
▁HIV
▁Yer
▁civ
Leaks
asser
igail
othed
ucing
▁Clar
▁Crim
▁Kell
▁Ling
▁READ
▁Repr
▁bean
▁grav
▁lush
▁pies
▁zoom
Taking
balsan
cluded
linger
relsau
▁Hicks
▁Miami
▁Range
▁crick
▁demol
▁dolph
▁folly
▁mates
▁melod
▁pries
▁rearr
▁rebel
▁sperm
▁trout
▁urges
▁vapor
▁voter
America
conduct
gressed
ichever
idelity
ocratic
▁Amelia
▁Follow
▁Morton
▁Mosler
▁crumbs
▁lumber
▁marshm
▁runner
▁savory
▁sermon
▁soccer
▁thwart
Tinnitus
ablished
aterials
oybalsan
▁Convers
▁Perform
▁Shortly
▁Turkish
▁anguish
▁copying
▁listing
▁morally
▁mundane
▁persist
▁rebuild
▁reclaim
▁regards
Elizabeth
▁Exchange
▁defiance
▁integral
▁kingdoms
▁nobility
▁powdered
▁renowned
▁scraping
▁adversary
▁allegedly
▁equations
▁headlines
▁launching
▁mechanics
▁poisoning
▁specialty
▁unfolding
▁Individual
▁alienation
▁fourteenth
▁projection
▁certificate
▁commonplace
▁communicated
▁entrepreneur
▁fingerprints
▁geographical
▁publications
▁reservations
▁translations
▁manifestation
Ho
PD
Bur
Van
yon
▁KK
▁SL
▁kh
Kris
chal
fund
thor
▁Dag
▁Ped
▁Sic
Fresh
House
holes
ippur
othic
▁Coke
▁Dale
▁Hers
▁Mate
▁Pope
▁Skin
▁bows
▁doth
iessen
mighty
oliber
▁Bheem
▁Index
▁Mommy
▁Ninth
▁Wicca
▁cocoa
▁fries
▁glove
▁lords
▁packs
▁token
Evening
Imagine
ozygous
ractive
skinned
▁Period
▁adored
▁jewels
▁loomed
▁paraly
▁pollen
▁stalls
▁strang
Saturday
▁Beverly
▁Highway
▁Masters
▁Morning
▁Theater
▁awaited
▁bicycle
▁chuckle
▁cloning
▁floured
▁leaping
▁ominous
▁pinched
▁refrain
▁scented
▁stumble
▁Advanced
▁Likewise
▁Strelsau
▁bandages
▁conceded
▁dividing
▁enlisted
▁guessing
▁provider
▁suburban
▁yearning
▁exchanges
▁headaches
▁nurturing
▁outskirts
▁screening
▁switching
▁unsuccess
▁consultant
▁detachment
▁devastated
▁enormously
▁summarized
▁formulation
▁frequencies
▁superficial
Ken
Non
OLD
OND
cod
dou
edu
ele
enf
meg
mot
ski
von
yss
Baby
Band
Gary
Stan
Talk
cler
cott
enna
inci
neck
quod
utri
▁Hom
▁asy
▁nit
▁woe
Super
apore
erity
gends
rolls
▁Bang
▁Edge
▁Init
▁frig
▁gust
▁hath
▁peep
Source
atured
phases
rousal
▁Chuck
▁Drasn
▁Geoff
▁Horse
▁Olymp
▁Plato
▁Poems
▁Sasha
▁Serve
▁beats
▁chast
▁fatty
▁lobes
▁renov
▁salon
Marlene
Working
another
ossible
▁Adding
▁Argent
▁Border
▁Claude
▁Growth
▁Lizzie
▁beggar
▁chores
▁cloves
▁lounge
▁plains
▁plunge
▁rattle
▁revolt
▁shrill
▁staged
▁thinly
▁trunks
▁unmist
▁unrest
Facebook
question
▁Marilyn
▁Version
▁bearded
▁chatter
▁debated
▁demonic
▁dilemma
▁estates
▁granite
▁subdued
▁suffers
▁tissues
▁upwards
▁weaving
Higginson
▁Galerius
▁Internal
▁assessed
▁ballroom
▁demeanor
▁enabling
▁endeavor
▁gigantic
▁lowering
▁manually
▁performs
▁programm
▁promotes
▁resented
▁Financial
▁corridors
▁inaugural
▁shuffling
▁Scientific
▁analytical
▁cheerfully
▁overweight
▁silhouette
withstanding
▁Nonetheless
▁attribution
▁overlapping
▁Neuroscience
▁consequently
▁acknowledgment
Da
FR
MI
WE
_,
—_
Los
MER
Son
Tim
huh
orr
uph
▁GH
Flor
Girl
Jake
afin
deep
essa
iths
jour
kept
ombe
ypse
▁Muz
▁OUT
▁Opt
▁Pap
▁ell
Honey
Third
abama
anoia
enton
image
▁Gigi
▁Salt
▁Shan
▁carr
▁dots
▁oars
▁pets
▁seep
▁tout
▁tsun
Winter
▁Arden
▁Feder
▁Novel
▁Quite
▁Venet
▁boast
▁flaws
▁frail
▁swirl
▁unatt
enhagen
lasting
▁Barnes
▁Marlon
▁Pierce
▁Player
▁Septio
▁carrot
▁cliffs
▁erased
▁fennel
▁iCloud
▁misses
▁precar
ikiLeaks
ilateral
ocalypse
▁Monthly
▁blinded
▁bondage
▁bruises
▁dealers
▁drafted
▁flicker
▁lawsuit
▁orderly
▁pumping
▁spiders
▁springs
▁stormed
▁tugging
▁villain
▁visibly
Everybody
igenetics
▁Houghton
▁Portland
▁Sendaria
▁allusion
▁assemble
▁assisted
▁cilantro
▁crackers
▁diameter
▁doorbell
▁dwelling
▁fastened
▁feminism
▁piercing
▁tailored
▁validity
▁Assistant
▁Friedrich
▁Rodriguez
▁designing
▁exploding
▁fluttered
▁normative
▁overheard
▁possesses
▁regretted
▁sheltered
▁undertake
▁Conversion
▁Lancasters
▁embodiment
▁humanities
▁invariably
▁livelihood
▁priesthood
▁prohibited
▁reluctance
▁sentiments
▁dangerously
▁suppression
▁Architecture
▁installation
▁individuality
▁reinforcements
AH
py
,"_
pta
▁ah
Arab
Clay
Dead
ENCE
Hand
Mein
acci
achs
ados
almi
elta
iona
puts
rite
uers
▁Cli
▁Jur
▁Lar
▁Raf
▁Uff
▁déc
▁mul
Allen
Angel
Juice
Quick
agara
atist
odied
rious
uding
utter
write
▁HTML
▁Poly
▁Same
▁Sixt
▁hail
▁hawk
▁huts
▁laps
▁moan
▁surm
figure
inator
napped
rities
stones
▁Cyrus
▁Lacan
▁Meyer
▁Poets
▁alibi
▁basil
▁rabbi
▁smoky
▁ultra
dressed
fighter
vestock
▁Elaine
▁Hughes
▁Indica
▁Sexual
▁clergy
▁curses
▁devout
▁dishon
▁disreg
▁dotted
▁favors
▁motifs
▁parcel
▁prolet
▁salute
tinnitus
▁Chamdar
▁Liberal
▁banquet
▁carrots
▁cleaner
▁dubious
▁hostess
▁inflamm
▁lighted
▁seafood
▁sidebar
▁thinner
▁tracing
president
▁Struggle
▁adhesive
▁athletic
▁declares
▁hypothes
▁immersed
▁monarchy
▁scrutiny
▁stricken
▁unreason
▁weakened
cyclopedia
▁disasters
▁exhibited
▁livestock
▁providers
▁resisting
▁Collective
▁invaluable
▁prediction
▁repentance
▁evangelical
▁undertaking
▁achievements
▁recollection
▁surveillance
▁disappearance
▁investigating
dr
Law
Ray
fir
lic
trl
tti
▁DR
Beth
Fran
amar
anas
gust
imum
oled
ooth
▁Arg
▁Gau
▁Jie
▁Wor
Simon
ivals
union
▁Berg
▁Cade
▁Gate
▁Loop
▁Trou
▁adam
▁barg
▁sund
▁turf
Amanda
Select
acting
alties
esters
▁Finca
▁ample
▁brack
▁broth
▁cater
▁deple
▁ivory
▁necks
▁newer
▁pamph
▁subsc
Kathryn
holding
▁Dallas
▁Galile
▁Hawaii
▁Maraya
▁Nathan
▁Simply
▁Stream
▁Tracey
▁barren
▁booked
▁dealer
▁hushed
▁itiner
▁overfl
▁sinful
▁tackle
▁trance
thousand
▁Classic
▁Content
▁deposit
▁elastic
▁electro
▁quarrel
▁reddish
▁sausage
▁unified
▁valleys
atization
lebrities
▁Chapters
▁Electric
▁Industry
▁Overview
▁admiring
▁bedrooms
▁careless
▁constell
▁disabled
▁futility
▁gambling
▁inexplic
▁longtime
▁prevents
▁ruthless
▁shelters
▁shredded
▁triggers
▁tumbling
▁Commander
▁Transform
▁blindness
▁greatness
▁overthrow
▁untouched
▁Hofstadter
▁dedication
▁trademarks
▁efficiently
▁revelations
▁strawberries
▁Alternatively
▁manufacturers
▁modifications
Bi
DR
BLE
Luc
Mun
NAs
ogg
Rock
iple
late
oirs
oyer
seld
true
ylum
▁Era
▁Yom
▁cum
▁lik
▁ray
Clear
Daisy
Terry
armac
bsite
cycle
entin
erals
llers
ottie
short
super
uctor
▁Aren
▁Bron
▁Cora
▁Dell
▁Dian
▁athe
▁dwar
▁eats
▁pins
Joseph
google
iaries
ophant
ophren
quinas
uished
umbing
▁Autob
▁Bella
▁Cliff
▁Clint
▁Johns
▁Levin
▁Moroc
▁agile
▁china
▁excav
▁focal
▁lanes
▁motel
▁pavil
▁prett
Charlie
achelor
ensable
herbert
ushalmi
▁Apollo
▁Arjuna
▁Austin
▁Chapel
▁Edison
▁Kendra
▁Myster
▁Nevada
▁Stones
▁Volume
▁abused
▁devote
▁dissip
▁harmon
▁pickup
▁shriek
▁sobbed
▁squint
esthetic
language
▁Dummies
▁Heather
▁Illustr
▁Liberty
▁Silicon
▁afflict
▁baskets
▁fleeing
▁footing
▁gleamed
▁hazards
▁imaging
▁jackets
▁mailbox
▁quicker
▁repeats
▁ribbons
Jefferson
Princeton
▁Fletcher
▁Psychiat
▁Resource
▁Richards
▁Sharsted
▁apostles
▁combines
▁credible
▁cucumber
▁homeland
▁homemade
▁presumed
▁reckoned
▁regained
▁smallpox
▁stinking
▁stroking
▁unfolded
▁advocates
▁countered
▁expresses
▁luxurious
▁processor
▁reprinted
▁splitting
▁stairwell
▁successor
▁sweetness
▁terrorist
▁withstand
▁Scientists
▁acquainted
▁concession
▁contextual
▁delicately
▁fictitious
▁helplessly
▁neighbours
▁prefrontal
▁recovering
▁respectful
▁visibility
▁confronting
▁deliverance
▁discouraged
zh
Ell
FOR
IDE
hea
ibn
oil
oux
pur
yaw
yet
▁CP
Etta
acht
comb
houn
imon
nost
olan
ulia
wehr
▁Kip
▁PBS
▁PDF
▁blu
Check
arter
borah
graph
oshop
sofar
ushan
▁CCol
▁Core
▁Mead
▁THIR
▁Wong
▁bran
▁coax
▁grop
▁hege
▁impe
▁slam
▁slog
bandha
enting
ursive
▁Going
▁Jaxon
▁Naomi
▁Runes
▁Saudi
▁Spect
▁Sykes
▁Tales
▁Vivia
▁Zhong
▁bosom
▁lions
▁maids
▁meter
▁stale
▁therm
article
joining
▁Bloody
▁Medium
▁Ulrich
▁Ursula
▁accuse
▁cupped
▁engulf
▁forged
▁giggle
▁heroin
▁mantle
▁shrugs
▁supers
▁tripod
ancouver
atisfied
cessions
ocentric
▁Effects
▁Mitzvah
▁expanse
▁expects
▁harmful
▁mastery
▁proverb
▁radiant
▁soaking
▁stalked
▁studios
▁vibrant
▁barefoot
▁confided
▁ensuring
▁metallic
▁passions
▁Afterward
▁Tolnedran
▁apparatus
▁contrasts
▁deception
▁denounced
▁embracing
▁oversized
▁overwhelm
▁recalling
▁voluntary
▁complexion
▁noticeable
▁playground
▁windshield
▁withdrawal
Jacksonville
▁Oppenheimer
▁contemplate
▁exhortation
▁investments
▁refrigerate
▁administered
▁subconscious
▁authoritative
▁Administration
▁experimentation
GA
aa
IGN
Pet
Win
aka
ido
▁EN
▁LI
Fred
ICAL
alia
ashi
bren
illo
inck
nery
▁Dre
▁IBM
▁Kil
▁Lao
▁Und
▁las
ariah
ateau
blind
erton
unker
▁Goal
▁Hack
▁PART
▁Trek
▁avec
▁hiss
▁peek
▁pepp
▁suic
Surely
almart
garita
ilogue
ischen
onilla
played
profit
secret
▁Gleig
▁Local
▁Percy
▁Songo
▁encir
▁figur
▁haste
▁loads
▁mound
▁notor
▁slate
▁swive
▁teens
fiction
▁Bomber
▁Chafin
▁Daudov
▁Edited
▁Groups
▁Guinea
▁Kibaou
▁Kippur
▁Object
▁Territ
▁attain
▁benign
▁caliph
▁chilly
▁gaping
▁herald
▁lyrics
▁preach
▁robbed
▁shores
▁shrewd
▁strive
▁tactic
▁warmly
Consider
anything
izophren
▁Arnheim
▁Arrange
▁Challen
▁Combine
▁Rachman
▁Tonight
▁arousal
▁boredom
▁bulging
▁clutter
▁cushion
▁devised
▁infancy
▁lookout
▁municip
▁outlook
▁stature
▁Bheeshma
▁Hotchner
▁Normally
▁Savarkar
▁barbecue
▁chanting
▁crystall
▁flirting
▁grumbled
▁improper
▁rigorous
▁smelling
Absolutely
▁Lexington
▁agitation
▁announces
▁emissions
▁quotation
▁withdrawn
▁constructs
▁hysterical
▁impatience
▁substances
▁wheelchair
▁catastrophe
▁comparisons
▁confinement
▁conversions
▁disturbance
▁characterize
▁contemplating
▁illustrations
▁understandable
CP
Ms
ml
Occ
esc
wig
zig
▁LO
Aunt
Lear
Thou
imps
itya
mart
▁Bah
▁fax
▁fir
aines
hilim
iento
loads
ovsky
▁Iowa
▁Tech
▁WILL
▁Zone
▁flin
▁iPod
▁pops
▁rall
▁sane
Andrea
Common
ablish
arency
ifiers
igning
▁Edwin
▁Happy
▁Katya
▁Prior
▁Shell
▁bleed
▁brink
▁bulbs
▁fluct
▁fuels
▁hunch
▁leash
▁maker
▁protr
▁salty
▁steer
▁strap
Captain
arching
charged
loading
process
▁Desire
▁Labour
▁Palest
▁Pretty
▁Simple
▁Stevie
▁blinds
▁boldly
▁breach
▁emails
▁enlist
▁hailed
▁incess
▁juicer
▁leaked
▁pillar
▁soften
▁swings
▁towels
▁twists
▁twitch
Division
▁Already
▁Eidolon
▁Elliott
▁Keeping
▁Trotsky
▁Wilkins
▁audible
▁cabbage
▁careers
▁dancers
▁derives
▁execute
▁flaming
▁imitate
▁indulge
▁leftist
▁lurched
▁mineral
▁reforms
▁reigned
▁twelfth
▁uncanny
▁ushered
edication
prisingly
▁Creation
▁Practice
▁conceive
▁distrust
▁editions
▁glimpsed
▁grasping
▁humility
▁spitting
▁stimulus
▁survivor
▁tempting
▁timeline
▁trusting
interested
▁Chocolate
▁Depending
▁Rosenthal
▁competent
▁deposited
▁intervene
▁rehearsal
▁undergrad
▁Copenhagen
▁Yerushalmi
▁adrenaline
▁elaborated
▁pleasantly
▁retrospect
▁conceptions
▁conjunction
▁humiliating
▁intercourse
▁wonderfully
▁incomprehens
▁transforming
▁entrepreneurs
▁misunderstood
▁electromagnetic
')
]:
?,"
lix
ppe
▁wi
Born
Otto
Play
dist
emis
inse
onda
riad
thia
▁Gru
▁Ike
▁Pul
▁Sor
▁hij
Ethan
Nedra
built
ensis
gesis
iegel
ockey
reach
urbed
▁Brun
▁Buch
▁Cant
▁Dean
▁Dial
▁Ferm
▁Guer
▁ding
▁dizz
▁iyaw
▁kits
▁lame
▁mend
▁nori
▁soak
▁stam
▁whee
Harper
Pequod
abouts
determ
istice
ocused
thirds
▁Brett
▁Harpy
▁Minor
▁Muros
▁Pagan
▁Rocky
▁Shore
▁Sodom
▁Worse
▁antip
▁dazed
▁grins
▁resin
▁unfor
▁vamps
Charles
iciency
ometric
▁Burton
▁Dubose
▁Maggie
▁Monica
▁Thynos
▁Vendor
▁banned
▁bombed
▁cancel
▁halted
▁indict
▁marine
▁ridges
▁sheath
▁submar
▁widows
building
illusion
▁Alabama
▁Colette
▁Cornell
▁Destiny
▁Feeling
▁Killing
▁Melissa
▁Shapiro
▁THROUGH
▁charred
▁coupled
▁damages
▁elusive
▁hangman
▁mingled
▁modeled
▁parting
▁persona
▁raining
▁scooped
▁worldly
identally
▁Sprinkle
▁activate
▁alarming
▁bellowed
▁earrings
▁examines
▁immortal
▁probable
▁virtuous
▁Marketing
▁Photoshop
▁Technique
▁adulthood
▁collector
▁enjoyment
▁envelopes
▁humankind
▁inscribed
▁underside
▁worldview
▁Choybalsan
▁allegiance
▁bestseller
▁chancellor
▁conducting
▁discretion
▁incomplete
▁inherently
▁kilometres
▁separating
▁uncontroll
▁victorious
▁conferences
▁cooperative
▁degradation
▁disapproval
▁germination
▁qualitative
▁Confucianism
▁breakthrough
▁contributing
▁demonstrations
Ce
Aud
Fer
Gar
_!"
fle
loe
php
rez
toc
▁Ax
▁Gi
▁MD
ANTS
gins
ilts
oyne
past
▁Cel
▁Jar
▁Miz
▁Saw
▁Sib
▁aph
▁hey
▁pix
▁sel
Based
Hervé
Jason
Press
flict
hardy
nyder
ogram
riety
rored
▁Chen
▁Eman
▁Parr
▁Seed
▁Shir
▁Soul
▁crus
▁funn
▁lull
▁mare
▁pang
▁peac
▁sauc
indeer
little
turned
unches
wegian
▁Apply
▁Athen
▁Byron
▁Doris
▁Fleet
▁Hamps
▁Miche
▁Pruss
▁Quote
▁Youth
▁allev
▁aroma
▁attic
▁cheat
▁coron
▁hover
▁hypoc
▁jelly
▁joins
▁orbit
▁ports
▁villa
▁wrigg
rations
winning
▁Effect
▁Excell
▁Quaker
▁Sylvia
▁Thames
▁cliché
▁enjoys
▁filing
▁healer
▁impair
▁lodged
▁newest
▁pauses
▁rebell
▁subway
Analects
aleswell
finished
orescent
▁Affairs
▁Android
▁Economy
▁Maxwell
▁Parents
▁Rebecca
▁Whoever
▁banging
▁captive
▁clothed
▁confisc
▁diaries
▁dispers
▁empires
▁grandma
▁looming
▁placebo
▁pudding
▁silvery
▁spinach
▁strides
▁substit
▁unstead
qualified
▁Farewell
▁Starting
▁adopting
▁canceled
▁dictated
▁dinosaur
▁doubtful
▁horribly
▁merciful
▁packages
historical
▁Christine
▁Giancarlo
▁assessing
▁atonement
▁battalion
▁cherished
▁inspiring
▁visualize
▁Protection
▁peacefully
▁progressed
▁calculating
▁respondents
▁conditioning
▁distinctions
▁satisfactory
▁Communication
▁unpredictable
CO
GK
**"
Fif
Hom
MRI
OUS
ULT
cra
dro
owl
▁._
▁gy
Best
atts
iker
oske
rone
unga
xtap
▁bee
▁coh
▁fug
alian
amboo
arers
▁Cake
▁Ober
▁Surv
▁Tiff
▁Trev
▁Zuck
▁cube
▁duct
▁earl
▁exor
▁glob
▁loam
▁sums
family
indust
rather
ussion
utting
▁Birch
▁Crock
▁Films
▁Murgo
▁Pablo
▁Zenda
▁annex
▁basin
▁canoe
▁foreb
▁joked
▁knots
▁lodge
▁lousy
▁lurch
▁unint
married
mission
ocating
running
▁Cancer
▁Cherek
▁Greene
▁Perpet
▁bakery
▁bowing
▁burger
▁canned
▁clause
▁disemb
▁juxtap
▁obeyed
▁recons
▁relies
▁replic
▁sensor
▁trades
▁verify
Williams
▁Meaning
▁Mildred
▁Oakland
▁Turning
▁Valbeck
▁archive
▁bouquet
▁comrade
▁dearest
▁dungeon
▁logging
▁optimal
▁sipping
▁stubble
▁sunrise
▁vividly
President
▁Cockrill
▁Jablonka
▁Paradise
▁Richmond
▁Thousand
▁abundant
▁counters
▁credited
▁evolving
▁haunting
▁incoming
▁pharmacy
▁receipts
Throughout
▁Stevenson
▁backstage
▁canonical
▁patriotic
▁someplace
▁workspace
▁Babylonian
▁Liberation
▁circulated
▁vestibular
▁advertisers
▁participant
▁disconnected
▁acknowledging
▁correspondent
▁contemporaries
Ag
DO
Ol
ANC
APD
Fin
ONG
REN
Rog
ubb
▁Uk
▁VI
▁ét
Cann
Mama
alsh
anco
hero
iere
inda
irer
swer
▁Fam
▁Rum
▁loo
Funny
North
ifest
owler
space
uably
▁Abel
▁Exec
▁Eyes
▁Gide
▁Push
▁Rush
▁coke
▁jaws
▁pomp
Indian
advert
boiled
iddled
ocracy
roughs
scapes
▁Flood
▁Gould
▁Sonya
▁booze
▁cooks
▁deity
▁grove
▁reins
▁revis
▁wedge
▁yolks
alities
avioral
bearing
roduced
▁Gender
▁Remark
▁Trying
▁bruise
▁dances
▁filmic
▁kidney
▁lethal
▁messed
▁nutmeg
▁ponder
▁ransom
▁rating
official
olutions
ordingly
▁Sitting
▁Valerie
▁Village
▁disobed
▁domains
▁fitness
▁frontal
▁insults
▁presupp
▁sanctum
▁severed
▁slowing
▁Festival
▁audition
▁bankrupt
▁hearings
▁hurrying
▁moreover
▁outlines
▁Economics
▁Francesca
▁Hendricks
▁apostolic
▁cognition
▁detection
▁dispersed
▁exemplary
▁furnished
▁inquiries
▁intricate
▁investing
▁reckoning
▁stiffened
▁Antichrist
▁compensate
▁explosions
▁recruiting
▁Reflections
▁Traditional
▁accumulated
▁commodities
▁supervision
▁anticipating
▁mobilization
Sk
hu
ARK
Bas
Bay
OLL
URN
Dark
Want
alon
azar
gled
icia
inst
oufl
ourg
priv
prov
user
▁Boo
▁Fun
▁Thy
▁fel
▁nas
Liter
Title
eland
fires
iceps
media
ocent
ofsky
otene
track
▁Asqu
▁Chat
▁Evil
▁Role
▁Says
▁Tall
▁Tele
▁aver
▁gull
▁lure
▁plag
▁smir
▁unsc
▁vows
▁yoga
ayette
backed
loving
▁Bogan
▁Heath
▁Humph
▁Leigh
▁Muzil
▁bribe
▁chile
▁deter
▁embry
▁idols
▁plead
▁quasi
▁repay
▁thyme
▁warns
isexual
lessons
▁Hammer
▁Kramer
▁Orange
▁Putsch
▁barric
▁causal
▁fasten
▁maiden
▁paired
▁risked
▁unfold
▁wagons
aciously
▁Capitol
▁Walmart
▁airline
▁briskly
▁curling
▁forties
▁hugging
▁insides
▁prevail
▁pumpkin
▁quoting
▁robbery
▁scarred
▁scripts
▁stooped
▁toddler
▁toolbar
dependent
▁Arendish
▁Blizzard
▁Portrait
▁Religion
▁Scottish
▁arguably
▁armchair
▁diplomat
▁garments
▁hydrogen
▁informal
▁mediated
▁missions
▁paranoia
▁regulate
▁securing
▁wondrous
everything
▁Communism
▁Haleswell
▁analyzing
▁attaching
▁commenced
▁contented
▁endurance
▁hurriedly
▁listeners
▁proposing
▁unrelated
▁accusation
▁imprinting
▁phenotypic
▁privileges
▁prosecutor
▁warehouses
▁accelerated
▁disposition
▁embroidered
▁reproductive
▁insignificant
Aw
DE
VE
dc
ISS
Lew
Met
ORI
Sat
___
awk
lov
oba
usc
▁Si
ANCE
fill
iden
imer
issy
jack
note
sens
sure
trad
▁Cad
▁NEW
▁Sew
▁TWO
Class
birth
esian
olini
roots
roust
umann
urate
zzati
▁Afro
▁Doug
▁Hunt
▁Schl
▁Thir
▁bibl
▁bred
▁carp
▁clit
▁crib
▁jazz
▁mete
▁pens
▁tits
Choose
Contin
button
cented
igated
opular
raught
▁Dante
▁Felix
▁Sugar
▁algor
▁aloof
▁amber
▁arsen
▁cedar
▁chant
▁epist
▁leaks
▁miser
▁shrub
▁sinks
▁speck
▁venue
Further
einsson
noticed
rescent
▁Alexei
▁Assess
▁Desert
▁Leader
▁Queens
▁Wagner
▁armour
▁brandy
▁cathed
▁celery
▁fluffy
▁greens
▁hinges
▁innate
▁makers
▁pumped
▁quarry
▁recite
▁starve
▁strung
▁uncles
andering
ophantus
▁Abigail
▁Stereot
▁Warrant
▁degener
▁exhilar
▁hunters
▁jeopard
▁locking
▁payable
▁provoke
▁stimuli
▁truffle
Philosoph
condition
organized
ventional
▁Arkansas
▁Buddhist
▁Identify
▁Nephilim
▁Pfeiffer
▁Rabbinic
▁blinding
▁dazzling
▁decipher
▁doorstep
▁doorways
▁drilling
▁multiply
▁plotting
▁remotely
▁workshop
▁Hampshire
▁Langstrom
▁Rosenberg
▁imperfect
▁inspected
▁migration
▁perpetual
▁preschool
▁signaling
▁superfood
▁Protestant
▁Wellington
▁converting
▁disrespect
▁excellence
▁fluttering
▁generously
▁geographic
▁indirectly
▁manifested
▁postmodern
▁professors
▁stepmother
▁Declaration
▁assignments
▁credibility
▁indignation
▁motivations
▁priestesses
▁recruitment
▁testimonial
▁transitions
▁constructive
▁counterparts
▁foundational
▁interpreting
▁preservation
▁physiological
Hur
Shh
Top
cab
eli
hon
▁Wu
▁oo
apur
bout
exam
resa
ruce
urai
▁Ach
▁Chi
▁Cyn
▁Dum
▁GHH
▁McN
▁Nov
▁_._
▁git
▁gor
▁nib
▁oat
achee
aguay
athom
blown
esity
itken
lholt
orian
pable
▁Bark
▁Calc
▁Chin
▁Coch
▁Fant
▁Metz
▁Vale
▁Wash
▁audi
▁buoy
▁casc
▁cozy
▁dais
▁inde
▁memo
▁pent
▁poke
▁prud
▁upgr
▁util
▁zest
around
bleday
brance
ighted
intend
issive
ivists
merald
namese
ocular
ousing
parent
▁Antar
▁Bloom
▁Girls
▁Jonah
▁Kenya
▁Olive
▁Plain
▁Quinn
▁Stars
▁Tibet
▁bount
▁brist
▁caffe
▁footh
▁metic
▁resur
▁socio
▁sucks
▁tombs
▁woven
Blessed
brother
jection
roaches
ruption
stereot
▁Horror
▁Nearly
▁barley
▁bounds
▁fueled
▁hinted
▁litter
▁pantry
▁sanity
Berkeley
European
whatever
▁Aquinas
▁Collect
▁Delores
▁Pollock
▁Sharing
▁bandage
▁barkeep
▁blurted
▁enraged
▁garment
▁gravely
▁lesbian
▁presume
▁refresh
▁royalty
▁sandals
▁surpass
▁Corrolin
▁Identity
▁Monsieur
▁Software
▁Universe
▁captures
▁intruder
▁mouthful
▁nowadays
▁silenced
▁slippers
▁spelling
▁Singapore
▁accounted
▁attackers
▁capturing
▁cinematic
▁electrons
▁endlessly
▁flattered
▁guerrilla
▁injection
▁institute
▁powerless
▁pragmatic
▁separates
▁specially
▁testified
▁throbbing
Publication
▁classmates
▁commanders
▁distortion
▁headlights
▁misleading
▁resembling
▁Fitzherbert
▁antibiotics
▁intentional
▁statistical
▁accumulation
▁constructing
▁irresistible
▁spirituality
▁exceptionally
▁revolutionaries
'?
Ow
."[
Adv
Bad
Dan
Jon
LEH
LES
Mil
OWN
cro
zek
▁Ku
AFFE
Find
Prim
abel
isin
rama
ugen
yers
▁Cry
▁Lux
▁Nay
▁ail
▁ard
▁cer
▁mah
▁yel
Broad
Count
cases
crest
elles
ilate
often
omsky
pract
speed
verts
▁Haas
▁Katz
▁NOIR
▁Shel
▁Vent
▁Want
▁akin
▁pads
▁recl
▁waft
ATIONS
Summer
aguley
aments
anchey
apture
azette
energy
uchess
▁Elsie
▁Fresh
▁Gates
▁Giles
▁Mills
▁Morin
▁Spoon
▁Whole
▁aller
▁chore
▁juven
▁mused
▁skins
▁trill
▁urine
▁versa
Hearing
Semitic
Similar
ameless
andrion
ensibly
husband
idental
seldine
▁Durham
▁Wouldn
▁anonym
▁brakes
▁embark
▁enrich
▁gladly
▁grocer
▁infilt
▁jagged
▁masked
▁mortar
▁myriad
▁onward
▁ridden
▁sodium
▁squirm
▁stalks
▁subter
▁vastly
▁yawned
Business
original
▁Harding
▁Harriet
▁Journey
▁Maurice
▁Roberto
▁athlete
▁avocado
▁calming
▁carpent
▁cheated
▁defence
▁dismant
▁incense
▁legions
▁potency
▁rampant
▁sensual
▁traders
▁accusing
▁expelled
▁maneuver
▁mirrored
▁optional
▁shepherd
▁surgical
▁vitality
astfeeding
▁Greenberg
▁Publisher
▁ascertain
▁obtaining
▁tentative
▁treasures
cultivation
osmopolitan
▁Clementine
▁Englishman
▁Indigenous
▁arithmetic
▁indicators
▁monumental
▁smartphone
▁strawberry
▁subversive
▁tablecloth
▁transplant
▁Marteinsson
▁concessions
▁interacting
▁marketplace
▁appointments
▁contradiction
▁precipitation
▁organizational
Di
GB
QL
UC
iw
ATH
Dor
Gal
IME
Ice
fla
lea
utz
▁VC
▁YC
Godd
Kill
Prep
anya
cans
etta
ietz
ilib
ista
ithe
lane
loss
ogyn
teau
thin
▁Bos
▁KKC
▁Kre
▁Mau
▁Som
▁wad
▁xxx
Sally
agels
false
nessa
tails
utted
▁Anch
▁Bagh
▁Coyd
▁Dhai
▁Disp
▁Feel
▁Gwyn
▁Horn
▁Mans
▁Pars
▁Trip
▁cape
▁jars
▁sync
▁visa
Living
ceived
degree
inders
ptuous
rified
▁Autom
▁Blend
▁Delta
▁Gross
▁Magic
▁Merry
▁Nevis
▁Petra
▁Phnom
▁Weber
▁Witch
▁arter
▁broom
▁dimly
▁hitch
▁inexp
▁juris
▁nonex
▁prope
▁retal
▁satir
▁tuber
▁whine
istered
▁Advent
▁Arabia
▁Conner
▁Flavia
▁ballet
▁beamed
▁cereal
▁crafts
▁flatly
▁gravey
▁iconic
▁matrix
▁outlaw
▁ranges
▁rivals
▁schema
▁shabby
▁undone
business
▁Gingold
▁Strateg
▁Walking
▁brittle
▁categor
▁commons
▁exhaled
▁metabol
▁novelty
▁planets
▁premium
▁rubbish
▁skillet
▁sneered
▁trotted
▁upgrade
▁Fernando
▁distaste
▁flipping
▁paternal
▁pathways
▁prenatal
▁revision
▁shutting
▁traveler
▁vicinity
▁vomiting
▁workings
Revolution
▁Endurance
▁WikiLeaks
▁disagreed
▁fireworks
▁honeymoon
▁landmarks
▁momentary
▁quivering
▁reminders
▁resistant
▁scratches
▁speculate
▁travelled
▁Cataloging
▁Richardson
▁Scriptures
▁infections
▁sensations
▁spectators
▁Yellowstone
▁confidently
▁descriptive
▁devastation
▁existential
▁familiarity
▁masterpiece
▁replication
▁sacrificial
▁fermentation
▁strengthened
▁accommodation
▁participating
▁constitutional
▁Representatives
▁autobiographical
FM
RO
HWH
UAL
dal
log
mir
▁MI
▁Nu
▁ub
Deep
Name
Ross
aeus
atem
atre
atri
icol
inta
prim
rals
undy
usky
▁Blo
▁Gom
▁Nar
▁Seg
▁pac
▁paw
▁ply
▁vet
...?"
AKING
Heart
Query
Women
arcer
dough
ellar
enner
plain
ussed
▁Coss
▁Dipl
▁Emil
▁Finn
▁Gand
▁Hath
▁Maas
▁Rena
▁apes
▁penn
▁pimp
idious
ienced
incarn
itania
public
restes
ulence
▁Abbas
▁Blade
▁Break
▁Burke
▁Chair
▁Doesn
▁Fruit
▁Refer
▁Tiger
▁WATER
▁ferry
▁fianc
▁goose
▁lumps
▁pumps
▁scraw
▁ubiqu
ardless
healthy
legraph
ritical
urities
▁Coffin
▁Franco
▁Judith
▁Kalimp
▁Miriam
▁Tavern
▁Terror
▁bypass
▁citing
▁citrus
▁derive
▁domest
▁etched
▁flakes
▁horrid
▁joyful
▁menace
▁photoc
▁serene
▁wizard
ietzsche
smelling
▁Airport
▁Butcher
▁Counter
▁Hebrews
▁Hillary
▁Kipling
▁Marxism
▁Milbank
▁Niagara
▁Physics
▁Proctor
▁Reviews
▁Weather
▁buffalo
▁dragons
▁earning
▁hormone
▁impover
▁inhaled
▁nursery
▁patrons
▁puzzles
▁remorse
▁sarcasm
▁starved
▁weights
ocumented
▁Dashiell
▁Hispanic
▁Mangaran
▁Standing
▁Watching
▁appalled
▁beckoned
▁cheating
▁dissolve
▁eleventh
▁emergent
▁finances
▁governed
▁grudging
▁implying
▁littered
▁mutually
▁repaired
▁sneaking
▁speeding
▁truffles
▁whistled
▁Doubleday
▁Stalinist
▁butterfly
▁diversion
▁spotlight
▁stillness
▁undergone
▁unnoticed
▁workshops
▁Production
▁foreground
▁internally
▁restrained
▁Mathematics
▁celebrities
▁distressing
▁imaginative
▁catastrophic
▁emancipation
▁eschatological
▁standardization
UP
ti
PLE
RNA
Sex
Str
aho
oct
▁Wo
▁ba
Luck
Pour
esla
gray
lore
ocke
once
ooks
rake
rona
sign
test
ucca
uela
viii
▁Bum
▁CAN
▁EIS
▁Esk
▁Kid
▁Moz
▁Pas
▁THC
▁coy
▁jug
▁poo
Daddy
arton
horse
ielle
noons
obbes
olmes
pared
raved
times
umbed
▁Celt
▁Herb
▁Khan
▁Laws
▁Mali
▁Peru
▁Sene
▁Seth
▁Soto
▁Wasn
▁anew
▁bere
▁cupc
▁curt
▁lain
▁luke
▁meta
▁pall
▁rumm
Calder
bottom
common
contin
ikhail
itates
▁Admin
▁Apost
▁Brill
▁Exped
▁Hawes
▁Steps
▁clash
▁desks
▁kinda
▁leaps
▁paved
▁pneum
▁polls
▁remed
▁sails
▁saves
▁shawl
▁slung
▁spoil
▁stump
▁troll
ellhorn
general
▁Canaan
▁Compet
▁Farmer
▁Keeper
▁Korean
▁Marine
▁Nazism
▁Sparks
▁Speech
▁colder
▁goddam
▁honors
▁mercen
▁offset
▁sheikh
▁sparse
▁speeds
▁surged
▁tenure
Republic
actional
▁Adchemy
▁Cottage
▁Deborah
▁Finding
▁Leaders
▁Melanie
▁Pearson
▁Pharaoh
▁Publish
▁Shannon
▁Springs
▁alleles
▁bailiff
▁camoufl
▁coating
▁fearing
▁handbag
▁marshal
▁modules
▁ripping
▁smarter
▁undergo
▁Caroline
▁Contours
▁Dynamics
▁Golnessa
▁Portugal
▁affinity
▁exploits
▁investor
▁overseas
▁sampling
▁stuffing
▁symmetry
▁Typically
▁discharge
▁inflicted
▁obsessive
▁pointless
▁unlimited
▁Population
▁applicable
▁blacksmith
▁contracted
▁distraught
▁formations
▁infinitely
▁prosperous
▁quotations
▁translator
▁Personality
▁corporation
▁demographic
▁forthcoming
▁interchange
▁progression
▁prospective
▁sustainable
▁condemnation
▁acquaintances
▁homosexuality
▁sensibilities
▁uncomfortably
▁enthusiastically
.—
FT
!).
Alf
CON
Eli
Yep
emp
iza
mut
saw
ulu
▁Ug
Holy
Move
Need
OLOG
TEEN
Trad
Vice
atar
ffer
khos
last
mere
ndon
nton
pour
site
▁Ign
▁Kes
▁gaz
Going
Heter
Large
Louis
andin
ecake
olent
opped
osion
otent
uzzle
▁Boyd
▁Hait
▁Hash
▁LAPD
▁Rosa
▁Sens
▁balm
▁extr
▁seet
▁thar
▁vase
Around
Author
iddles
▁Qaeda
▁Voice
▁Vyrus
▁Weeki
▁blaze
▁brute
▁caves
▁chefs
▁cones
▁crypt
▁debut
▁dolls
▁flank
▁grapp
▁indec
▁plung
▁sidel
▁tasty
▁trium
▁utens
account
against
ellular
forming
overing
perfect
▁Libert
▁Lieber
▁Sweden
▁amidst
▁anomal
▁cradle
▁creepy
▁curric
▁exodus
▁hearty
▁indist
▁meadow
▁newcom
▁propos
▁relish
▁stamps
▁stereo
▁tendon
Semitism
heastern
itiously
▁Negroes
▁barrage
▁carrier
▁circumc
▁confuse
▁console
▁dinners
▁drizzle
▁intertw
▁preface
▁recited
▁rotting
▁sockets
▁sprayed
▁sterile
▁sweatsh
▁tasting
▁unravel
iguration
ographics
▁carbohyd
▁finishes
▁lukewarm
▁numbered
▁pavilion
▁rearview
▁seasoned
▁strapped
▁wrinkles
▁Israelite
▁Reporting
▁bookstore
▁comprised
▁economies
▁forgiving
▁harvested
▁marketers
▁northeast
▁retailers
▁sponsored
▁stylistic
▁Chronicles
▁economists
▁graduation
▁installing
▁spectacles
▁swallowing
▁triangular
generational
▁interpreter
▁rationality
Psychological
▁Contemporary
▁manipulating
▁manufactured
▁Autobiography
▁functionality
▁predominantly
▁spontaneously
Ba
Je
Ra
Bra
jan
lux
ocl
sil
Bern
Brad
Comb
Mind
arin
blog
bral
cold
erto
evil
ghai
ilis
iota
ivia
lich
odor
phis
▁Cul
▁Dot
▁LIF
▁NAS
▁Swe
▁Tap
▁exe
Felts
Hazel
Janet
adian
alaam
athon
igate
notes
ogens
upaia
▁Belt
▁Corp
▁Herr
▁Lila
▁Sime
▁Wang
▁claw
▁rosy
▁taps
▁womb
Across
arteon
ippers
ittees
leness
oscope
owards
plates
semble
shirts
stered
▁Delhi
▁Doing
▁Grass
▁Kirst
▁Laugh
▁Oasis
▁Semin
▁aches
▁altru
▁buses
▁doses
▁filth
▁foyer
▁ketch
▁omnip
▁opium
▁queue
▁resil
▁weave
▁wharf
▁wraps
Merrill
Silence
angered
asuring
casting
company
counter
gencies
idences
reation
umption
▁Aitken
▁Brogan
▁Kaiser
▁Krause
▁Mekhos
▁Roscoe
▁aerial
▁bhadra
▁dawned
▁devoid
▁forbid
▁grassy
▁peeked
▁shards
▁stroll
Veronica
athedral
incerity
ressions
▁Comfort
▁Healing
▁Respons
▁Simpson
▁Slavery
▁Willard
▁betting
▁contour
▁lobster
▁oblique
▁pathway
▁peppers
▁pirates
▁poetics
▁powered
▁relinqu
▁resides
▁stiffly
▁tablets
▁therape
▁transpl
▁whimper
▁Ethiopia
▁Pandavas
▁agreeing
▁crippled
▁deprived
▁diverted
▁draining
▁horrific
▁keywords
▁laborers
▁protects
▁roadside
▁shameful
▁treaties
Blackstone
▁Reprinted
▁comforted
▁commotion
▁differing
▁fashioned
▁incorrect
▁kidnapped
▁partisans
▁synthetic
▁wrestling
▁Commentary
▁evacuation
▁formulated
▁hopelessly
▁mosquitoes
▁plasticity
▁upbringing
▁disciplined
▁disciplines
▁inexpensive
▁provocative
▁antimodernist
▁congregations
▁Otolaryngology
▁psychologically
▁transformations
▁misunderstanding
"_
.;
Ps
Ty
ISC
lok
▁('
▁DA
▁PH
▁UC
▁xi
Acts
Anna
Mont
aley
done
each
emic
hosp
imed
moil
oire
role
show
tons
uces
ullo
unst
urbs
▁DAY
▁Kap
▁Maz
▁Ric
▁Rol
▁xii
Image
Titus
along
ervan
oishe
ongru
oused
vings
▁Cord
▁Dahl
▁LORD
▁Marc
▁Neap
▁Thur
▁Unit
▁dope
▁gond
▁grit
▁lint
▁nons
▁teet
▁trot
Behind
Beyond
atable
iddish
iolent
issary
mostly
osures
raisal
square
▁Belle
▁Carla
▁Donna
▁Focus
▁Indic
▁Kitty
▁Layer
▁Multi
▁Nanny
▁Thing
▁blasp
▁comme
▁corks
▁corro
▁cubic
▁havoc
▁muted
▁needy
▁owing
▁plast
▁skirm
▁thugs
▁traps
▁unner
▁unspe
Century
ciating
drained
operiod
▁Athens
▁Chubby
▁Nether
▁Online
▁Pascal
▁buffet
▁calmed
▁diving
▁fossil
▁frenzy
▁greasy
▁grimly
▁intest
▁invoke
▁livres
▁martyr
▁muster
▁niches
▁paints
▁seduct
▁soared
▁socket
▁tangle
▁utmost
Speaking
personal
▁Baghdad
▁Mikhail
▁Mystery
▁Onigiri
▁Putting
▁Swedish
▁boulder
▁clatter
▁erected
▁knotted
▁outfits
▁overrun
▁rabbits
▁removes
▁reputed
▁sayings
▁sensing
▁sparked
▁stripes
▁thereof
▁tickler
▁tsunami
itability
olidarity
▁Asturian
▁Audience
▁Countess
▁Hartford
▁Morrigan
▁Paraguay
▁bearings
▁checkout
▁debating
▁gasoline
▁grouping
▁holiness
▁insulted
▁oriented
▁splashed
▁switches
▁wreckage
▁Catholics
▁Evidently
▁Inventory
▁balancing
▁benefited
▁celestial
▁composure
▁depiction
▁eyelashes
▁feminists
▁financing
▁greetings
▁messianic
▁strangled
▁unchanged
▁Jastreboff
▁competitor
▁defendants
▁retreating
▁shimmering
▁Matthiessen
▁Translation
▁establishes
▁evangelists
▁handwriting
▁reassurance
▁Anthropology
Hu
AIN
ALE
Var
oam
oed
ukk
▁Ny
▁WV
Free
Matt
Pass
Ruth
adne
agus
atra
ells
gold
onga
orps
rism
stit
▁ADV
▁Dru
▁Nas
▁Wer
▁bog
▁lui
▁wed
Candi
Close
Might
Power
Trust
aples
dated
fifth
gling
oling
small
wives
ynote
▁Heid
▁Kiss
▁Lock
▁Ones
▁Peel
▁Rate
▁Vall
▁Weis
▁ador
▁airy
▁dill
▁feas
▁gard
▁iPad
▁pard
▁unhe
▁zinc
Anyone
Darwin
Slowly
amburg
empton
gently
ithing
lining
otions
valier
▁Butch
▁Excel
▁Kathy
▁Rider
▁Steel
▁Waste
▁carve
▁cured
▁elves
▁forge
▁intox
▁ledge
▁patio
▁raped
▁sings
▁smash
anthrop
entence
iencies
ometown
urgical
▁Coombe
▁Fergus
▁Hooper
▁brands
▁excurs
▁exited
▁fooled
▁hither
▁iMovie
▁kinder
▁merits
▁mesmer
▁plaque
▁psalms
▁reside
▁soothe
▁spikes
▁stocks
▁superb
▁tensed
▁thrott
angerous
centered
clerosis
ilibrium
ondervan
rawberry
▁Panther
▁Thomson
▁almonds
▁analyst
▁antiwar
▁arising
▁asserts
▁buddies
▁cavalry
▁detract
▁giggles
▁heaving
▁naughty
▁obscene
▁phantom
▁puppets
▁rejects
▁shrines
▁spheres
▁yielded
Americans
Obviously
mentioned
▁Noddings
▁Selected
▁Soldiers
▁desolate
▁disciple
▁happiest
▁openness
▁ornament
▁poisoned
▁scrubbed
▁sporting
▁swearing
▁uniquely
▁unspoken
▁Nightfall
▁ambiguity
▁artifacts
▁awakening
▁brutality
▁collision
▁developer
▁insulting
▁liability
▁mouldings
▁murderers
▁socialism
▁sprawling
▁stimulate
▁abandoning
▁contention
▁disruption
▁envisioned
▁harvesting
▁physicians
▁reflective
▁responsive
▁retraining
▁vertically
▁blueberries
▁intensified
▁therapeutic
▁affectionate
▁highlighting
▁photographed
▁unidentified
▁preoccupation
!!
CD
***
ASH
Eth
oeb
▁SM
AIDS
Fire
heon
imar
ippy
shed
ucci
urer
xler
yser
▁Cze
▁Gat
▁VHS
▁ecl
▁mun
MENTS
Wings
ariat
atial
brand
burst
color
dding
defin
gaard
ilial
ivier
omnia
▁Damn
▁Dawn
▁Diff
▁Hang
▁LOVE
▁Mald
▁Mann
▁Oval
▁Ster
▁disk
▁mont
▁neon
▁quir
▁scap
▁turt
▁wist
Israel
Medium
facing
finder
guided
▁Bread
▁Danes
▁Dover
▁Fanon
▁Freda
▁Grind
▁Naser
▁Schwe
▁Users
▁Woods
▁baker
▁eerie
▁erase
▁giddy
▁menus
▁mustn
▁semin
▁smear
Winston
content
discipl
meralda
mercial
orative
stantin
zheimer
▁Adrian
▁Calvin
▁Coffee
▁Elwood
▁Gedong
▁Impact
▁Plants
▁Powell
▁Wachee
▁bamboo
▁indign
▁indisc
▁logged
▁melody
▁puddle
▁Asquith
▁Concord
▁Develop
▁Lucille
▁Sheriff
▁Victory
▁baffled
▁beaming
▁bourbon
▁bundles
▁closure
▁entails
▁gallons
▁gunfire
▁howling
▁ineffic
▁intends
▁mapping
▁marital
▁pitiful
▁pivotal
▁purport
▁relying
▁scoring
▁scrutin
▁stealth
▁steward
▁stylish
▁turmoil
Andersson
▁Bernhard
▁Jennings
▁annually
▁caffeine
▁flapping
▁militant
▁musician
▁profiles
▁reckless
▁sanction
▁thriving
itarianism
▁Herodotus
▁Norwegian
▁Spotlight
▁armistice
▁discovers
▁explosive
▁incentive
▁overpower
▁receptive
▁synthesis
▁Alexandria
▁Stillinger
▁Vietnamese
▁Williamson
▁ceremonial
▁confection
▁exhibition
▁exposition
Nevertheless
▁Renaissance
▁intolerable
▁productions
▁radioactive
▁tentatively
▁unmistakable
▁neighbourhood
▁substantially
▁theoretically
Sé
ARI
Ash
eek
eez
mur
▁IQ
Akil
Carl
Hill
Know
Main
best
clay
epub
etus
inyl
itud
rune
went
▁BUT
▁Bot
▁Cup
▁Kur
▁Tav
▁UFO
▁enf
▁ore
Annie
Jesse
Paell
Tommy
acerb
arely
cence
forth
ogues
omile
oplas
▁Angl
▁Cash
▁Easy
▁Eust
▁NEED
▁Poet
▁Tank
▁Them
▁Theo
▁Till
▁Tour
▁cott
▁erad
▁mama
▁popp
▁rash
▁stip
▁symb
▁unsh
alytic
erasin
hammer
ickers
opened
solete
system
▁Blind
▁Maple
▁Optim
▁Plaza
▁Video
▁annih
▁chasm
▁decad
▁gauge
▁leafy
▁pasta
▁telev
▁thorn
Russian
Strange
fortune
onnaise
uttered
▁Freddy
▁Gently
▁Herald
▁Hilton
▁Protos
▁boxing
▁bumped
▁cannib
▁cheers
▁embody
▁fluids
▁franch
▁fringe
▁incend
▁inputs
▁mashed
▁neared
▁picket
▁pollut
▁redund
▁roused
▁safari
▁summed
▁unanim
▁underp
▁vanish
▁watery
pointers
▁Belgian
▁Cynthia
▁Evening
▁Hellman
▁Kitchen
▁Otology
▁Reality
▁benefic
▁bluntly
▁boasted
▁bravery
▁grasses
▁informs
▁issuing
▁leopard
▁moaning
▁museums
▁optical
▁regimes
▁slogans
▁suburbs
▁surveys
▁wailing
Paellmann
ropolitan
▁Approach
▁Complete
▁Hundreds
▁Ideology
▁Protocol
▁blockade
▁bubbling
▁chaplain
▁delegate
▁drooping
▁efficacy
▁improves
▁inquired
▁mastered
▁maximize
▁monitors
▁outbreak
▁poignant
▁preached
▁recorder
▁solitude
▁werewolf
acceptable
experience
▁Asturians
▁Burroughs
▁Geography
▁admitting
▁doubtless
▁elevation
▁exploited
▁fertility
▁glamorous
▁packaging
▁pervasive
▁readiness
▁rewarding
▁shrieking
▁sprinkled
established
▁Laboratory
▁adequately
▁afternoons
▁apologetic
▁collectors
▁discourage
▁discursive
▁journalism
▁oppressive
▁summarizes
▁translates
▁Kathandrion
▁bestselling
▁indications
▁intimidated
▁reliability
Understanding
▁aggressively
▁insufficient
▁complications
▁enlightenment
▁indispensable
▁investigators
▁unconsciously
./
UG
bk
cu
CHE
Hit
ISE
_.,
fan
fem
orf
oyn
smo
▁CT
▁SO
▁vi
Food
Lola
Marx
Pers
ajda
arma
asms
boys
entl
heum
oids
okul
regn
safe
▁Abu
▁Esc
▁Fib
▁Rut
▁agh
▁goo
▁jol
Looks
OTHER
urger
yards
young
▁Beer
▁Drag
▁HAVE
▁Nant
▁Reed
▁Risk
▁Rita
▁Thin
▁VIII
▁Vald
▁bled
▁buys
▁chic
▁dams
▁depl
▁fost
▁noun
▁sauv
▁wits
Wesley
aviour
either
geting
illion
inette
racial
raised
▁Asher
▁Craft
▁Dewar
▁Frost
▁Garon
▁Legal
▁Lower
▁Numer
▁Round
▁Sauce
▁Sharp
▁Tesla
▁Twain
▁Wyatt
▁anten
▁blues
▁cites
▁cords
▁griev
▁grunt
▁handc
▁intro
▁motto
▁pretz
▁shark
▁tiger
▁trich
▁tuned
▁venom
ortment
painted
▁Davies
▁Dushan
▁Moving
▁Planet
▁Snyder
▁Tyrick
▁Vinnie
▁ambush
▁avenue
▁busted
▁clutch
▁coldly
▁eroded
▁exuber
▁hiking
▁hugely
▁hydrop
▁kaiser
▁podium
▁riches
▁shaded
▁sickly
▁slopes
▁snatch
▁summit
▁texted
▁wrench
Cannabis
ependent
ortional
▁Angarak
▁Climate
▁Fifteen
▁Haunted
▁Katrina
▁Memphis
▁Preston
▁Vintage
▁clamped
▁craving
▁differs
▁freight
▁gospels
▁harshly
▁insofar
▁knights
▁pajamas
▁pierced
▁prophes
▁repairs
▁tableau
▁trudged
▁workout
lightened
▁Accounts
▁deepened
▁defender
▁hardship
▁lifeless
▁membrane
▁monopoly
▁narrowly
▁randomly
▁rosemary
▁skeletal
▁subsided
▁Amendment
▁Companion
▁Criticism
▁Kalimpura
▁Liveright
▁Southwest
▁adjoining
▁anarchist
▁arranging
▁designers
▁displaced
▁parasitic
▁pointedly
▁reviewing
▁schedules
▁depressing
▁insulation
▁intimately
▁precarious
▁businessmen
▁inclination
▁manipulated
▁materialism
▁residential
▁supplements
▁Commonwealth
▁imprisonment
▁investigator
▁passionately
▁globalization
▁neighborhoods
Acknowledgments
LP
FAM
Hor
ISM
Ill
Kar
Kev
Tem
aha
epr
nob
oys
Bron
Greg
Marg
Mist
Plan
Thom
erns
imen
lost
onde
ongs
phal
rice
sust
vine
worn
▁API
▁CBS
▁Cos
▁Odd
▁imb
NOTES
Offic
Rubin
Shall
anyon
azard
brids
ietal
osers
ovies
quest
tones
uburn
ulton
xiety
▁Cole
▁Fast
▁Hugo
▁Panh
▁YHWH
▁bade
▁brew
▁clad
▁cran
▁cycl
▁drip
▁duff
▁enzy
▁faux
▁frog
▁nigg
▁pout
▁scam
▁shag
▁sten
▁tame
▁wink
Double
Follow
Master
Remove
Trivia
aimler
braith
closed
ikorps
manent
ridden
symbol
yellow
▁Drona
▁Eagle
▁Edith
▁Katyn
▁Neuro
▁Predo
▁Shape
▁Walsh
▁Wilke
▁autop
▁belts
▁coerc
▁fanci
▁growl
▁rents
▁rhyme
▁snowy
▁stoop
▁thump
▁undes
balance
enedict
igating
oplasma
orthand
servant
▁Brenda
▁Credit
▁Persia
▁Proust
▁Tupaia
▁Uganda
▁awaken
▁hooves
▁ordeal
▁psyche
▁pursed
▁respir
▁spears
▁strewn
▁unison
▁wedged
▁Billion
▁Garteon
▁Hospice
▁Install
▁Sartori
▁Support
▁abdomen
▁accepts
▁blasted
▁chatted
▁dissent
▁fastest
▁hostage
▁legends
▁nuances
▁pencils
▁torches
▁unfaith
▁whirled
mmetrical
▁Beaufort
▁Mandorin
▁Scenario
▁Shanghai
▁airborne
▁chopping
▁compiled
▁confirms
▁converts
▁creaking
▁crystals
▁dealings
▁dedicate
▁discrete
▁forensic
▁forwards
▁hometown
▁incarcer
▁mischief
▁predator
▁shortage
▁Naturally
▁carriages
▁expansive
▁filtering
▁provinces
▁regiments
▁sharpened
▁successes
▁Ultimately
▁imaginable
▁impossibly
▁organizers
▁overturned
▁repression
▁sufferings
Heterosexual
▁Transaction
▁disillusion
▁lightweight
▁persistence
▁prostitutes
▁schizophren
▁segregation
▁testimonies
consciousness
▁Perspectives
▁circumstance
▁transferring
▁advertisement
Rh
fs
Eat
ORN
iga
ohe
pie
▁MG
▁Om
▁Vy
▁gh
▁pi
Head
Orso
Term
atta
call
ilab
ogly
opal
sons
spir
turn
urea
wort
▁Bes
▁Dow
▁Eph
▁Mak
▁Nus
▁Scy
▁dew
▁foe
▁nan
▁wil
Carol
Grace
Index
Roman
Stand
Steve
UTHOR
adier
giene
given
group
hurst
ifics
inion
moral
sweet
▁Chry
▁Craw
▁Gamb
▁Kids
▁Levi
▁Mask
▁Mong
▁Shep
▁Tate
▁WALK
▁agit
▁brib
▁caus
▁chag
▁hike
▁meek
▁parl
▁rubs
ancies
create
etting
gotten
hement
prises
rently
spirit
▁Attor
▁Breed
▁Gaius
▁Iraqi
▁JAFFE
▁Param
▁Roots
▁Route
▁Sachs
▁Sixth
▁Style
▁Write
▁aback
▁botan
▁calam
▁choir
▁cyber
▁franc
▁hobby
▁loung
▁mimic
▁scaff
▁tutor
▁tying
▁vigil
Content
Islamic
aulkner
hunting
isively
pointer
▁Forget
▁Harlem
▁Holmes
▁Lathan
▁Lauren
▁Panama
▁Pinsky
▁Prasat
▁Princi
▁Sativa
▁Savior
▁bagels
▁bitten
▁camped
▁coping
▁dearly
▁flawed
▁flurry
▁jurisd
▁loosen
▁mantel
▁polish
▁posing
▁pupils
▁radius
▁subtly
▁uncond
Tomorrow
ceptions
ewitness
inspired
numbered
▁Daloway
▁Dickens
▁Matewan
▁Origins
▁Perfect
▁Summary
▁academy
▁carving
▁chained
▁discrep
▁ensures
▁invalid
▁nomadic
▁scatter
▁smeared
▁sweetly
▁threads
▁ticking
▁turnout
▁utopian
Certainly
Evergreen
relations
twentieth
▁Cemetery
▁Physical
▁Scholars
▁Speaking
▁Violence
▁diagonal
▁exhibits
▁faintest
▁genotype
▁greenish
▁hesitant
▁incongru
▁intrigue
▁pedestal
▁sketches
▁takeover
▁textbook
▁visually
▁westward
▁Beginning
▁Glasscock
▁Pinecrest
▁Ridgeline
▁Statement
▁Vancouver
▁alliances
▁cathedral
▁contested
▁crucified
▁employing
▁exercised
▁fifteenth
▁fragrance
▁generator
▁gesturing
▁illnesses
▁liberated
▁murderous
▁nighttime
▁orphanage
▁paralyzed
▁restraint
▁thrilling
Fortunately
▁Diophantus
▁committees
▁discontent
▁forefinger
▁irrigation
▁nomination
▁repetitive
▁speculated
▁successive
▁terrorists
Philadelphia
▁Philippines
▁commitments
▁distracting
▁exceedingly
▁innovations
▁prominently
▁commissioner
▁continuation
▁intermediate
▁transcendent
▁clickthroughs
▁contradictory
▁distinguishes
▁granddaughter
▁archaeological
Bu
Heb
Ton
eat
nas
voy
▁JO
Nash
Real
dala
guth
icum
isha
ulin
▁Lem
▁NOW
▁Pel
▁Raw
▁Rur
▁Vit
▁aux
▁fag
Apple
Happy
arsis
coats
cribe
drawn
ensch
oodle
▁Anda
▁BOOK
▁Caps
▁Chel
▁Madd
▁Pale
▁Tale
▁amyg
▁ante
▁clap
▁cogn
▁dagu
▁defy
▁duch
▁duly
▁fMRI
▁mule
▁shri
▁visc
UCTION
fitted
forest
ingers
iotrep
itzvot
rawing
rition
season
umably
▁Alara
▁Faces
▁Homer
▁Hyper
▁Learn
▁Rings
▁Smoke
▁Staff
▁Winds
▁fusel
▁hooks
▁immac
▁puffy
▁slows
▁smirk
▁smold
Miranda
country
eration
founded
idation
seeking
▁Alorns
▁Clarke
▁Fenton
▁Folder
▁Huston
▁Legend
▁Lights
▁Mendel
▁Murder
▁Nadrak
▁Savage
▁Senior
▁coated
▁cosmos
▁drapes
▁embell
▁eyeing
▁hooded
▁meager
▁mocked
▁pelvis
▁predic
▁ravine
▁rumble
▁scotch
▁selves
▁sliver
▁teleph
ertation
▁Changes
▁Evangel
▁Marlowe
▁Midwest
▁Soviets
▁amateur
▁beggars
▁exacerb
▁fraught
▁helmets
▁ketchup
▁memoirs
▁offline
▁pausing
▁pledged
▁pulsing
▁regrets
▁stadium
▁storing
▁summers
▁tending
▁throats
communist
iotrephes
▁Ottomans
▁Peterson
▁Pictures
▁Springer
▁Tomorrow
▁acoustic
▁dispatch
▁enrolled
▁fuselage
▁genocide
▁groaning
▁mobility
▁pancakes
▁pondered
▁prolifer
▁recruits
▁rotating
▁squeezes
▁weddings
▁Andersson
▁Cathedral
▁apologies
▁clustered
▁corkscrew
▁digestive
▁downright
▁earnestly
▁goddamned
▁graveyard
▁intersect
▁logically
▁mothering
▁numerical
▁regulated
▁twitching
▁whichever
▁Appalachia
▁Earthquake
▁Expedition
▁evangelist
▁gatherings
▁headmaster
▁moderately
▁nightstand
▁pilgrimage
▁transcript
▁typewriter
▁capitalists
▁cultivating
▁homogeneous
▁universally
▁ventilation
▁Construction
▁aristocratic
▁disagreement
▁substitution
▁transparency
▁interventions
;'
GTV
Gra
IAN
Mid
Pan
bus
ija
pay
tal
LECT
RESS
anah
arel
erno
gang
gill
irac
shaw
▁DAT
▁Dro
▁FIN
▁MWH
▁Mob
▁SHE
▁SUV
▁Ske
▁Sot
▁Tea
▁_**
▁gel
▁ome
Davis
Scott
alape
aways
fruit
fuels
herty
ogany
oiled
onics
peace
quist
quite
rance
▁Balk
▁Carn
▁Hood
▁Maps
▁Rans
▁USGS
▁Witt
▁blat
▁buns
▁dyed
▁hoof
▁kale
▁paws
▁peck
▁pint
▁rods
▁wigg
Bloody
Family
Juliet
Mengzi
Thirty
aphrod
aumont
ewater
inapur
leader
▁Brent
▁Bruns
▁Bumby
▁Cairo
▁Chang
▁Czech
▁Ebert
▁Felts
▁Galat
▁Image
▁Santi
▁Sinta
▁Wilde
▁abide
▁bends
▁cuffs
▁germs
▁godly
▁guise
▁heirs
▁lique
▁loans
▁manne
▁marty
▁merry
▁rails
▁sauvé
▁scant
▁scout
▁seals
▁slabs
▁solic
English
playing
▁Guatem
▁Lanham
▁Margot
▁Mirror
▁Strain
▁artery
▁butler
▁chests
▁eraser
▁evokes
▁humour
▁limous
▁mosque
▁parody
▁pigeon
▁postal
▁tights
▁turkey
premises
▁Carroll
▁Chomsky
▁Daimler
▁Hampton
▁Kempton
▁Kirsten
▁Neumann
▁Wyoming
▁bravely
▁crowned
▁dusting
▁flatter
▁gritted
▁leaking
▁oranges
▁playful
▁scanner
▁scarlet
▁sensors
▁sighted
▁sinners
▁tripped
▁wherein
Political
analytics
knowledge
reciation
▁Antiochi
▁Bulletin
▁Constant
▁Johannes
▁Michelle
▁anterior
▁blasting
▁blossoms
▁confines
▁dictator
▁menacing
▁obsolete
▁ponytail
▁redirect
▁schemata
▁semantic
▁sentries
▁slamming
▁striving
▁tolerant
▁uneasily
▁Bolshevik
▁Darwinism
▁agonizing
▁binocular
▁dutifully
▁eagerness
▁farmhouse
▁honorable
▁initiates
▁miserably
▁punishing
▁shorthand
▁shrinking
consciously
▁Fernandina
▁Generation
▁beforehand
▁correlates
▁distribute
▁implicitly
▁missionary
▁preserving
▁transports
▁Accordingly
▁consolation
▁dialectical
▁incompetent
▁disobedience
▁intimidating
▁standardized
▁suspiciously
▁experimenting
▁justification
▁transnational
TS
Dep
Neg
Off
RAP
Rom
Sus
Voy
aga
bee
bud
hyp
won
ées
▁Ps
▁Sr
▁lx
▁xv
._**
Cook
Séat
alyx
ammy
appa
ardo
bare
cost
flav
gall
idor
ilot
move
olas
poss
uren
weis
▁BBC
▁Due
▁Fah
▁Gir
▁Hos
▁Mes
▁NAV
▁PAC
▁Spl
▁VII
▁eve
▁gem
▁lac
Techn
ffeur
frequ
herry
hetti
onnet
oxide
stall
whose
xhtml
▁Ctrl
▁Drew
▁Erie
▁Flow
▁Glas
▁Jama
▁Jeep
▁Jock
▁Legh
▁Neal
▁Rail
▁Sear
▁Wilk
▁arth
▁bien
▁blaz
▁hush
▁pell
▁sown
Roland
amping
enburg
hering
oupage
owners
piracy
renniv
▁Feast
▁Glenn
▁Idaho
▁Lucia
▁Pyram
▁Skunk
▁Touch
▁adore
▁aired
▁casts
▁delir
▁denim
▁detox
▁groin
▁laden
▁lofty
▁mango
▁mason
▁rains
▁rainy
▁subsp
▁vegan
▁vines
Christy
Writing
believe
closure
eredith
eworthy
fathers
special
undered
▁Blakey
▁Butler
▁Castro
▁Malays
▁Maxine
▁McCabe
▁Moishe
▁Myrtle
▁Reason
▁Tanzan
▁Viking
▁Willow
▁astrol
▁climbs
▁cowork
▁heater
▁patent
▁psycho
▁rugged
▁sleeps
▁sprung
▁squash
▁sulfur
▁tenant
▁termed
▁varieg
Southern
carotene
▁Bennett
▁Emerson
▁Ephesus
▁Leeanne
▁Loyalty
▁Picture
▁Robbens
▁Shirley
▁Yiddish
▁alright
▁bounded
▁deleted
▁dishwas
▁grouped
▁insepar
▁labored
▁mergers
▁peeling
▁plagued
▁plywood
▁quieter
▁rations
▁rhythms
▁scapula
▁scowled
▁seduced
▁slaught
Interview
▁Bugleman
▁Danielle
▁Democrat
▁Oriental
▁attained
▁boutique
▁entirety
▁flicking
▁furrowed
▁homicide
▁hostages
▁mahogany
▁sniffing
▁squarely
▁squatted
▁streaked
▁vehement
Lieutenant
▁Alzheimer
▁Bernstein
▁Blackwell
▁Butterfly
▁Coronilla
▁afterlife
▁anecdotes
▁applauded
▁chauffeur
▁elevators
▁healthier
▁hurricane
▁immensely
▁insistent
▁reconcile
▁saturated
▁stressing
▁thrusting
▁Hastinapur
▁Nineteenth
▁binoculars
▁compatible
▁courageous
▁glistening
▁gratefully
▁humiliated
▁inventions
▁neutrality
▁peripheral
▁proceeding
▁submissive
▁tabernacle
▁undergoing
▁unquestion
▁unsettling
▁windowsill
▁Federalists
▁inscription
▁legislative
▁speculative
▁troublesome
▁perpetrators
▁Psychological
▁compositional
▁differentiate
▁reconstructed
▁accomplishments
DS
Ur
Ze
Ask
DAY
Rum
agh
avu
cco
inv
▁DI
▁MS
▁Oz
▁ix
Lisa
Mill
Sign
Vick
alan
amma
auve
clad
felt
frey
imus
mmie
myth
ongh
onin
udic
▁Arc
▁Bit
▁Bus
▁DFM
▁GPS
▁LHC
▁MVP
▁Nat
▁Och
▁Wet
▁alg
▁alk
▁tsp
Lynda
Trane
actor
andar
issen
scope
uemin
▁Assy
▁Chad
▁Haze
▁Lipp
▁McCl
▁Orne
▁Qual
▁Slav
▁Spir
▁lays
▁tabs
▁wail
Canada
Pretty
atters
fights
please
rament
rimmed
▁ABOUT
▁Adapt
▁Angie
▁Glory
▁Ideas
▁Lands
▁Lords
▁Names
▁Punch
▁Sheik
▁Shing
▁Trash
▁cages
▁dares
▁gaped
▁gases
▁hasty
▁kicks
▁scoff
▁silky
▁slain
elessly
ensburg
evident
knowing
ortalis
ropical
strated
▁Canyon
▁Corbin
▁Galton
▁Rapids
▁Schmid
▁Segura
▁attire
▁barred
▁chiefs
▁condom
▁coolly
▁funded
▁hotter
▁rained
▁riders
▁sagged
▁spoons
▁stoned
▁wailed
Somebody
echariah
▁Burgess
▁Burnett
▁Drywall
▁Knowles
▁Landing
▁Quickly
▁Session
▁Yoruban
▁camping
▁chimney
▁convent
▁exalted
▁grilled
▁kinship
▁panties
▁pendant
▁permits
▁prisons
▁soaring
▁trickle
▁vantage
Evolution
chocolate
▁Perpetua
▁Position
▁ancestor
▁appendix
▁banished
▁blushing
▁conjured
▁cushions
▁dismayed
▁eloquent
▁fearsome
▁flinched
▁friction
▁glimpses
▁journeys
▁landmark
▁punching
▁regulars
▁rejoined
▁reproach
▁suicidal
▁survives
▁wrenched
individual
▁Egyptians
▁Galbraith
▁Telegraph
▁Thessalon
▁admirable
▁blackened
▁enveloped
▁incidence
▁northwest
▁repressed
▁sickening
▁sincerity
▁steadfast
▁supporter
▁threatens
development
▁Dimensions
▁Diotrephes
▁automobile
▁breastmilk
▁chattering
▁ironically
▁mayonnaise
[...]
