<pad>
<unk>
<D>
<0x00>
<0x01>
<0x02>
<0x03>
<0x04>
<0x05>
<0x06>
<0x07>
<0x08>
<0x09>
<0x0A>
<0x0B>
<0x0C>
<0x0D>
<0x0E>
<0x0F>
<0x10>
<0x11>
<0x12>
<0x13>
<0x14>
<0x15>
<0x16>
<0x17>
<0x18>
<0x19>
<0x1A>
<0x1B>
<0x1C>
<0x1D>
<0x1E>
<0x1F>
<0x20>
<0x21>
<0x22>
<0x23>
<0x24>
<0x25>
<0x26>
<0x27>
<0x28>
<0x29>
<0x2A>
<0x2B>
<0x2C>
<0x2D>
<0x2E>
<0x2F>
<0x30>
<0x31>
<0x32>
<0x33>
<0x34>
<0x35>
<0x36>
<0x37>
<0x38>
<0x39>
<0x3A>
<0x3B>
<0x3C>
<0x3D>
<0x3E>
<0x3F>
<0x40>
<0x41>
<0x42>
<0x43>
<0x44>
<0x45>
<0x46>
<0x47>
<0x48>
<0x49>
<0x4A>
<0x4B>
<0x4C>
<0x4D>
<0x4E>
<0x4F>
<0x50>
<0x51>
<0x52>
<0x53>
<0x54>
<0x55>
<0x56>
<0x57>
<0x58>
<0x59>
<0x5A>
<0x5B>
<0x5C>
<0x5D>
<0x5E>
<0x5F>
<0x60>
<0x61>
<0x62>
<0x63>
<0x64>
<0x65>
<0x66>
<0x67>
<0x68>
<0x69>
<0x6A>
<0x6B>
<0x6C>
<0x6D>
<0x6E>
<0x6F>
<0x70>
<0x71>
<0x72>
<0x73>
<0x74>
<0x75>
<0x76>
<0x77>
<0x78>
<0x79>
<0x7A>
<0x7B>
<0x7C>
<0x7D>
<0x7E>
<0x7F>
<0x80>
<0x81>
<0x82>
<0x83>
<0x84>
<0x85>
<0x86>
<0x87>
<0x88>
<0x89>
<0x8A>
<0x8B>
<0x8C>
<0x8D>
<0x8E>
<0x8F>
<0x90>
<0x91>
<0x92>
<0x93>
<0x94>
<0x95>
<0x96>
<0x97>
<0x98>
<0x99>
<0x9A>
<0x9B>
<0x9C>
<0x9D>
<0x9E>
<0x9F>
<0xA0>
<0xA1>
<0xA2>
<0xA3>
<0xA4>
<0xA5>
<0xA6>
<0xA7>
<0xA8>
<0xA9>
<0xAA>
<0xAB>
<0xAC>
<0xAD>
<0xAE>
<0xAF>
<0xB0>
<0xB1>
<0xB2>
<0xB3>
<0xB4>
<0xB5>
<0xB6>
<0xB7>
<0xB8>
<0xB9>
<0xBA>
<0xBB>
<0xBC>
<0xBD>
<0xBE>
<0xBF>
<0xC0>
<0xC1>
<0xC2>
<0xC3>
<0xC4>
<0xC5>
<0xC6>
<0xC7>
<0xC8>
<0xC9>
<0xCA>
<0xCB>
<0xCC>
<0xCD>
<0xCE>
<0xCF>
<0xD0>
<0xD1>
<0xD2>
<0xD3>
<0xD4>
<0xD5>
<0xD6>
<0xD7>
<0xD8>
<0xD9>
<0xDA>
<0xDB>
<0xDC>
<0xDD>
<0xDE>
<0xDF>
<0xE0>
<0xE1>
<0xE2>
<0xE3>
<0xE4>
<0xE5>
<0xE6>
<0xE7>
<0xE8>
<0xE9>
<0xEA>
<0xEB>
<0xEC>
<0xED>
<0xEE>
<0xEF>
<0xF0>
<0xF1>
<0xF2>
<0xF3>
<0xF4>
<0xF5>
<0xF6>
<0xF7>
<0xF8>
<0xF9>
<0xFA>
<0xFB>
<0xFC>
<0xFD>
<0xFE>
<0xFF>
▁t
he
▁a
in
▁the
er
on
▁,
re
▁s
ed
▁w
▁o
nd
at
▁.
or
en
▁c
it
▁f
is
es
ar
▁b
▁of
an
▁in
al
ing
▁p
as
▁and
▁to
ic
ro
▁m
▁d
▁h
ion
le
ou
▁T
▁re
▁=
▁S
il
▁A
ent
▁"
▁th
st
el
▁C
▁l
▁@
om
▁e
am
▁n
ad
ac
▁was
▁M
▁B
ec
▁on
▁The
ly
ur
▁'
et
id
ol
▁g
im
▁I
-@
▁@-@
▁for
ir
ig
iv
ot
ter
▁H
ut
▁as
us
ow
ith
ay
▁P
▁st
▁he
ver
ation
▁with
▁be
▁R
▁that
▁D
ce
un
em
▁W
▁wh
▁F
ch
▁by
th
▁al
▁)
▁(
▁L
ul
▁G
▁is
▁con
ers
▁at
ct
▁N
ra
os
▁an
▁it
her
rom
and
um
▁J
est
▁his
▁E
ag
av
ain
ri
od
▁from
▁O
ist
▁com
▁v
▁pro
op
ill
ore
if
ld
up
▁r
ew
ere
res
igh
▁In
ies
▁de
ber
art
ard
ort
▁se
ich
▁were
ate
all
ak
ant
oc
ud
ap
▁ex
qu
ong
ab
▁ch
▁or
▁K
gh
ear
ess
ated
▁pl
▁sh
ity
ip
ive
ame
▁U
▁had
ect
ack
▁St
▁su
ast
se
red
▁k
ge
▁which
our
ment
▁le
und
▁are
ov
ian
ial
▁not
ell
▁sp
ost
▁y
ight
ia
ord
ust
ary
ine
ther
pt
rit
oun
pp
ical
▁Ch
ave
▁un
cc
▁inc
fter
ould
▁V
▁but
irst
ish
ous
te
ff
ions
so
▁comp
ide
▁ro
ure
▁whe
ub
▁ar
▁cont
ie
▁;
og
ign
▁first
▁cl
wo
▁her
ry
ue
▁its
ass
▁their
orm
▁–
ok
ork
▁int
▁res
▁He
▁:
ater
▁also
▁ab
ond
▁ad
ome
out
ran
mer
ire
hed
ru
▁us
age
du
ime
low
▁per
per
▁who
▁Th
▁one
▁have
▁sc
pl
ally
own
ile
▁rec
ted
.@
▁@.@
▁two
ition
ugh
iz
ree
ence
ts
uring
port
▁been
▁part
▁bec
ice
▁has
▁Al
▁ag
▁app
ough
,@
▁@,@
▁j
▁en
▁dis
lud
ke
▁over
▁ser
▁this
ory
ely
▁year
ations
ember
ren
ction
ound
ach
▁off
▁after
ric
▁up
land
▁play
▁des
ace
▁It
ark
over
ance
▁out
▁they
▁man
ade
▁te
act
▁other
ib
man
ult
▁im
▁Y
ph
ress
▁includ
ced
ens
urn
wn
▁would
ind
▁time
one
▁pre
▁into
vel
▁On
▁Un
ward
we
▁we
▁him
ite
oin
ates
▁she
les
▁ev
▁att
ilm
ased
▁ne
ited
able
end
ied
ase
amp
▁comm
ors
▁inter
are
rough
oy
ons
ount
ep
form
▁all
ose
ood
ang
▁more
ces
▁work
ail
old
aw
ered
ings
ve
ild
▁An
▁new
▁sec
▁bet
▁when
inal
▁fe
▁film
ick
vi
ents
▁Se
way
att
ft
iss
aus
fer
gan
▁Mar
reat
rib
▁cons
▁Ar
round
ake
▁rem
ved
▁tr
▁dec
ason
ans
▁during
▁und
orth
ubl
hip
▁again
▁As
▁most
▁game
oth
▁them
▁only
▁pr
ath
ween
ix
▁ear
ollow
▁than
ob
rop
▁sup
ational
fore
▁New
▁about
▁produ
ug
▁cent
tern
▁kn
▁ret
ey
▁char
▁song
▁can
outh
▁between
▁later
orn
▁rele
▁under
ict
▁three
hn
ton
▁col
ron
▁act
als
▁qu
▁through
▁En
orld
ook
▁num
▁so
▁me
▁acc
▁rel
▁while
▁ra
▁end
meric
▁Le
lect
▁Americ
▁fl
ters
ock
▁pos
ral
▁sub
ever
ular
▁ass
ating
▁where
▁ver
▁day
ck
▁reg
▁second
ener
aid
▁bu
▁Com
▁made
ames
ision
ived
▁Re
▁pe
hes
▁record
son
▁def
bum
▁four
▁gro
▁follow
▁season
▁ep
▁form
▁some
▁such
▁am
ool
ished
▁mov
▁before
▁tra
▁mus
▁Sp
▁writ
▁there
hen
ics
▁Jo
io
▁spec
iel
ike
▁sy
▁years
▁team
▁At
ode
ual
▁This
ident
▁/
▁lar
▁album
▁Sh
▁ind
ros
ily
owever
▁ent
ning
▁used
▁call
ank
▁sur
ific
▁ac
▁high
ury
▁publ
▁being
▁epis
ained
▁then
led
ten
velop
aj
▁do
▁loc
▁exp
ife
ris
▁against
▁inv
▁bl
▁pres
▁show
▁number
other
▁After
▁charac
ious
▁sever
▁add
▁co
▁set
ek
ince
ject
ars
▁became
▁rece
▁Brit
ause
▁lead
▁perform
▁no
▁including
▁sing
ather
ins
▁—
ines
rans
▁United
▁found
air
▁well
ale
▁mon
▁rep
▁Sc
▁pol
▁back
▁both
ier
▁cap
▁series
ober
ram
▁Con
ik
ower
▁ship
ement
its
ert
ired
ures
ley
▁Wh
▁She
ivers
▁main
pen
▁min
iet
der
overn
▁did
ven
▁go
▁cre
elf
olog
▁imp
▁develop
▁met
az
ities
▁Eng
▁long
iver
any
ll
ised
erm
ting
uch
ared
ann
ane
ird
▁em
▁John
▁mill
ful
▁air
▁mat
▁episode
tend
irect
▁said
▁stud
▁many
ute
▁bro
ash
ative
▁dep
▁car
▁could
▁orig
▁war
▁contin
▁Cl
▁several
▁American
though
▁Ind
▁dif
ield
ah
▁inst
▁pop
ouse
ise
emb
▁known
ty
ually
▁Aust
til
▁conc
iam
▁War
view
erson
▁ob
ued
▁Ger
▁sm
▁return
▁any
▁began
▁Z
ern
▁comple
▁design
▁De
▁desc
▁sign
ople
chool
ross
my
ism
oot
▁est
▁trans
ccess
▁prov
aking
▁feat
▁Bl
ided
▁inf
anc
▁run
▁early
▁art
ized
▁dist
▁music
▁own
▁near
▁released
▁until
▁called
▁eff
▁Col
imes
▁US
rid
ists
▁resp
une
▁bel
enn
▁pass
stem
ured
▁fin
ially
▁May
▁ph
ution
▁down
▁disc
ments
▁crit
osed
xt
▁gener
▁direct
▁along
ium
▁ins
▁million
ger
ull
▁British
ax
▁group
▁offic
▁German
vent
▁fam
eb
▁these
ajor
▁mod
▁may
▁$
cept
▁Ad
▁open
ange
▁mil
▁Be
▁poin
uc
gg
▁land
▁sim
▁hist
▁Aug
▁govern
▁Sept
▁success
▁September
▁August
ets
▁Ap
▁World
▁States
ible
ink
erv
▁gu
▁oper
▁count
▁attack
▁same
▁use
ys
wards
▁describ
▁people
▁Is
▁For
aced
▁character
yp
amed
▁All
▁because
els
▁vi
▁like
▁serv
▁Ju
▁Fran
ged
▁around
▁though
▁start
▁ed
▁Pl
▁Q
ner
▁win
▁km
▁const
ues
ring
▁took
▁occ
ruct
aving
▁Austral
▁batt
▁Oct
▁ann
▁support
ove
▁Nov
▁following
▁six
▁north
▁ele
▁Car
▁However
▁system
▁appear
uss
▁final
▁received
▁class
ined
▁October
▁head
ives
▁prom
▁consid
ene
ants
rad
ling
ility
ically
▁Dec
▁Pro
▁ever
▁state
▁build
ret
▁each
anu
▁ext
▁five
rist
▁aut
rol
▁York
▁century
ina
▁var
▁bo
▁area
▁will
▁They
ately
▁small
get
oss
▁partic
▁life
▁North
iving
ril
▁report
▁]
▁Me
▁[
tle
ored
▁By
▁June
ians
ording
▁city
gin
▁mar
ped
▁King
▁major
▁week
▁public
▁July
ission
▁%
▁conf
▁Har
▁band
ection
▁ref
med
▁November
inc
urch
▁rest
▁Comm
▁Will
▁world
▁Ph
▁med
▁since
esp
▁single
raft
raph
por
▁April
ble
▁Mc
ried
ains
lish
▁det
▁March
omet
▁just
▁last
ected
ural
ional
hest
▁Ed
aim
▁turn
ively
▁hel
ilt
▁allow
▁po
▁Can
cl
ient
vious
▁Ge
▁left
▁large
▁line
ats
▁differ
ales
▁South
▁care
▁south
▁adv
ified
▁During
▁dr
▁str
▁book
▁vers
▁school
empt
▁sl
ague
▁December
▁third
avy
▁incre
▁month
▁due
▁appro
▁played
▁much
row
▁event
▁Pr
▁if
rote
▁another
▁Janu
▁January
▁included
▁what
▁..
▁place
▁based
▁short
ne
▁II
ony
▁government
▁expl
▁person
ball
▁wrote
▁When
▁track
apan
▁camp
▁tit
▁Eu
▁old
▁bre
alf
▁name
▁death
▁port
▁elect
ently
▁...
rent
ple
▁Japan
▁eng
ience
▁won
▁Or
by
▁child
▁prot
▁lit
▁prog
▁kill
oad
▁story
ideo
ages
▁power
▁Bro
▁Te
▁review
ody
▁vis
ital
▁home
ott
▁led
ps
eng
▁described
▁requ
oman
▁previous
▁family
▁gun
rand
tain
▁way
yl
▁named
▁right
▁now
▁Mus
▁dem
urther
iod
iven
▁men
▁even
ilar
▁make
embers
▁organ
▁Gu
reen
ister
ont
cy
iversity
omin
▁attempt
▁best
itions
▁cour
▁repl
ivision
▁opp
▁leg
rench
▁games
ior
ached
▁term
▁And
▁command
▁hand
ival
▁Fl
▁poss
mp
▁dam
▁belie
▁very
ox
▁His
▁those
▁Feb
▁Europ
▁par
▁Febru
▁February
sh
▁iss
▁still
▁top
▁species
▁next
▁Christ
▁effect
riend
▁view
ched
▁There
▁National
oci
▁original
aken
▁We
▁spe
ature
ences
lu
▁water
ness
▁addition
▁join
▁Bar
▁Europe
▁list
au
▁period
▁within
alk
▁members
▁mark
eter
▁deb
▁held
▁built
▁French
▁exper
hor
af
▁Am
▁release
▁Par
▁although
▁late
▁former
rew
▁match
▁great
ridge
augh
ney
▁cur
▁dest
▁sold
uted
tended
▁video
ards
▁caus
▁West
line
▁storm
▁cover
▁X
ves
ech
▁init
▁role
ropical
▁tri
▁William
self
▁came
▁estab
hel
▁Her
▁days
ances
▁result
▁present
▁mid
na
lev
▁control
aged
oon
ption
ulation
▁stand
▁real
▁polit
▁however
▁Min
itary
aster
ham
▁prop
let
ense
▁Man
atic
ides
▁few
▁town
▁wind
▁Geor
omb
▁you
ograph
▁tw
▁side
▁sk
▁continued
▁equ
▁often
▁post
▁Ear
ays
▁local
elt
▁Char
ator
▁among
▁Air
▁similar
ruction
ead
ches
▁Mich
ract
▁hum
▁av
▁claim
estern
▁No
omen
ung
▁England
▁&
reet
read
akes
▁different
side
ese
ops
▁my
▁del
ler
▁Rec
▁beh
ology
par
▁typ
▁further
▁sent
esc
▁Dav
ots
ested
▁level
urs
▁fre
▁considered
▁take
▁law
ery
▁El
▁tot
gy
▁career
▁One
ront
▁production
arm
me
▁half
ices
▁Park
▁Co
▁ant
▁City
ampions
▁having
bo
▁Acc
▁English
▁mag
▁road
▁moved
▁east
▁dra
ering
▁every
▁west
▁without
▁Although
rodu
▁cr
▁Cent
▁appe
▁plan
▁player
ining
▁cor
▁become
▁position
▁arr
▁history
▁version
vers
▁tro
▁Cal
ford
▁Ang
ones
ondon
▁cast
▁Count
▁el
▁influ
ize
▁arm
▁London
▁house
yle
▁sound
rig
▁fore
▁commun
resent
irc
app
▁Batt
▁gr
▁club
roy
▁sugg
atter
▁strong
▁invol
aul
ai
▁written
aining
▁With
▁bas
▁stat
▁less
oung
▁announ
utes
rest
▁foot
▁River
iqu
ald
▁order
▁refer
iety
iment
ges
▁prof
craft
▁Canad
ae
▁aff
▁point
▁tem
sequ
▁given
▁rad
▁low
▁trad
▁hig
▁want
▁Gener
▁University
ille
▁ke
▁gave
▁pat
uck
isc
▁import
▁Pol
▁never
aff
▁While
▁chang
▁defe
ories
▁soc
▁returned
ration
▁Ab
▁vict
▁total
▁fact
▁High
▁good
ention
▁Tr
▁company
▁fire
sp
▁country
ailed
▁went
▁comb
ison
cess
▁friend
ours
▁Ex
▁capt
rick
▁published
aun
▁produced
levision
▁find
con
aying
▁reported
▁origin
▁Sm
aign
▁lost
▁stated
▁common
▁program
ington
▁light
yn
▁particular
ape
▁ord
echn
▁adm
▁include
ests
▁According
▁larg
ably
urric
▁compet
▁er
used
▁recorded
ief
▁press
▁building
▁need
▁Ste
▁Ne
▁bus
▁project
hing
▁forces
ument
▁nort
▁ships
▁should
▁using
▁eight
▁performance
iness
▁Sw
▁service
▁popular
bs
▁ide
ploy
▁These
▁times
osp
▁making
▁ten
▁aircraft
▁himself
oyal
▁fun
▁author
▁father
atch
▁military
▁Australia
▁Sec
▁anim
lear
▁battle
ampionship
▁Jack
ned
▁Ass
▁lim
▁sit
▁songs
▁somet
▁read
▁Af
outher
ither
ords
ensive
▁critic
▁development
▁sw
▁gl
▁how
▁General
alth
eth
▁sol
itive
eder
ases
quad
oll
▁Cor
▁State
outhern
▁James
▁cross
cer
amb
▁represent
▁Sy
▁ground
▁destroy
acy
▁star
▁ft
▁remained
astern
▁ste
ks
rie
▁characters
▁Army
▁national
▁Pres
ries
▁get
work
▁months
▁suff
▁gen
▁Bo
▁died
aur
▁Gl
▁ter
▁Comp
ublic
▁developed
▁title
dom
▁sum
▁chart
fic
▁campaign
ream
urricane
▁force
▁League
▁children
▁introdu
lands
ency
▁pra
▁tour
▁promot
itted
isted
ael
▁son
▁signific
▁across
▁red
ression
▁away
hern
▁relations
▁obs
▁histor
▁official
▁Division
▁field
▁fav
▁felt
ole
lege
▁America
▁noted
▁fac
▁Sim
▁night
alt
▁announced
most
▁reached
▁Russ
▁intern
▁Sup
▁County
▁created
▁areas
com
▁Rep
▁Mon
▁television
▁coun
▁Road
▁Japanese
▁station
hem
ressed
▁successful
▁Mad
▁rock
imately
▁val
▁Reg
▁Gr
ising
▁various
▁bar
▁Street
▁’
▁political
▁seen
▁followed
▁aver
field
iber
iting
▁too
▁rank
ett
▁East
ope
▁performed
cast
▁Rober
▁cult
ization
▁served
▁players
▁front
reg
▁rev
ality
▁George
▁cond
▁prim
▁full
▁decl
ination
▁black
elling
▁begin
duct
▁fle
▁Ser
▁put
▁circ
▁conv
▁earl
▁Per
olution
▁To
▁Hen
▁cost
abor
idence
▁process
▁see
▁non
▁div
▁style
ying
▁look
▁Phil
▁seven
▁vol
▁aud
▁killed
▁Em
▁cy
rict
▁help
▁let
lished
play
▁throughout
▁Bill
▁taken
▁tropical
▁able
ana
▁fight
▁discover
▁agre
ecut
ertain
▁little
▁wid
▁becom
▁fem
▁age
▁significant
urg
▁Sch
▁meet
▁hit
▁ident
▁Thom
ways
irl
▁techn
▁special
▁cop
▁writing
oice
▁struct
▁David
▁established
▁thought
▁Part
▁Act
▁broad
enced
▁Mor
▁mm
▁appeared
▁does
▁coll
▁entire
▁Australian
aval
cil
epend
▁young
▁coast
▁points
▁miles
▁!
ius
▁body
▁award
less
▁impro
▁Rich
▁route
▁member
odes
ought
▁Med
ground
ript
▁women
▁activ
▁range
ster
▁Pe
ivil
▁You
▁caused
▁started
ask
▁decided
iers
blem
▁features
day
lected
▁Afric
▁general
▁pain
▁Qu
▁eventually
ators
iec
iron
int
umb
men
conom
oph
ogn
uk
▁Royal
den
▁race
▁arch
▁vot
here
itar
▁grow
▁manag
▁feet
pped
rison
gether
▁together
ush
▁added
▁Hist
▁House
▁tre
▁hold
▁cut
bert
ivid
▁white
▁once
ament
▁nov
ample
▁formed
▁arg
▁located
▁stri
reek
urb
▁conn
▁modern
off
▁Black
▁enc
▁instead
dle
▁Port
head
rought
aces
▁round
▁esc
▁ball
ara
emy
▁Intern
▁mix
▁important
▁pri
▁crew
cing
▁saw
▁action
▁completed
ee
▁redu
▁Ital
▁playing
ects
▁Indian
ids
oney
cent
rated
▁Other
ells
ata
▁insp
▁base
▁population
▁mater
▁My
▁mot
▁surv
▁Michael
▁voc
▁ask
▁rather
▁occur
▁opened
▁stage
▁behind
▁others
ray
▁fall
▁guns
▁ren
asing
ceed
▁brother
wood
ements
igned
▁comment
lin
▁lik
stit
▁born
▁fif
▁site
▁works
▁live
▁loss
▁France
▁bomb
▁worked
ficult
▁heavy
▁miss
▁pred
▁School
medi
rap
▁lack
▁subsequ
▁party
▁problem
nder
lection
▁difficult
▁close
▁Wash
▁construction
▁know
▁Nor
▁Some
▁relationship
▁host
▁weeks
istic
▁San
▁originally
▁separ
arch
▁associ
▁upon
▁pract
co
▁reb
▁Henry
▁leading
▁appoin
▁accom
▁vill
▁almost
▁mer
▁Robert
▁peak
orts
▁Ale
▁inj
▁damage
lic
unk
▁scored
▁fourth
osition
▁inform
▁Music
▁reve
aps
▁provided
▁Best
ming
▁case
▁Vir
▁Star
▁clos
▁Battle
board
▁engine
▁goal
▁creat
▁accept
▁Red
▁mi
▁invest
ica
oring
▁scene
ellow
▁Desp
▁human
angu
ule
ino
ological
▁brought
▁free
▁individ
▁featured
ula
▁mother
▁President
▁Rou
▁king
ama
▁least
▁Paul
▁working
▁allowed
aut
▁laun
▁resul
▁Mil
▁average
▁Cap
▁towards
▁mult
▁wanted
▁indust
▁tradition
aves
▁region
▁business
▁Washington
▁Hol
iding
azine
▁Que
▁Ag
▁ve
▁quick
▁troops
▁placed
▁either
▁ce
▁respect
ving
▁office
▁critics
ky
▁Bel
▁avail
▁hon
antic
▁reach
▁profess
▁runs
▁example
▁material
▁econom
▁recogn
▁far
ened
▁wife
ze
go
earch
to
▁neg
chie
▁estim
ential
▁army
▁foc
right
▁Despite
▁sex
▁interest
▁Follow
▁Cour
▁sour
ength
▁generally
▁mass
▁joined
▁dou
▁rail
quadron
▁Ham
▁proper
ills
▁Angel
uff
enes
▁current
▁dev
ourn
▁Hall
▁events
▁Cup
▁believed
▁Game
itch
of
▁particip
rey
be
▁fig
▁Following
▁Ke
▁First
ville
▁Mary
▁Dr
▁z
▁victory
▁replaced
▁Lou
▁Great
artment
▁designed
▁mph
▁grad
iction
▁Je
▁rul
itte
▁soon
▁nomin
sc
▁island
▁Gro
▁fund
xic
▁La
oor
erous
▁hours
▁European
▁Two
▁employ
▁president
▁Mal
▁room
ification
▁involved
aled
uel
▁surf
val
aper
▁finished
merc
▁stru
▁Championship
inn
inist
asion
west
▁Mart
inf
▁Play
▁break
▁Roman
▁hor
rain
aren
iff
▁saying
emor
arn
▁court
▁shot
▁Ber
▁threat
▁opening
▁score
▁regular
▁Dan
BC
▁desp
▁director
▁length
▁Met
▁Mac
▁Don
▁indic
leg
ades
cher
▁Scott
▁conduct
▁largest
▁travel
▁contrib
▁hom
oul
ki
▁possible
ecutive
▁ill
ude
▁highway
▁minutes
now
▁Route
▁southern
ishing
▁dro
▁Cro
▁hy
icle
▁Val
▁highest
▁remov
▁From
▁earlier
▁test
▁Atl
▁initially
ago
▁Sing
▁ly
▁available
▁percent
▁particularly
ander
antry
▁Wil
▁hard
anned
▁sequ
▁training
▁Republic
▁must
▁forced
▁exist
ply
▁Mid
ipp
hib
▁Mag
▁Kingdom
▁Charles
▁Navy
asy
ography
▁park
▁°
rian
bor
▁respons
ateg
▁ended
rac
▁McC
▁quar
▁Off
▁turned
▁wall
▁Thomas
▁exc
▁social
▁International
uture
▁But
▁studio
▁Pal
ems
iforn
▁Res
rag
▁Dep
ios
▁change
▁White
▁langu
▁Virgin
▁passed
▁praised
▁super
▁priv
▁bill
atural
▁piec
▁increased
▁object
▁Brown
rup
▁educ
▁hurricane
▁regard
▁northern
heast
▁keep
▁phys
▁central
ights
▁Church
itor
▁novel
▁relig
▁Canada
sel
▁speed
▁appearance
▁Californ
▁units
rem
▁past
ership
▁Rock
▁Sl
key
▁stop
▁church
▁Sen
ended
▁cou
▁immedi
▁Bay
uter
▁sym
ston
▁Mo
ocr
▁Smith
▁disp
▁meas
▁ordered
aughter
▁Mer
▁treat
ique
▁Sam
▁taking
ference
▁Richard
ittee
rying
▁independ
▁love
▁Alex
▁signed
▁move
ilities
▁California
▁achie
etwork
▁better
ump
▁pers
▁Union
itz
aker
▁ap
▁God
▁Govern
ecess
arily
▁winds
▁inn
▁Island
▁commerc
▁enough
▁wat
▁positive
ears
nel
▁Court
ume
▁according
▁hous
▁spent
elled
▁going
▁pot
▁above
▁Bra
anks
▁slow
▁outside
apt
▁films
▁Tom
▁Vict
▁Up
▁Cong
▁feel
▁told
▁football
ma
▁Award
quare
berg
▁clear
▁previously
▁quest
▁states
▁recording
uation
▁mean
anding
▁Associ
▁Ac
▁nine
het
▁pur
usion
▁subject
▁Art
atin
▁failed
ows
▁assist
▁come
▁Company
▁required
reng
osing
▁elements
▁prob
van
▁ey
ida
▁Stud
▁cru
alion
▁India
▁lower
▁Germany
▁reviews
▁phot
▁parts
▁interview
▁Mark
edy
▁Gold
▁Peter
▁itself
▁sil
▁Christian
▁nar
nes
▁think
ranch
ship
▁directed
▁abs
isl
▁esp
▁flow
ibility
▁despite
▁cred
amer
▁contract
oke
▁NY
▁That
▁debut
▁?
▁£
▁Times
▁Pat
erved
▁access
ready
leb
▁Cast
▁beginning
oid
▁bi
▁groups
▁College
▁viol
onna
▁Hill
▁section
▁UK
▁Sov
ability
hester
▁whose
▁Br
asons
▁claimed
▁Western
▁international
▁asked
▁lines
▁transfer
▁prevent
▁Dem
▁streng
▁screen
airs
▁give
▁Soviet
▁che
onse
rief
▁beg
▁unc
▁key
▁additional
▁future
▁Film
▁Grand
mar
▁Mexic
▁league
▁whom
▁Frank
▁op
▁Do
▁Span
▁gold
▁poor
▁Ben
▁Awards
▁fort
lying
▁introduced
▁evidence
▁don
▁prem
ites
onst
▁sea
▁idea
ex
▁quickly
▁cal
atory
▁already
▁center
▁Soc
▁bridge
▁frequ
▁Force
usp
▁Most
▁election
▁product
▁occup
eck
▁pil
▁Coun
▁except
back
▁deal
unt
irth
eum
ecially
▁pen
▁musical
▁usually
▁western
▁arrived
▁emb
aring
▁Rob
eal
▁block
▁radio
▁Britain
liam
▁civil
▁cycl
ergy
ully
▁Over
▁female
▁sometimes
▁Day
▁study
▁food
▁response
▁decision
▁money
▁Pac
▁magazine
▁especially
▁Hot
▁issue
▁Later
asc
liament
▁Victor
▁lab
▁Im
▁surface
gen
▁liter
▁flood
▁-
rack
▁might
▁Chic
aint
▁env
▁Tra
▁guitar
▁carried
▁Bur
▁shows
▁community
ena
iter
▁construct
▁estimated
▁arran
▁remain
aries
▁Mill
▁remaining
▁eastern
▁minor
ha
▁defeated
▁determ
▁Rh
inent
ession
▁Virginia
▁Early
▁approx
igan
▁larger
raw
ulf
▁becoming
▁rap
▁wood
▁complete
▁Mount
rab
ror
▁police
▁suggested
porary
▁media
▁pressure
▁entered
▁shoot
▁teams
rics
▁Los
▁Just
▁commercial
▁anal
▁Inf
▁doc
▁latter
NA
▁market
erve
▁lo
ands
▁consider
▁students
ises
▁surround
▁investig
▁brief
▁concern
▁personal
▁Second
inct
▁bur
▁If
▁Tex
▁certain
▁prison
▁discuss
▁acqu
▁Fle
▁Jackson
▁effects
▁complet
▁hop
▁appointed
▁der
alled
▁summer
▁episodes
▁Cont
▁prior
ederal
incip
▁Flor
▁sat
▁tar
change
▁emer
▁staff
enth
lymp
▁size
▁Louis
ores
▁changes
ulated
▁commission
omm
sy
imate
tt
▁winning
▁limited
▁scenes
▁Olymp
▁fleet
▁river
▁leaving
▁destroyed
iser
▁deg
▁pay
▁draw
▁Club
▁den
▁rid
lo
que
▁Spanish
▁self
ga
▁rights
su
ournal
▁provide
ires
▁writer
rigade
▁polic
sen
▁type
idents
▁fail
ension
▁date
▁trib
▁territ
ari
▁Kh
▁proposed
oms
▁girl
rd
▁influence
ties
▁Green
▁Party
▁overall
▁tax
▁kil
▁transport
▁structure
▁contro
▁equip
▁Ter
▁Du
▁division
▁script
▁br
iral
inese
▁Association
▁agreed
▁anti
▁intended
▁jud
▁Pri
▁bow
▁Edward
ift
▁running
icles
ending
▁Chicago
▁daughter
▁big
▁broadcast
▁purch
▁nearly
▁supported
▁Many
atives
AF
▁Adm
▁di
▁research
▁deep
▁wide
imum
▁establish
▁Ro
▁helped
▁married
▁movement
▁awarded
▁Chinese
▁multip
▁Ir
▁Song
▁Council
ili
▁Oper
iles
atively
acing
irm
▁favor
▁create
▁intens
▁diss
▁Sal
▁bird
▁Enter
▁dark
▁susp
pris
omer
ny
teen
▁stars
che
▁longer
▁language
▁higher
▁cat
▁planned
mon
▁compared
▁captured
▁increasing
▁Ev
▁fans
▁course
▁conclud
uz
▁changed
▁Super
▁Serv
▁Emp
▁Johnson
ounds
▁experience
▁approximately
▁related
selves
▁done
▁feature
▁fifth
enty
▁living
▁Kore
▁themselves
abit
▁History
▁producer
bers
itt
tained
▁temper
arent
▁space
▁tracks
▁mostly
▁Pacific
isions
▁withd
▁Inter
▁Back
uth
anced
▁Billboard
olic
ij
ss
▁thus
▁App
▁Bet
▁Not
can
▁woman
▁dead
umn
▁Mont
▁operations
▁imm
▁remains
▁syn
▁bring
thing
▁our
▁quarter
▁natural
▁whether
vin
imin
oint
▁ult
▁concept
▁weap
▁dram
▁Final
▁Scot
anded
▁probably
▁soldiers
▁ran
▁copies
rast
bour
▁Sun
▁buildings
▁leader
▁face
▁extended
▁boy
▁voice
▁Since
▁lyrics
▁forward
▁depart
▁Kn
▁complex
▁board
▁Atlantic
▁react
▁battles
iring
vey
▁heav
▁chall
▁issued
riage
ging
▁countries
▁really
ospital
rate
▁suffered
▁Lake
▁Congress
▁cm
▁Love
▁Fort
▁Franc
▁Florida
▁goals
▁Sever
urt
▁includes
▁immediately
▁meth
▁attend
▁Big
▁Both
hood
▁breed
▁manager
▁private
▁mixed
▁capital
iant
▁Jew
▁Jim
▁officers
▁likely
▁Old
▁cann
▁distrib
hold
▁Ant
ien
▁mach
▁Queen
de
bury
▁removed
▁Texas
▁plant
▁initial
▁celeb
▁Sea
▁increase
venue
▁Town
▁health
▁subsequently
▁Dist
▁leave
▁plans
ria
▁focus
▁always
▁coin
▁Law
ections
▁network
▁services
▁status
▁via
▁Trans
▁compan
▁Tor
rial
▁China
▁visit
▁Pet
▁location
▁mount
▁Mr
order
ams
▁Another
iation
▁flag
▁problems
▁Lord
▁How
▁Camp
▁Earth
▁instr
▁offered
well
ously
▁model
aily
▁norm
etic
▁terms
▁Const
▁colon
▁mur
▁approach
▁village
▁something
▁administ
ounted
▁tons
▁fell
wer
▁Wood
▁Boy
ctor
▁tor
ironment
▁Ol
▁sch
▁majority
▁Tur
▁professional
orning
▁counter
▁Canadian
▁Its
adium
▁Rail
ibr
▁Africa
▁got
▁Mur
burg
▁cause
aches
uries
▁consist
▁inters
▁damaged
▁meeting
▁Gre
▁job
▁appears
▁adop
▁minute
▁ranked
olk
▁lay
▁Center
▁individual
uf
▁composed
cean
oes
▁Squadron
▁revealed
▁Highway
ify
▁ang
▁flight
ste
▁attacks
itect
▁Russian
▁plot
▁raised
▁discovered
reak
lor
umed
▁Rad
▁Mel
▁financ
▁respectively
▁Kent
▁makes
pan
▁Carol
▁Martin
▁Central
▁Sir
▁numerous
▁III
▁associated
gar
▁altern
▁takes
▁domin
▁Angeles
▁Bow
▁inspired
▁needed
▁anc
▁lived
oe
ault
▁grand
▁launched
▁yet
ription
▁cand
▁nature
▁amb
▁pow
▁dig
▁occurred
▁coach
▁contains
▁DV
▁veh
estival
▁bene
▁shown
▁attempted
uals
▁attacked
▁Des
uments
▁moving
▁conditions
▁upper
▁hour
▁TV
ka
iest
imb
ken
▁gra
▁sales
ective
down
▁Group
▁Miss
joy
▁Year
▁collect
▁Del
aught
▁Tour
orce
▁issues
▁birth
▁Rev
▁whole
▁sal
▁i
▁exam
izing
▁cer
▁information
▁farm
▁slight
▁yards
▁Empire
▁Out
▁box
urity
▁mom
vert
▁referred
uing
win
▁critical
oly
▁incor
reme
▁Under
▁Gar
▁numbers
▁finally
▁smaller
▁elected
▁defeat
▁selected
▁sen
▁scient
▁resulted
▁stay
▁bad
▁grant
▁qual
▁Penn
▁active
▁singer
▁princip
kin
▁standard
▁secret
▁pit
itation
▁Italian
▁mission
uated
▁industry
enant
▁largely
▁ens
▁operation
▁sem
andon
▁Jose
▁prec
ortun
▁link
oura
▁assigned
use
onic
▁saf
▁legisl
▁earned
▁thr
▁commented
itude
▁expected
▁male
▁DVD
▁Corps
iled
▁roy
▁Dis
▁audience
▁suggest
▁listed
▁gre
oud
▁Crit
▁Arm
▁purp
▁covered
▁unable
irection
▁sched
▁traditional
▁heart
▁education
▁Cr
gr
▁trade
▁newsp
▁artist
▁double
▁friends
▁closed
▁Viet
▁refused
▁underst
ya
agon
▁aw
▁attention
ounts
▁method
▁recover
▁primary
ighter
ogue
▁kind
▁sister
▁talk
▁Michigan
▁Pre
tered
▁reason
ffic
▁officer
▁below
▁plat
▁contem
hips
▁Wales
▁enjoy
▁ability
▁depression
▁meant
▁Mass
▁declared
▁performances
▁walk
▁Nort
▁blood
isher
▁More
▁Cath
▁giving
▁letter
▁compl
▁word
undred
ples
▁fighting
▁middle
▁Cle
▁commander
▁religious
▁books
▁theat
▁max
▁hot
▁sett
▁rate
▁Ox
▁Arch
▁Step
oo
▁Long
▁records
ils
▁matches
▁constit
▁Acad
▁names
ona
aped
▁Bec
▁Test
▁Democr
▁produce
▁question
▁Fer
▁Care
antasy
▁competition
utch
▁centre
▁serious
▁unit
ux
▁Team
odies
▁disapp
▁vocals
ims
▁Minister
irt
▁Zeal
iences
▁touch
▁Several
▁mention
ounded
▁ri
▁Major
osh
ector
▁account
▁document
▁Cons
▁abandon
▁Wal
road
▁rapid
icted
▁energy
▁necess
ares
▁mor
quar
▁kilomet
ervation
▁Kenn
echan
▁Fore
▁constructed
▁dut
ening
▁theme
▁ris
oses
rug
rier
▁Fox
▁Sum
ette
▁royal
▁Time
ishop
▁pick
▁stra
▁nearby
▁highly
▁Zealand
▁separate
yr
▁Er
▁continue
vention
▁prep
▁So
▁chief
▁drum
▁effort
ails
▁cas
▁presented
▁Haw
edic
▁Sar
▁tur
▁combat
oper
▁positions
▁Mexico
▁African
▁reduced
▁annual
ether
▁Bu
▁controvers
ibly
▁Chris
▁Matt
▁directly
ieut
▁Ma
▁Four
▁levels
cel
▁means
▁neigh
▁cle
▁Wall
▁notes
▁attended
▁sevent
▁practice
▁tried
shire
▁compos
uit
emorial
▁forest
▁har
▁fast
▁nuc
▁edition
▁train
▁Lit
▁Brad
▁Dar
acher
ado
▁Chart
▁Tre
▁Bob
▁twenty
vement
▁metal
arents
▁Madonna
▁accepted
osen
▁watch
▁stating
▁architect
▁text
▁movie
rical
▁Hel
▁repe
▁candid
isation
track
▁concert
▁Scotland
▁advance
stitute
▁pair
▁Jones
▁portray
▁direction
irmed
▁fr
house
ersey
▁seem
▁dism
▁schools
▁Their
▁legal
▁Ann
▁reject
ani
eway
lict
inem
wide
▁asp
ih
▁Manc
icip
fall
▁ge
▁horse
▁Cross
▁thick
illery
▁marriage
▁recomm
▁+
aging
▁Greek
▁Department
▁efforts
light
▁college
▁managed
▁Dou
awn
▁purs
like
▁Go
icient
utions
▁wing
hy
▁resulting
▁ending
irit
ieutenant
▁Three
band
▁showed
▁dropped
▁responsible
▁Post
▁Mic
MS
▁Infantry
▁display
▁nation
illed
▁inside
▁Foot
ita
▁kept
▁cases
▁environment
▁Lad
▁cust
▁Bost
▁culture
▁rare
▁meaning
▁rat
▁Leg
▁cyclone
olf
▁dom
▁incorpor
▁begins
▁variety
ceeded
▁morning
pe
▁subst
pass
▁cerem
▁houses
▁Stone
▁forms
▁championship
▁Service
rane
▁words
▁schol
▁Creek
peror
▁arrest
▁Hung
▁Williams
▁oil
▁Records
▁Secret
▁inches
▁marked
cend
▁continues
▁spl
ini
▁yard
▁science
▁BC
▁perm
gl
▁symb
▁News
ecting
gypt
ols
▁bank
▁Hal
▁Parliament
▁Stan
▁uses
▁economic
▁Sur
writ
cle
▁source
▁Games
thel
bed
▁Fin
ras
II
▁Tro
▁quality
▁Pan
▁Tri
▁defend
ulations
▁lear
▁hundred
▁settle
▁starting
▁conducted
▁impact
▁Book
thur
▁specific
▁strugg
▁allowing
wh
▁Egypt
▁Society
▁beat
▁presence
▁Sol
▁du
▁Jer
▁Oh
▁sides
▁amount
▁viewers
▁captain
een
sych
▁dance
▁metres
ingu
▁chap
▁univers
▁Lu
▁exhib
▁suppl
▁rule
▁Prince
▁Ver
▁ple
▁Southern
▁Stephen
▁distinct
▁Georg
▁multiple
▁Sat
ding
▁transferred
▁potential
▁Committee
▁foreign
▁Latin
▁contrast
▁Oxford
▁peaked
inet
itiz
▁enemy
▁your
arian
▁Sil
▁traffic
▁mess
▁becomes
▁Spec
ping
▁owned
▁founded
▁greater
▁Joseph
▁things
▁Like
▁vocal
▁Admiral
▁opt
▁portion
▁concluded
▁castle
very
▁Camb
ider
ym
▁property
iance
▁respond
▁scoring
▁stories
▁Boston
▁encoun
▁attempts
rong
anes
▁relatively
kn
▁Tw
▁Chief
▁Manchester
▁primarily
▁demonst
▁Harrison
▁Jeff
▁federal
▁financial
ograp
▁Class
▁Form
ressive
ellig
▁Captain
▁Because
▁Before
▁actually
▁animals
▁Swed
▁Hurricane
▁tourn
▁observed
▁Win
▁lif
▁collection
▁Tim
▁opportun
fect
▁Bat
▁Vietn
▁titled
▁Den
▁featuring
istics
▁writers
▁write
▁Def
eds
▁journal
▁wa
ees
▁Bridge
▁strength
▁Fred
▁wor
umber
▁inch
▁mechan
▁weaken
▁Ott
▁spot
▁paid
▁distance
▁situation
▁premi
▁Commission
▁parents
▁independent
▁Battalion
▁figure
▁share
mas
▁mel
rel
▁acting
▁companies
▁actor
▁Little
▁divided
▁Paris
▁mind
stein
▁onto
▁Produ
astic
▁collabor
▁Luc
▁Life
▁Columb
▁Carl
▁target
anna
▁slightly
▁function
▁piece
▁Series
▁reform
▁Mod
perial
▁selling
▁Entertain
ricket
aud
▁powerful
▁torped
▁concent
▁Gra
chest
▁innings
▁Max
▁rating
thlet
oration
▁BBC
▁rough
▁lot
▁plays
▁today
istry
▁broke
uge
▁cho
▁era
osaur
▁Pop
annel
▁Croat
▁actions
▁waters
lam
▁Os
▁Histor
▁ultimately
▁trial
▁square
▁maximum
rown
ada
▁dise
▁tend
itan
▁pilot
load
▁bound
▁log
illa
▁interp
▁Academy
▁completely
rupt
▁blue
under
▁sought
oti
▁gar
mond
▁scale
mark
▁Line
▁ess
▁behav
▁society
▁hus
▁Museum
▁Saint
▁mainly
▁Sk
ota
alle
▁designated
za
▁Hor
omy
▁officials
▁Van
▁struck
▁conver
▁transl
cers
ylvan
▁activity
▁policy
▁combined
▁Way
▁say
▁influenced
▁wear
olved
▁corn
iano
▁search
AS
▁Entertainment
▁vess
▁Italy
ented
▁thous
▁calling
racted
▁Arab
▁alongside
▁northeast
▁batter
▁seconds
▁Brigade
ala
▁sout
▁Wind
orses
while
▁winter
▁Americans
▁Conf
▁sources
▁Lee
▁seg
▁background
phy
▁Ire
▁webs
aine
▁ice
▁news
udd
▁thir
▁Tod
▁Alb
▁recent
▁suc
rative
▁mem
▁theory
TV
▁crow
▁nominated
▁gained
▁platform
HL
onn
▁artists
adel
▁Regiment
▁naval
▁widely
quarters
▁systems
▁promoted
▁electric
▁confirmed
ube
▁Ireland
pson
▁reaching
▁proved
▁results
▁Avenue
▁passing
ibrary
▁Fleet
▁albums
▁Good
▁Ell
▁explained
▁conflict
▁greatest
▁subsequent
ero
▁wick
▁invasion
▁content
▁ir
▁Aut
▁Ray
▁sn
▁charge
▁coming
▁hero
▁resist
▁peace
▁sixth
hew
▁northwest
▁weather
▁county
oured
▁adj
▁Orig
▁shortly
grad
town
aga
▁Bus
▁versions
▁Sub
▁path
▁serve
▁causing
aling
▁sust
▁Lo
▁says
▁expressed
iced
▁reception
▁Victoria
▁Sant
▁seek
▁burn
itness
▁Catholic
▁residents
▁emot
bon
▁Charl
▁Norm
▁border
▁Tropical
▁Work
▁chem
ansion
▁soundtrack
▁Valley
▁cities
▁Add
▁Mat
ips
▁green
▁seasons
tation
▁Nin
▁appearances
ategory
▁sense
▁Di
▁Light
▁sexual
▁hospital
▁require
infall
▁Middle
▁physical
▁identified
ighth
▁hands
▁older
▁Live
▁pun
▁Dun
▁Ram
▁Though
▁iron
▁true
arden
▁offer
▁Liber
▁tells
▁kg
▁dedic
▁Ry
unction
▁Commun
ysis
▁artillery
ancy
▁Show
▁represented
▁Top
▁weapons
▁Vol
▁Football
▁Through
▁gas
▁ahead
▁extra
eption
aded
▁pal
▁Men
ylvania
ronic
▁eas
▁Kar
▁heavily
▁Bey
▁Jul
▁Upon
▁Young
abeth
▁supp
▁Direct
▁Tay
itable
▁avoid
▁Dutch
lers
▁challen
▁student
▁agg
▁defense
▁image
▁alone
▁Week
▁spread
▁apparent
▁studies
▁officially
▁Eliz
▁husband
known
▁district
▁Ill
▁executive
▁instit
▁bit
▁Albert
▁Fre
bur
essions
▁debuted
▁wild
▁prominent
▁capture
▁pack
▁consisted
▁instrument
▁send
▁injury
▁fired
▁organization
▁equipment
ports
▁Rog
▁resc
pool
▁pattern
▁stone
▁Far
▁prepar
▁Bre
▁argued
▁Dam
▁aired
▁figures
▁Bond
▁exped
urban
▁surpris
▁eth
▁growth
acity
▁pict
▁Civil
▁Homer
▁hun
▁couple
▁bud
▁doing
▁magn
▁graph
▁returning
▁ring
▁contemporary
ushed
▁poet
▁cert
lines
rog
▁pan
▁weight
▁ox
▁doub
▁laid
▁habit
▁leaders
▁floor
▁step
▁earth
▁Northern
▁affected
▁matter
▁pieces
▁Gal
▁tun
appen
amber
▁propos
▁Storm
ias
▁maintained
CA
inson
▁rang
▁occasion
▁Hard
▁here
▁shell
▁visited
ifying
▁maintain
ental
▁Daniel
▁communic
▁Ha
▁speech
▁comes
▁termin
emic
▁criticized
▁hyd
▁activities
▁rain
rat
▁Jon
▁Carolina
ockey
stone
▁attract
▁exec
acement
ola
▁hall
▁citiz
▁tournament
▁reign
ocked
▁emph
▁toward
▁singles
uls
▁drug
eed
▁trees
▁reference
ners
▁crowd
▁Scottish
▁Tem
▁senior
elve
▁formation
▁adapt
▁surre
▁Rom
▁Marsh
▁worldwide
ivity
▁medical
▁System
▁setting
▁territory
▁Government
▁trying
estic
uct
▁Holly
▁appl
▁stations
orne
ruit
▁dog
▁bul
▁negoti
▁birds
▁Fantasy
▁Writ
▁Ocean
▁god
gian
▁Operation
eller
▁doll
▁Background
▁Field
▁machine
▁Governor
embly
▁fellow
▁claims
▁Rod
▁District
▁Home
▁murder
▁cell
▁displ
▁historian
▁Dev
▁Guard
▁risk
▁rainfall
omers
▁Che
▁Penns
▁fully
▁accident
▁Colon
▁load
uled
▁value
ote
▁therefore
▁split
bit
▁Duke
▁chosen
▁treatment
▁university
resh
▁guest
▁Short
velopment
▁twice
rael
▁sens
▁Studios
▁Girl
▁frequently
agn
▁Polish
▁supply
▁reports
▁Lew
ordin
stitution
▁Beat
▁leaves
▁governor
ayer
illy
▁paper
▁ut
▁Senate
gu
▁remark
aly
▁dyn
ampion
ledge
▁label
▁Eastern
izes
azz
▁MD
▁opin
▁faced
▁walls
▁follows
▁billion
▁Corn
▁operated
▁Bart
antine
▁grew
▁Ros
ufact
▁surrounding
▁planet
▁Mean
min
rect
▁swe
▁Andrew
antly
orter
onents
▁contained
gend
▁degree
resp
▁bal
▁horses
▁manufact
▁condition
▁Night
▁herself
▁Christmas
ety
▁color
isco
▁Jud
▁sle
▁accompan
▁wounded
▁escape
rance
▁typically
▁Allied
▁passes
▁master
▁unf
▁Wilson
▁simply
▁brown
▁fuel
isters
▁reinf
utation
▁railway
▁element
▁Inst
▁draft
▁Taylor
aming
▁editor
▁lives
la
▁orders
▁arms
▁Elizabeth
▁dang
▁phil
mit
fully
more
▁serving
ographer
▁nothing
▁Hum
▁camer
▁Alexander
uous
▁chose
▁authority
▁opposed
▁vote
▁workers
▁Gi
▁moment
▁Mike
▁consecutive
▁cannot
ricult
▁Each
▁Pen
▁newly
▁Of
▁Joe
tar
▁Jac
▁native
▁fan
ucky
▁experiment
▁unknown
▁participated
isf
ager
▁growing
rich
▁website
▁Pers
▁casual
ancing
▁attrib
▁emphas
▁psych
▁Det
ef
▁bass
▁producers
▁newspaper
▁fair
▁Castle
▁benef
▁losing
▁Exp
▁Land
▁adopted
▁Festival
▁advanced
ilies
▁filming
imens
▁Sound
▁heard
▁feed
▁spirit
▁severe
▁Pennsylvania
pton
▁offensive
then
▁firm
▁opposition
▁fiction
ype
▁Ret
▁extend
▁What
▁Wat
▁guard
▁capacity
▁rom
▁Head
orship
▁Islands
▁council
▁basis
▁sequence
▁actors
▁WW
▁Card
zy
▁ends
▁ast
▁Reception
▁Hy
anda
▁weak
▁squadron
▁Blue
▁Gall
▁prin
uses
▁rear
▁advant
▁compar
▁abandoned
ura
aven
▁Irish
▁Further
▁rival
isers
▁Tech
TC
▁SS
ables
iated
▁prompt
BA
▁Bab
▁honor
▁kick
▁flying
lement
▁elev
▁coal
▁enter
▁creating
▁bey
ocated
▁Fam
onc
▁Jersey
▁Spain
▁launch
▁filmed
▁Harry
▁poll
▁regarded
▁happen
▁normal
▁expansion
▁individuals
▁criticism
▁homes
▁Cat
eld
▁agreement
FA
ounger
▁beyond
▁Us
▁incident
▁spect
▁delay
▁Square
▁spring
▁failure
apers
▁Ca
▁Coast
▁liber
▁evac
▁deploy
▁eye
▁dismiss
▁chair
▁sports
▁Lind
▁famous
iner
▁inte
▁vo
▁sail
▁Fe
▁measure
▁Are
▁Sand
▁possibly
imet
▁negative
▁historical
▁boat
▁CD
▁bodies
ima
▁Ul
▁mob
▁achieved
▁contact
▁Bul
▁progress
▁silver
▁strike
ifications
ico
▁Mul
▁Wild
▁believe
▁End
▁Public
▁Elect
▁roles
▁Broad
iny
▁Production
▁narrow
▁ur
▁Cy
▁Ven
▁killing
▁retired
▁ideas
▁Institute
▁Ly
▁Israel
ienced
onent
▁disease
mosp
iana
hol
▁pet
▁torpedo
war
▁imag
▁briefly
kins
▁diam
▁Liver
▁Arthur
▁Revolution
imal
▁Due
▁drive
▁task
▁effective
▁armed
▁applic
▁arrang
▁Ash
▁tree
▁tower
edom
▁Cub
▁receive
▁budget
▁perman
▁repeated
▁necessary
▁administration
▁roads
▁granted
▁personnel
▁Sund
ocks
▁rejected
▁Meanwhile
enger
▁table
▁Person
▁Republican
▁twelve
▁Clark
▁kilometres
▁inh
▁Doctor
▁improved
▁gross
▁leadership
kes
▁Album
▁column
▁interchange
avalry
▁yellow
▁extensive
worth
▁data
aved
▁Mir
▁Ohio
▁Ty
iments
ourney
▁straight
▁lands
▁turns
▁infantry
▁plants
▁purpose
zil
▁paralle
▁Les
▁management
▁express
▁Bell
▁Board
▁defin
ić
▁seat
▁landing
och
▁describes
▁expanded
▁Secretary
▁solo
oma
▁choice
▁franch
▁successfully
oln
▁mile
adelph
lusion
▁broken
▁learn
set
▁tru
▁crossing
▁didn
▁RA
▁intellig
uate
▁animal
▁Ep
▁Sa
▁deliver
▁Philadelph
▁explos
▁fought
▁chor
gers
▁Prot
▁Bru
▁excl
▁organized
▁caught
erc
▁vehicles
▁commissioned
▁suggests
▁Burn
▁glob
▁roof
▁acquired
haps
▁Even
stream
etball
▁places
▁committee
▁Never
rif
▁ancient
▁IS
▁Hit
▁Georgia
▁drama
ev
▁Sher
▁creation
▁Mov
▁Cambridge
▁types
▁fat
appy
▁Lar
▁Philadelphia
▁article
▁gives
▁prefer
▁nuclear
▁seventh
akers
▁comedy
▁soft
zer
▁unsu
▁wave
ms
aith
etts
▁SR
▁authorities
▁contain
▁headquarters
▁Rel
▁Also
▁commonly
▁centuries
▁determined
rin
▁genus
▁islands
ns
▁roll
▁Addition
attle
▁mentioned
▁Mah
▁bott
▁Russia
▁street
▁recently
oted
▁trav
umes
▁Wars
▁encoura
▁Gil
▁looking
▁beaut
▁controlled
amin
▁favour
ipl
restling
uan
▁Common
arts
oles
▁Arg
▁sets
▁families
▁Among
▁household
▁Liverpool
▁security
▁aim
▁finds
▁advert
▁decre
▁Nintend
ii
▁suppor
▁drop
▁acad
▁sand
▁standing
va
▁la
▁illust
ishes
▁Linc
▁unp
uting
▁Nintendo
outs
▁Chap
gn
▁singing
▁withdraw
▁Ka
▁Earl
▁Hay
▁fish
▁ven
▁dial
▁battalion
▁Jenn
▁Prime
▁reflect
▁Columbia
▁unique
▁Bad
▁sac
itled
▁deck
▁height
▁cultural
▁containing
▁entirely
▁orchest
▁protect
water
oh
▁finish
▁Lincoln
▁mist
▁Singap
illing
▁Asia
▁contributed
▁themes
▁try
▁Korean
▁Development
▁younger
▁provides
▁touchdown
▁defence
▁flooding
▁Lieutenant
▁Brazil
pping
▁atmosp
▁Child
▁titles
room
▁awards
▁mis
ulate
▁purchased
▁Jewish
▁powers
inity
▁arrival
▁Hun
▁Francisco
▁scheduled
▁convers
respond
▁resemb
▁defensive
▁Rol
▁Singapore
▁accompanied
wall
▁thing
icial
▁ceremony
▁unus
▁quite
▁expedition
▁People
▁perfect
▁Six
▁worth
wick
atures
▁locations
▁Dark
▁Hon
▁existing
▁interact
▁performing
▁Pot
▁advantage
▁Carey
▁philos
▁Office
rons
▁dedicated
▁computer
▁Lis
▁bat
acted
IA
▁Bor
ker
▁Disney
▁extrem
▁request
laim
▁Key
▁Tam
Station
▁intensity
▁store
▁occupied
dy
agan
▁why
▁squad
▁PlayStation
▁HMS
▁carry
▁mounted
iling
▁Order
▁fresh
usc
ashion
▁Kel
▁nob
▁Turn
ta
▁fix
▁tail
▁mouth
▁Anderson
▁Brook
▁Balt
▁mic
▁cricket
fort
▁Mot
▁Steve
rations
▁closely
▁consists
mann
▁currently
▁lic
▁session
▁Lewis
▁Miller
hens
▁Byz
▁Radio
▁Die
yles
▁Conference
▁tim
▁industrial
mouth
ava
▁Bas
▁simple
pper
▁vari
▁elimin
▁egg
▁piano
▁Once
▁facilities
ilton
▁cold
▁drawn
▁supporting
▁Grant
▁Olympic
▁ty
ware
▁trains
▁Pu
▁belong
▁Conn
▁Shak
▁boats
▁protection
▁rated
▁Brian
▁rise
▁defined
▁selection
▁steam
▁row
▁harm
otic
▁regions
awa
▁Barb
iro
▁Su
▁submar
▁Railway
▁protected
▁pros
▁calls
▁hair
▁NHL
▁Emperor
▁comic
▁motion
gest
verse
▁structures
▁throw
▁lap
▁aid
▁Att
▁shark
▁labor
▁focused
▁opportunity
▁engaged
▁receiving
iration
ingly
▁analysis
▁shooting
▁correspond
▁Mu
▁sport
▁citizens
▁motor
ba
▁strengthen
▁Gulf
▁observ
osa
▁notable
▁adap
sey
▁Jr
▁Av
▁Summer
uzz
▁Press
▁Water
▁experienced
▁Germans
ults
▁Hollywood
▁Serb
ua
▁providing
▁conference
▁Walter
▁holding
▁Inc
▁visual
inger
▁eyes
▁Only
▁Han
▁resident
olid
▁Davis
▁Lab
ading
▁southeast
▁hired
▁charts
▁mountain
▁mut
unior
▁viewed
FL
▁merch
▁branch
ifically
heim
inth
▁rapidly
burgh
▁recognized
▁rob
▁Gib
▁volume
iler
▁vac
opher
▁transform
▁alle
▁Democratic
▁prote
▁Review
▁scholars
▁sites
essed
▁Special
▁gain
▁casualties
▁teach
▁hyp
▁shared
▁concer
▁UN
▁parallel
▁Jean
▁Between
▁publication
▁Down
▁cart
▁digital
▁temperature
▁Fall
▁moder
▁economy
▁Rome
▁Kir
▁Bank
▁developing
▁steel
▁edge
▁reaction
box
friend
standing
▁cool
roll
▁Princ
▁intersection
▁symbol
ali
zen
▁Lady
oncé
▁approved
▁secondary
▁chance
yer
▁Nap
▁Prov
▁Ob
▁Gord
▁von
▁hydro
omew
▁losses
▁myth
rant
rence
▁prepared
▁Mas
▁rac
▁contest
▁substant
itors
▁belief
▁Daily
▁Ten
▁enl
▁letters
án
ologist
iful
▁Musl
ographic
▁Women
▁significantly
▁witness
▁bands
▁sort
onder
▁card
▁Naz
▁save
▁domestic
▁Syd
▁knew
▁franchise
ryst
▁goes
▁Beyoncé
▁literature
eral
▁unsuccess
▁instruct
achus
▁heads
▁southwest
▁semi
▁actress
▁technology
▁advent
break
▁descend
▁roughly
ora
range
▁urban
asty
▁cab
▁Command
▁Bern
aka
unte
▁Plan
theless
▁painting
▁lb
▁Main
▁cars
▁adult
▁pitch
▁anything
enc
▁projects
▁Indust
▁Colonel
▁assault
▁exact
ients
▁brothers
▁resistance
▁gameplay
▁Point
ella
▁core
▁Nick
▁shape
▁storyline
▁Supreme
▁Whit
▁Fair
▁rules
▁reasons
▁employed
▁IV
ropri
▁tank
iminal
▁ign
▁Var
▁Kentucky
▁daily
▁Station
▁shall
▁Spring
▁injured
▁watched
ati
onym
▁agent
▁popularity
▁composition
ira
▁Cur
▁perhaps
▁adding
▁enjoyed
▁fit
▁renamed
▁isol
▁opinion
▁Independ
▁getting
omic
▁calc
▁declined
▁Norway
agement
oz
▁Ross
▁compris
▁reputation
▁lov
osl
▁nor
inking
▁Theat
▁Prem
▁estate
▁shaped
▁connected
▁undert
▁retire
▁rend
▁drew
▁museum
▁poem
bound
▁regarding
▁views
▁Olympics
oir
ulpt
▁Mos
▁stages
▁Philipp
▁dry
▁converted
ceived
amm
▁Massachus
▁Golden
gal
iform
▁Base
▁Walk
▁agricult
han
▁allows
▁Sel
▁sun
▁distingu
▁nick
ads
▁alternative
▁Massachusetts
▁Ball
▁Abb
rets
▁Imp
▁headed
igg
vest
▁bed
▁journey
▁Sus
athan
▁Dream
▁depth
ules
▁missing
▁cited
▁increasingly
ato
ko
eper
▁Let
osis
▁stadium
▁Ron
▁approached
▁Airport
▁turning
▁Hart
▁responded
▁planning
▁knowledge
▁exerc
▁Vi
▁easily
▁wealth
▁overl
▁cells
ilding
▁fashion
▁equal
▁escort
olt
▁About
▁succeeded
psons
▁constitution
▁collected
mod
▁Ken
▁flu
eman
▁safety
▁Bal
▁rebu
▁existence
unicip
▁trip
▁Run
wise
▁pul
ignment
▁Simpsons
▁introduction
▁auth
▁occas
▁models
▁learned
▁Init
▁colle
▁sustained
rett
hi
▁tall
▁promotion
▁operating
uration
mitted
▁McG
▁baseball
▁carrying
▁Songs
▁limit
▁exchange
▁showing
iger
▁youth
onia
▁buried
▁Imperial
engers
▁humans
eg
▁Vietnam
▁credited
come
▁depend
leton
▁Ottoman
▁arranged
▁improve
▁impl
▁Loc
▁seems
▁Jay
▁weakened
▁Cape
▁designs
▁van
▁joint
▁Shortly
inary
▁paint
▁rhy
state
▁athlet
▁FA
▁Poland
▁proceed
▁producing
istan
acts
eler
▁shel
▁Sydney
▁Moore
▁freeway
▁earliest
oli
▁Who
▁flat
▁lasted
▁Maryland
▁landfall
▁settlement
▁Pict
▁note
put
▁Roy
▁description
▁retained
▁acres
▁Stew
▁brand
▁ton
▁Rem
▁Naval
▁MTV
▁AD
▁appoint
▁Cra
▁laws
ivalent
▁genre
▁programs
ources
▁assistant
rell
▁Jes
ivered
▁replace
ader
▁install
bell
issance
▁playoff
▁reserve
▁virt
▁statement
▁applied
▁consc
▁catch
▁trust
▁violence
▁neut
▁scientific
insula
▁Arts
▁coastal
othes
▁Pass
▁tick
▁entrance
iege
▁hits
tical
▁consequ
avig
▁synt
▁exclus
▁sculpt
▁Greg
▁patrol
▁battery
math
▁Fire
▁items
▁candidate
▁Ari
▁towns
lee
▁Bowl
▁indicated
▁uns
▁gradually
▁distribution
▁Edu
▁politics
lan
▁Rid
time
▁delivered
oard
▁stopped
▁filled
▁ban
▁independence
▁tact
izations
eke
▁sections
▁Jan
▁details
▁IG
▁Confeder
pet
▁Mulder
eless
▁cinem
▁select
▁combination
mun
▁emp
▁supplies
▁ways
▁glass
▁parties
▁stream
ender
▁engines
ushing
▁Gordon
▁camera
▁prisoners
▁appeal
▁Stadium
▁Band
▁Rhodes
▁register
▁bask
▁campus
emies
▁Well
▁acts
▁mig
▁extremely
▁Bon
▁entitled
▁secure
reets
rec
▁Ra
ela
▁finding
▁online
▁decade
inois
▁Univers
▁Prof
poration
iques
▁Theatre
▁tal
acter
▁Staff
iversary
▁winner
▁arc
ropol
▁evening
▁regiment
▁Cop
▁Kim
▁investigation
▁threatened
▁bought
▁message
▁adapted
▁somew
▁survived
▁knots
▁studied
▁Bir
▁Anth
▁proposal
ador
▁consum
▁writes
▁address
ashed
▁Vill
▁deaths
▁Justice
iat
▁routes
▁wars
▁ruled
▁download
ja
▁Nic
▁fear
▁relief
▁Instead
▁religion
▁males
▁reduce
▁voted
BS
ieval
ighters
ano
▁revolution
▁spons
▁specifically
▁crown
▁phase
met
phoon
▁fict
▁kingdom
▁Age
bourne
▁recalled
▁ec
▁portrayed
▁soul
▁duty
ctions
▁implement
▁Circ
▁controversy
▁emerg
▁Here
▁Memorial
hat
▁causes
BN
▁Ast
ervative
▁et
▁ble
▁everything
▁breeding
apes
chers
aug
▁sell
▁references
adow
▁stret
ician
▁bottom
▁AC
▁ago
▁Tony
▁convin
▁capable
▁teacher
▁Po
▁importance
▁Coll
▁entry
▁McK
▁meters
▁Singles
▁Id
▁Nel
▁Od
senal
▁tanks
▁Power
▁offers
▁Kong
▁Ur
bro
▁sufficient
▁owner
entially
▁Director
▁internal
▁opera
ridges
▁arrested
▁Adams
▁admitted
▁nomination
▁Ok
▁corner
arp
▁bor
▁Jord
▁Moon
▁Alan
▁copy
▁climb
▁crossed
▁products
▁Dougl
wich
uro
▁Critical
bar
▁equipped
▁installed
▁Beach
▁Alf
▁IGN
▁concerns
aki
▁preced
▁mort
▁overse
▁autom
▁Hamilton
▁invited
▁Simon
▁Maria
▁Engine
▁convoy
▁ones
▁conqu
▁starts
▁principal
▁interested
▁fly
▁Gram
▁acid
ranean
▁crime
▁Your
▁recommended
hr
andy
▁alt
▁unl
▁Adam
▁Jane
▁tell
ructure
▁Plot
▁remainder
▁medal
ca
▁actual
ansas
▁shut
▁retreat
▁UTC
▁snow
▁stock
▁vent
▁upgrad
espread
▁VII
▁charged
▁Bos
▁apart
▁funds
▁price
▁solid
▁objects
▁Cart
▁door
▁Track
osaurus
▁Forest
ilation
▁composer
vis
▁females
▁Video
▁consisting
▁gall
▁promote
aked
▁page
▁Death
▁milit
iy
▁NBA
▁Indones
▁considerable
mb
▁Found
▁Prog
▁poly
▁dates
▁Int
iller
hus
▁Nether
▁typical
▁Gen
▁Kennedy
▁grounds
AT
▁Gun
erted
▁correct
▁Today
▁extension
▁duties
cks
▁blow
rete
▁someone
▁evolution
▁Transport
▁cong
▁rural
▁Military
▁Sunday
▁eighth
▁penal
vements
▁Indiana
▁sole
▁spin
▁Project
▁hotel
▁Howard
BI
osite
▁decades
▁Norwe
king
▁images
▁Pit
▁driving
▁reading
▁identity
▁Hou
▁Scully
▁Marc
add
▁occurs
hetic
▁zone
▁Leon
▁manner
▁Bry
▁skin
▁Hitler
▁challenge
▁subs
▁lane
▁remix
▁Kat
▁tow
▁aspects
▁Tar
▁aer
▁permanent
▁Ta
▁brigade
▁frag
▁volcan
▁ham
▁dated
▁Five
▁vir
▁Gill
▁Portug
▁Cult
▁noting
▁restaur
▁Brist
▁colour
after
ez
ubb
▁Drag
ione
▁supporters
▁WWE
▁slowly
▁clean
▁Ba
▁posted
▁Pear
▁Turk
iley
ensus
ivals
▁Rose
cknow
veland
▁Science
▁Research
▁describing
▁involving
▁vessels
▁speak
▁entering
▁enemies
▁Assembly
▁equivalent
aware
▁dress
▁Ryan
▁classes
▁Hug
▁bra
nic
▁Ak
▁din
▁debate
▁settled
▁obtained
▁department
regon
▁Constitution
▁accur
▁armor
▁Rolling
▁parliament
erto
▁Disc
▁Magazine
▁tele
▁Argent
▁Mountain
▁basic
▁songwrit
risis
▁purchase
agues
fl
▁pup
▁folk
▁Cleveland
▁Space
▁oldest
▁Pier
▁faith
▁Lenn
▁concerned
▁departure
▁decline
▁Illinois
▁connection
▁widespread
ophy
cation
▁income
RA
▁formal
▁attached
hered
▁recognition
▁Now
▁integ
▁Douglas
▁nest
▁memorial
▁outer
▁certified
▁Throughout
▁deleg
heastern
▁accused
orney
▁sequel
▁derived
▁Sav
▁decor
rates
▁mode
▁Weekly
▁Ira
▁Rele
▁Stand
▁ha
aret
▁Andy
▁wearing
▁hip
▁swim
▁Jordan
▁assumed
▁disturb
icit
▁wed
western
▁Oregon
▁acknow
▁torn
▁Freder
ooth
▁acclaim
▁Stanley
▁survey
iot
▁foss
▁Media
▁Arsenal
▁Feder
▁hosted
▁committed
▁Third
▁returns
▁segment
ekend
▁valley
▁sessions
▁Dal
agonist
▁populations
▁Roger
▁Philip
▁fine
▁denied
▁Mediter
▁Treat
▁Family
▁Recording
▁temple
▁hang
wan
▁Beatles
▁champion
▁flo
▁charges
▁Low
▁Tenn
▁Bruce
▁literary
▁Kevin
▁canc
▁regional
▁Norwegian
▁thousands
▁terminus
▁Mediterranean
▁circum
▁transition
iva
▁supposed
▁warm
▁Bristol
▁wickets
▁demand
▁Es
▁ans
▁Az
▁Dig
hedral
▁ISBN
▁shots
▁Rain
udden
▁strongly
achel
▁circulation
heme
▁Bush
▁intelligence
▁sailed
▁possibility
▁generation
▁passengers
▁hope
▁fictional
▁animated
emed
▁thirty
▁freedom
▁downtown
▁Ho
▁Channel
organ
▁Federal
ito
eing
▁hill
▁rich
▁minister
▁behavior
▁cloud
▁Mexican
rage
▁begun
▁replacement
▁Pur
ami
▁fruit
▁commanded
▁assistance
▁Web
atinum
▁moves
▁destruction
mes
▁Bol
▁criminal
▁missions
char
▁Conc
▁exception
▁costs
▁Der
▁crash
upt
▁Row
orced
▁missed
▁highlight
▁bringing
▁Master
▁tied
▁Cas
isms
▁Eric
▁Korea
▁Within
▁commit
▁feeling
▁intention
lig
onto
▁speaking
▁Bah
▁unusual
elsh
▁Lisa
▁Additionally
oral
▁Fame
▁finishing
▁alleged
▁Nar
▁demol
▁properties
▁incorporated
lets
▁intercept
▁opposite
▁Sab
▁stayed
▁attributed
▁shop
▁volunte
borne
▁Phill
▁Color
▁emerged
▁breaking
▁sons
▁serves
▁recovered
▁atmosphere
▁Morgan
▁Morris
▁dipl
▁chorus
▁theatre
▁Norman
▁occasionally
rating
olec
othing
▁Scient
▁driven
aire
▁Ele
▁strateg
▁Kr
enses
▁Robinson
umin
▁Ever
riers
▁classic
▁spok
▁Prior
▁ready
▁regularly
▁effectively
aza
▁cavalry
▁establishment
▁Sky
▁USA
▁prey
▁courts
▁methods
▁Raj
▁sounds
thm
▁vary
oslav
▁Hawai
ogen
▁divers
▁Television
▁superv
▁Similar
don
pective
▁completion
▁shore
▁Around
▁Unlike
▁materials
▁CE
▁Construction
▁Gh
uty
▁dissip
▁responsibility
▁dream
▁accommod
wen
▁Cab
▁Finn
▁warning
▁fields
▁attracted
▁surviving
▁heat
▁province
▁Nelson
▁entertain
▁Iron
rim
▁persu
▁global
nold
ece
▁Nich
▁Francis
▁mo
▁quant
▁classified
sole
▁kid
▁Premier
▁differences
▁DE
▁Lanc
▁divisions
▁technical
icks
▁Sweden
▁interpret
▁brain
ban
▁Ford
vens
▁Techn
▁Patrick
▁cruiser
▁PA
▁Budd
▁passage
ipe
abled
emeter
▁Anton
▁aboard
▁none
▁Mit
▁sam
inton
oyd
▁Temple
weight
▁clubs
▁ratings
▁association
▁eleven
▁neither
▁stood
▁musicians
▁rooms
nce
▁reinforce
idden
omot
▁Hell
▁desire
▁medic
▁Toronto
▁hal
nings
▁Anne
▁Welsh
▁climate
▁separated
agle
▁shif
▁outbreak
▁classification
▁ancest
▁Nations
▁Dog
ón
▁vehicle
▁Marg
▁seemed
▁Byzantine
▁predecess
▁squ
▁chemical
▁votes
teenth
▁picture
▁reality
▁battleships
▁rose
▁Allen
▁Chron
▁memory
▁hoped
ici
▁Profess
ji
▁movements
▁requested
▁ment
▁Open
▁Netherlands
▁Belg
ogy
▁raise
▁Journal
▁historians
▁ille
▁Sn
▁Pow
▁Every
▁Matthew
burn
▁map
▁difficulty
reck
▁basketball
inder
▁Whe
ewhere
ige
▁vide
▁expect
abil
▁communities
▁restored
▁raid
▁remember
▁Bang
▁Sports
▁programme
▁Jews
▁premiere
▁pure
har
▁Dean
▁teen
▁delayed
▁Jacob
▁relative
▁inspiration
▁fer
▁Sax
▁gal
▁discovery
▁fal
▁greatly
▁otherwise
▁USS
▁injuries
▁anniversary
▁Design
▁Again
▁neighbor
▁satisf
▁accounts
hire
▁funding
▁surrounded
▁flank
▁Ult
▁Domin
▁spoke
▁depict
▁praise
ilers
▁batting
▁needs
▁penalty
▁Iraq
▁dens
▁strate
iate
▁die
▁partner
▁crop
▁Wright
▁Marine
▁weapon
▁massive
▁photograph
▁recru
▁claiming
▁cra
anth
▁Bishop
▁suit
▁Dor
▁assemb
▁lat
▁astron
▁forming
▁strategy
▁tries
▁wrong
PA
real
▁legend
▁Oak
▁accompl
▁documentary
▁Glob
▁Armen
▁crosses
▁worst
▁Hop
▁fled
▁Croatian
▁Heart
▁Da
▁stands
▁Thompson
▁architecture
gets
▁Last
uther
▁temporary
▁Jam
▁girls
▁chairman
▁determine
uble
▁ash
▁Dick
▁dismissed
aired
▁Russell
▁involvement
▁Stra
▁bombard
▁Trib
▁sale
▁Islam
formula
▁rot
▁plane
▁Centre
▁category
▁remn
▁inner
▁adaptation
▁Mars
▁hear
rum
onds
going
▁ensure
▁convinced
▁enf
▁sight
lyn
▁cul
▁weekend
▁NFL
▁Holy
▁Puerto
▁Front
▁somewhat
▁resources
▁Carter
▁reserv
▁Winter
▁interests
▁Rick
wing
▁medieval
▁immediate
▁Kelly
▁Hend
▁scheme
agre
▁Modern
▁streets
▁Ker
▁library
▁presidential
▁ray
oster
▁absor
▁carbon
▁consp
▁Cooper
body
▁ic
▁Spe
itzer
po
▁falling
▁colonial
▁Dra
▁Along
▁techniques
▁ori
▁classical
▁sed
▁Niel
▁ninth
▁fighter
▁Rang
▁throne
▁appropri
▁Gard
▁starred
▁Brother
▁academic
▁Free
▁races
▁Network
▁bright
▁eggs
▁adults
aya
▁convent
▁commemor
▁Pak
icide
▁passenger
▁surviv
▁loyal
▁Hungarian
▁Nob
▁meets
▁lake
night
▁Wy
▁Gri
ester
▁Thus
▁premiered
▁submarine
▁alien
▁Bou
▁Batman
▁absence
▁reviewer
bec
wealth
▁renew
▁seeing
▁else
▁Labor
▁fitted
▁superior
osure
rine
arsh
▁interior
▁engineer
▁favorite
▁Parker
ronze
▁dub
▁Est
▁airport
▁Tok
▁partn
▁Harris
▁deemed
▁attacking
omp
▁appearing
acent
▁visible
▁conclusion
▁Bi
ivan
▁synthes
▁dating
▁romantic
▁x
▁elections
▁characteristics
using
▁leads
▁rum
▁operate
▁encouraged
▁facility
▁municip
▁Library
▁afterwards
▁retirement
▁DNA
▁landed
▁Murray
▁colony
▁convection
▁temperatures
book
▁buy
▁everyone
chang
oen
▁credit
▁suffering
▁legislation
▁Knight
▁doct
▁modified
▁lies
▁challeng
▁Education
▁AI
▁holds
▁Ts
▁Late
aver
▁painted
▁controversial
eor
▁wings
▁san
▁gone
ania
roit
ossible
▁Houston
▁believes
ixon
▁code
urches
▁distributed
▁Brand
▁Commander
▁attempting
▁od
▁Police
asure
▁Berlin
▁Palace
▁standards
▁rescue
uster
▁looked
▁authors
▁secured
▁Advent
▁monarch
▁depicted
▁cancer
tic
▁Ut
▁archae
▁dominated
▁battleship
ache
▁grass
▁habitat
▁anyone
▁Yug
scape
coming
▁continuing
apse
▁judge
▁wel
▁immig
▁Santa
▁longest
▁Story
aws
▁Swedish
▁biggest
li
▁Commonwealth
▁unsuccessful
eline
▁union
▁Get
▁graphics
encies
▁pound
▁neck
▁obtain
▁Roberts
▁Simpson
▁trained
▁Li
▁Ot
▁FI
▁Yan
▁wins
▁Hospital
inals
ultane
▁sudden
▁jump
▁arrangement
▁Obs
▁carrier
▁railroad
owa
▁Indians
▁acknowled
▁Lyn
▁nickn
▁Silver
▁Ey
▁Mort
opes
oming
▁informed
eenth
▁Cook
▁measures
hess
▁RAAF
▁belt
emetery
▁representing
▁releases
▁Corporation
▁Social
▁achieve
aska
▁NBC
ternal
▁Warner
ching
▁Merc
▁sees
▁Yugoslav
▁garrison
▁convention
una
ture
▁formerly
▁Jason
▁bab
▁grade
▁generated
▁closer
▁styles
▁deployed
▁emergency
▁Anthony
▁bats
▁alleg
tenance
elle
▁questions
olph
▁moderate
fare
▁historic
▁gets
▁veter
▁trials
▁cycle
▁festival
hemat
▁molec
▁ster
▁siege
▁influential
▁emotional
▁Hin
▁Croatia
▁Cru
▁Detroit
otype
▁Tal
▁novels
▁owners
agu
uts
▁RAF
▁successor
▁influences
▁Gaga
▁narrative
aria
▁thin
▁Bure
▁Chamber
aints
▁stead
▁Author
▁excess
▁ru
▁Gilbert
▁journalist
▁childhood
▁experiences
▁constant
▁pregn
▁Princess
▁defended
▁discussed
mate
▁legs
▁veget
▁apparently
▁eat
▁alco
▁instruments
▁assass
▁Rap
▁Spears
▁treated
▁victims
▁giant
▁environmental
▁PC
▁diplom
fire
▁executed
imore
▁coins
▁detail
arked
▁Asian
▁depos
anny
▁offices
obi
▁factors
▁mine
▁Jesus
yard
usted
iens
▁bear
▁concur
rams
▁Desc
achment
▁hunting
▁Somers
▁enters
▁Melbourne
noon
▁wooden
▁Nielsen
▁Pope
▁Atlant
▁channel
▁hundreds
aste
▁Guy
▁Vice
▁ride
▁resigned
DS
rot
▁ocean
▁Xbox
▁Clinton
▁gay
iliar
▁skills
▁uniform
▁Bed
▁Organ
▁navig
▁Evans
▁reveals
alo
▁Mun
▁Nevertheless
▁chapter
▁spend
▁pointed
▁Category
▁enh
▁ridge
text
▁clim
ES
orous
▁Wing
▁Stewart
▁watching
▁bon
▁prevented
usic
▁Muslim
▁preferred
lie
utt
▁Real
rees
▁pushed
▁format
▁pull
icians
▁locomot
▁flew
▁languages
▁Heavy
▁footage
▁happened
▁opponents
▁difference
▁Tower
▁drums
▁formally
▁thereafter
▁intent
itter
▁facing
▁reportedly
▁Benn
▁check
▁resign
▁Origin
▁accomp
▁relationships
▁chain
▁Carib
▁Bulgar
▁Turkish
▁intense
▁thousand
▁handed
▁Samuel
▁Express
oto
MA
▁device
▁notably
tty
▁Sarah
ski
▁Lim
▁Rey
ogether
▁Lennon
▁firing
▁inhabit
▁animation
▁vision
▁existed
▁visitors
idi
▁Bird
▁surrender
▁Aud
▁gather
▁employees
▁Greece
▁Baltimore
▁bes
onies
▁accompany
▁Queens
▁Austria
mad
▁Albums
roc
bean
spec
▁Ark
▁Hans
▁linked
▁departed
▁exposed
▁participate
▁hearing
▁poetry
ds
stic
▁dialogue
da
hatt
▁extent
ois
▁fil
▁Stock
▁announce
▁detailed
olis
▁Colorado
yo
ican
▁substantial
▁audio
▁beach
▁learning
▁Cam
▁instance
▁universe
▁Raw
▁Lane
ropolitan
▁rebell
▁cruisers
▁residential
jo
unes
prise
▁Writing
▁impressed
▁Marshall
▁vul
orage
▁Horn
▁periods
▁Initially
orial
▁avo
endment
▁Cz
▁ske
▁Foundation
▁huge
▁mart
▁util
ullivan
▁Malays
▁publisher
▁plate
igen
▁hat
▁easy
▁taught
▁Dave
▁afternoon
lock
▁enthus
▁tempor
ologists
▁stem
▁Frederick
▁territories
▁driver
▁testing
▁imprison
▁Ern
▁videos
boy
▁reviewers
opter
▁Wrestling
ribed
▁happy
▁upd
▁tests
viation
▁Banks
▁Horse
iami
▁Having
▁feud
▁teeth
▁stable
▁reprodu
▁understand
▁sympt
ogan
roph
▁ca
▁isolated
▁negotiations
▁vessel
▁Somerset
▁diameter
▁inher
otes
▁agents
▁picked
▁sleep
atically
▁Anna
▁Buck
▁Jess
▁Know
▁Mario
▁bridges
cho
▁goods
▁encountered
▁junior
▁Release
▁withdrew
▁diagn
▁simultane
▁lob
roke
▁aged
▁founder
▁dangerous
▁reun
▁Anglo
▁behavi
▁normally
▁upgraded
sea
▁Giants
▁factor
▁keeping
▁specimens
AC
▁fur
▁Miami
▁window
borough
▁pounds
▁tie
▁deter
mission
▁Seattle
▁medium
▁satell
etime
▁relie
▁frequent
olas
▁sure
▁ethnic
idae
▁diet
▁toll
bridge
▁Player
▁collaps
▁Championships
▁Ext
▁mir
▁lowest
▁partly
▁crisis
▁prohib
▁resear
▁engineering
▁Trek
chen
▁Call
▁Alab
▁Soon
▁outf
▁apprec
▁traveled
▁vic
helm
▁Cre
▁whereas
▁organizations
▁proced
away
▁designer
iable
▁ped
▁Op
▁lose
▁rarely
▁refers
amese
▁Hand
▁doesn
▁turrets
▁tone
▁technique
iece
usal
brid
▁Human
▁Treaty
▁Iowa
gery
▁insc
ée
▁vice
▁orb
igs
▁ax
▁finale
▁spending
▁criticised
▁advice
▁permission
▁maintenance
▁ML
▁lad
▁platinum
▁uncertain
ennis
▁difficulties
▁phen
ila
xual
ygen
▁Alabama
▁complic
▁policies
▁partially
▁restric
ls
▁bypass
▁personality
▁agree
▁verse
▁mainstream
▁Forces
▁compete
▁ranking
▁indicate
▁Dur
▁excell
▁proport
▁liqu
▁recordings
ilst
inction
uscript
▁Caribbean
▁unn
oked
▁comments
FC
▁remove
▁anticip
col
▁finals
▁mamm
▁Napole
▁Then
▁refuge
▁Buff
▁safe
▁Mississ
▁Lawrence
attered
▁concerts
▁Yanke
▁windows
▁Canal
▁strip
uda
▁moral
▁seats
▁restrict
▁symp
▁Charlie
chell
▁overs
▁monument
▁falls
▁rates
▁repair
▁Ah
▁jur
▁recur
▁fighters
▁recommend
▁Nat
▁Minnes
▁extreme
▁pitched
▁representative
▁Bros
▁Crown
▁covers
▁alter
▁truth
▁Senator
▁McD
▁tenth
enh
▁diff
▁Mach
▁prompted
isd
power
rang
▁hockey
▁protest
▁describe
▁CR
▁Ian
▁phr
▁forcing
▁tub
▁shear
▁reconst
▁destroyers
Ar
mates
▁minimum
▁Ministry
▁underw
sk
▁Brig
▁Garden
▁Township
▁hull
▁pric
▁churches
▁neighborhood
▁Hu
ifer
▁Dead
▁Grammy
▁friendly
▁boys
▁bases
▁examples
▁USD
▁Blood
▁Hungary
urance
▁drawing
▁Health
▁Country
▁Nazi
▁Polit
▁Benj
▁travelled
mers
▁Ban
▁pin
▁bombers
▁inaug
▁Roc
▁Dance
▁doctor
▁dynasty
▁adjacent
▁mand
▁housing
▁approval
▁displayed
▁Hamp
▁Return
▁Australians
▁Belgium
▁ju
▁creator
▁credits
▁Christopher
▁turb
▁grown
▁joining
▁listing
▁tribute
▁Diego
▁aware
▁Shakesp
▁collapse
▁partnership
eu
▁protagonist
iac
▁Cold
▁fung
▁Event
ante
odore
▁Rand
▁Medal
▁explo
ods
▁changing
▁creative
alions
▁acted
▁moments
▁designation
zz
icy
▁powered
wa
ugby
▁Kal
▁instrumental
▁Gab
▁Represent
itud
▁Laure
▁trend
▁refere
▁Much
▁Camer
▁Children
onnaissance
▁asks
velt
▁radar
▁DC
▁canal
bra
▁arts
▁storms
▁villages
▁Michel
▁Ll
▁Cred
▁appointment
▁dollars
▁Hud
imeter
▁advis
▁treaty
▁possession
▁scientists
die
▁Khan
ounced
sters
▁rounds
▁Record
▁survive
▁Guardian
▁victories
otten
▁Benjamin
▁paintings
▁Legacy
▁covering
▁eliminated
▁wheel
▁minimal
▁precip
▁els
▁Roose
▁Hockey
cop
▁elsewhere
icts
▁telling
▁Vietnamese
▁Hills
▁newspapers
▁innov
▁benefit
▁surprise
active
ecraft
▁seeking
▁AR
ivated
▁analy
▁arriving
▁rhythm
▁helping
▁occupation
▁suicide
ouri
▁purposes
▁Minnesota
▁Alfred
vy
▁Fal
▁Thor
▁values
▁dispute
▁unlike
▁occasions
▁Hind
▁gard
▁loan
▁smooth
▁pool
▁Set
▁twin
▁Tun
▁brick
▁wet
rupted
▁Manhatt
roid
▁option
▁Div
ographical
▁Manhattan
▁manuscript
▁soil
orious
uman
▁gat
▁Kurt
▁Franklin
▁Walker
▁fishing
▁struggle
▁Interstate
▁cryst
rm
overs
▁murd
▁balance
no
▁Lin
▁MP
▁Administ
▁Aff
▁helic
▁degrees
▁Son
▁Roosevelt
▁Anim
▁Trust
▁preserved
gon
▁schedule
esh
▁Comb
▁Shel
▁flash
▁Perform
▁categ
▁Flight
▁cooper
▁circumst
rix
▁Peninsula
acks
▁publicly
atherine
▁violent
▁candidates
rome
orph
▁Beck
▁Hong
▁emperor
▁resumed
acle
▁Bull
▁honour
nik
▁Ice
▁pilots
▁wedding
▁competed
▁Fried
▁Kansas
▁survivors
incial
ishment
munition
▁dies
▁Industry
▁abilities
▁Bh
▁procl
▁neutral
▁Nash
action
▁span
ulating
▁Satur
mph
▁cook
sky
▁bid
oking
▁Lith
▁Mississipp
▁Portland
▁beautiful
▁impossible
▁coordin
▁intensified
▁Born
▁multi
▁argument
▁alignment
TA
▁teaching
fted
▁advoc
▁custom
▁lem
▁wrest
▁defeating
▁poison
▁consult
obile
▁assisted
▁concrete
▁electronic
▁Hotel
▁lists
▁prosp
▁overt
▁Wolf
▁nations
▁Ple
▁simpl
▁serial
▁absol
ensions
▁rivers
▁Building
aph
▁discip
▁Ward
▁py
▁Brun
▁elabor
▁Digital
▁foundation
▁VI
▁opponent
isp
▁Jos
▁assists
▁interesting
▁danc
▁agricultural
eare
▁businesses
▁oxygen
▁Cole
▁suitable
ilty
▁backing
▁mines
▁tunnel
▁submitted
▁parent
▁fifteen
▁scholar
▁signing
▁understanding
▁Hem
rows
▁Cob
▁Lam
▁grey
▁encounter
▁Blues
▁symptoms
▁Dw
iveness
face
itated
▁citing
▁Halo
▁waves
▁behalf
icer
▁orbit
▁Alexand
▁Shakespeare
▁spiritual
ctic
▁Dom
▁sunk
▁percentage
▁parish
agen
▁Wol
▁Area
▁sank
▁Native
▁Hindu
▁Tenness
▁forests
bl
▁forty
▁ninet
▁situated
unch
▁signs
▁closing
▁Campbell
▁subjects
▁Vinc
onymous
▁Athlet
alities
▁ammunition
SP
▁voiced
▁Prom
▁Kings
dale
▁Non
▁nom
▁usual
▁illness
▁Tag
▁repairs
▁Hero
▁Sullivan
▁corpor
▁resolution
asters
▁Steven
▁imperial
▁Dest
▁Lucas
▁Box
▁asking
▁functions
▁collaboration
▁assess
▁disaster
▁controll
▁attendance
▁restaurant
lah
▁Friend
▁Egyptian
▁lieutenant
▁evil
father
▁feelings
▁audiences
▁string
▁underground
▁deliber
▁worship
▁junction
▁Ren
▁flights
▁portra
▁affairs
▁suspended
uv
▁Margaret
amic
▁skull
▁Tennessee
▁Rab
▁exit
▁Mississippi
osm
sex
odge
▁Race
▁Stevens
amps
▁pron
aron
▁targets
▁willing
▁Louisiana
▁cargo
▁initi
▁earthqu
rator
▁Josh
▁recre
▁Mack
▁affair
▁Montreal
idd
▁prol
▁funeral
▁McL
▁Historic
▁operational
ques
▁Warren
▁abol
resents
▁Labour
▁poorly
rus
▁lect
▁measured
▁documents
▁compilation
▁Missouri
▁aimed
▁filed
racts
rants
▁Palest
uable
▁circuit
▁registered
▁anch
▁Ku
weet
▁mountains
▁Depression
▁Philippines
▁Tan
▁conscious
▁elder
▁favorable
▁subt
▁affili
▁statue
▁rout
▁Apple
▁adopt
▁liked
ori
▁Nag
anium
▁Stat
▁Mitchell
▁bot
andal
▁Dragon
▁recognised
ateur
▁Billy
▁explosion
▁professor
▁entertainment
▁jazz
▁represents
fe
▁temporarily
ception
▁sector
▁Str
▁Joh
▁ben
▁Small
▁Cow
▁Critics
▁replacing
▁sequences
ika
▁fifty
▁Ped
overe
▁Kirk
▁offering
gate
▁shells
idel
▁cyl
▁artwork
adi
▁Vis
▁Ring
▁Graham
▁wore
▁interpre
▁residence
▁Independent
▁preparation
era
inea
▁margin
▁Fem
species
▁Business
▁Magn
▁Czech
orders
▁reflected
▁restoration
▁nucle
issions
▁prime
▁reluct
▁alliance
▁directors
▁expensive
▁rig
▁Mess
▁Lov
▁terror
▁UE
ancell
▁touring
ylan
▁Near
▁Snow
▁overw
inental
▁alcohol
▁amongst
race
▁completing
▁Ye
▁thinking
▁Maur
artney
▁suggesting
▁Mes
unc
▁Ariz
▁grav
▁banks
bishop
▁Cuba
ellect
▁horror
▁cancelled
▁Seven
▁rebuilt
▁coverage
▁cod
▁Frid
quir
▁reven
▁pulled
▁escaped
▁Guide
▁erupt
▁dimens
▁bay
▁wasn
▁amounts
▁decides
▁Chand
▁Edge
iph
▁cous
▁lacked
▁tribes
overeign
rep
▁racing
▁dramatic
▁Phoen
▁Tamil
▁clearly
▁patterns
▁Files
▁predomin
▁communication
urally
▁familiar
▁engagement
▁frig
apping
▁ownership
▁rit
▁argues
rak
▁garden
▁Cher
▁marks
uary
▁Indies
▁Arizona
▁armored
▁perspective
okes
▁Persian
▁colonies
▁mathemat
▁Sony
▁saved
▁wicket
▁gang
▁Grey
▁drove
▁Saturday
▁merchant
▁contributions
▁solution
▁Dylan
storm
▁print
ti
▁fastest
▁artistic
▁administrative
▁Scout
▁remnants
ieties
▁playoffs
▁tag
▁seed
▁execut
▁characterized
athy
je
▁Marie
▁boundary
idency
▁rising
▁militia
▁kings
fish
▁crews
▁false
▁severely
▁institutions
exp
▁armament
oga
▁disappoin
▁Las
▁badly
▁retail
▁depending
▁flagship
▁Confederate
bre
▁bulk
▁earning
▁genetic
▁distinctive
ova
▁Bureau
▁bowling
▁ideal
ses
▁EP
acon
▁recip
▁notice
orer
omber
▁Oklah
▁excav
▁bronze
▁explains
▁bran
itting
▁ranks
▁fallen
▁restricted
cru
▁context
equ
▁frust
▁comparison
▁Nik
ectic
elli
▁Liz
▁Sin
mented
▁demonstrated
▁Pa
▁quiet
▁condem
▁explain
SA
▁earn
▁ranging
▁poems
uations
▁controls
▁inhabitants
life
▁threw
▁arrive
▁Switzer
▁Wilhelm
▁Murphy
▁inland
▁riders
▁gap
▁trick
▁Program
▁sisters
▁loop
▁practices
▁kW
▁Lang
▁Mrs
▁maneu
▁Harvey
▁AA
▁Amy
▁Such
▁mental
▁vel
▁wants
▁Econom
▁faster
▁Broadway
▁electron
▁conservative
ivia
▁ABC
▁meat
▁wider
formation
▁Switzerland
lings
▁synd
▁shield
▁obvious
▁revol
oven
▁kit
ocking
▁Na
▁surge
▁exclud
tha
otton
▁Barry
▁spotted
▁vulner
▁acceler
pha
▁reaches
▁distinguished
▁pace
▁plus
▁northward
▁evolved
ré
▁exhibition
asts
anton
▁application
▁Oklahoma
▁Tel
▁gate
▁Austrian
▁millimet
▁nominations
▁agency
▁protein
▁quarterback
▁triple
▁Federation
▁subspecies
EC
hu
▁satellite
▁Clar
▁frame
ruption
▁tip
▁autobi
▁Original
▁prepare
▁dominant
▁households
▁palace
▁predicted
inations
▁Delaware
uma
▁tex
▁wreck
eton
▁slaves
▁storage
urer
▁Bomb
grade
sequently
▁intellect
▁Rat
▁abund
▁Lithuan
▁thor
▁vs
eland
▁printed
▁articles
uki
▁vast
▁carriers
▁Perry
▁attained
▁fixed
▁repeatedly
▁Leslie
▁allies
▁surgery
▁vertical
▁predecessor
▁stores
▁outl
din
▁signal
▁strict
▁Harv
▁peaking
lus
imen
▁Fif
▁Mik
▁philosophy
LC
▁yield
▁phenomen
▁adventure
ascar
▁blocks
▁biographer
oned
▁Rih
▁boss
▁excellent
▁Baby
▁disagre
▁tack
▁Originally
▁illegal
riptions
▁DS
▁Ve
▁bombs
▁pretty
▁Ald
▁Hur
▁perceived
iders
▁Tokyo
▁Mother
▁choose
▁seriously
vant
icate
▁Less
▁Rico
▁Denmark
▁comfort
▁apartment
▁Ridge
▁Jonathan
▁remarked
▁westward
▁useful
▁waiting
▁circumstances
▁tight
aughters
▁Bernard
▁Baseball
AR
rose
yler
▁curren
▁Atlanta
▁Players
▁Rihanna
aro
▁sket
▁coinc
▁surrend
▁meetings
▁battalions
▁Chel
itage
▁drugs
▁dollar
▁Hann
▁Abbey
▁Johnny
▁institution
▁sick
▁Nixon
▁phone
▁breat
▁layer
▁Wor
▁Territ
▁civilian
▁armour
▁readers
▁Ton
azing
▁whilst
ng
▁Roll
▁gust
▁chamber
▁matters
▁casting
▁friendship
▁Pil
rings
▁Juan
▁tiss
apolis
▁strengthened
▁horn
▁planets
▁visiting
mi
emen
▁holid
▁Campaign
▁Maj
▁rub
▁reconnaissance
inian
▁Pitts
▁retain
▁similarly
▁simultaneously
▁Inn
estone
mingham
▁Edwards
rint
▁Chen
▁legacy
▁Arnold
esses
▁demanded
▁alternate
onomy
▁typhoon
rik
▁Opp
▁empt
▁Ay
▁Wag
▁panel
TW
acc
▁Ral
▁justice
gro
▁Lex
▁enlisted
arth
▁Soul
▁alive
▁Railroad
▁insisted
IS
▁revers
▁McM
▁Rub
▁hook
estyle
▁Keith
▁Madag
▁shipping
jan
▁Prize
rov
▁Iran
▁roots
▁neighb
entle
▁revenue
▁promised
▁bombing
▁demands
▁Jimmy
▁Internet
▁Sem
▁personally
▁lanes
▁athletes
▁Micro
▁Rachel
▁propag
▁console
aration
▁drivers
▁mainland
▁struggled
▁definition
▁looks
▁portions
▁Pars
▁pione
▁audition
▁behaviour
▁orchestra
lain
▁sung
▁continu
ghan
▁Jar
▁backed
▁Cost
▁Shaw
▁diver
acre
▁Yankees
▁artific
▁guitarist
otyp
▁Bach
▁jobs
▁guilty
▁marketing
odox
▁oblig
▁armies
arant
agh
regation
▁Fat
▁surpass
▁Birmingham
▁demolished
▁Tracy
▁Gray
▁dancing
itis
▁Lost
▁Mans
▁starring
▁Furthermore
iti
▁indu
inding
ication
▁Vik
▁cup
atern
▁Nine
▁Obama
▁ruling
▁Hugh
azines
▁feels
▁compens
▁factory
▁Constant
▁increases
▁Fel
avery
▁profile
▁essential
▁Eventually
▁compliment
▁Sak
▁punk
▁mining
▁heading
▁Universal
▁Canter
▁theater
▁counties
folk
▁Sig
▁obst
▁pages
▁pursue
▁McCartney
▁Enterprise
▁organisation
▁discont
▁believing
▁expression
ouver
▁affect
umps
apped
▁bonus
raction
▁patron
▁delivery
▁discovers
▁multipl
▁Buddh
▁Phoenix
▁salt
▁Jup
▁clothing
▁Baker
▁Comple
▁ports
▁stick
▁Hudson
▁succeed
▁Tol
▁Publ
▁mobile
py
▁crest
fle
▁Kl
▁sad
▁elevation
▁acou
▁Karl
▁Bobby
▁Girls
▁Wayne
cles
ultan
▁kiss
▁Connectic
▁Si
▁Pearl
▁doubt
▁drink
▁Impact
▁secretary
▁Madagascar
▁sq
▁accum
▁orn
tario
▁engage
▁forecast
▁horiz
▁Connecticut
bird
▁Todd
▁Defence
▁democr
▁Bosn
▁Peace
▁chest
CC
aux
irty
▁altered
▁Morrison
▁overseas
▁baby
▁mayor
▁Hold
▁Rights
▁deterior
inces
▁listen
ello
▁Deb
▁Patt
▁expand
▁Ontario
▁Kit
▁defences
owed
▁Potter
▁erected
warf
▁Diam
▁renov
▁cancel
irts
▁voy
shore
asant
▁Friday
▁stress
▁settlers
▁compounds
▁musician
▁Canterbury
mund
oker
pent
▁Works
stan
▁Goth
▁legislature
mat
acked
▁pale
▁Spart
yrus
▁Ran
▁Manu
▁Community
▁objective
OS
▁Farm
▁Leonard
▁aerial
▁raising
▁highways
▁decisions
oons
▁liquid
aks
▁disl
▁solar
▁Allies
▁conversion
▁soldier
▁aftermath
▁concentration
▁scen
ensively
▁campaigns
rous
▁Bath
▁Cycl
▁conspir
▁sitting
ifies
▁exactly
▁indicating
▁NAS
ulous
▁happ
▁prove
▁hidden
▁Foreign
CAA
▁wealthy
▁acknowledged
aments
▁Pruss
▁organised
▁radical
▁wrestling
oa
▁Kan
▁Lat
▁Griff
▁danger
▁trouble
▁permitted
▁dissipated
▁improvements
▁ski
▁realized
▁striking
▁graduated
▁Windows
▁dressed
▁Ted
▁Boys
▁Napoleon
▁appropriate
▁confron
▁execution
ratropical
▁Ze
▁UEFA
▁anth
▁meter
▁Py
▁observations
▁mac
uese
▁lin
▁raids
▁Legend
▁profit
▁Outstanding
▁encl
▁removal
▁fewer
▁travels
▁interpretation
otte
▁sky
▁Laur
▁venue
▁celebrated
▁net
▁initiated
▁aggressive
▁publications
▁sharp
▁Season
▁turret
▁Vanc
▁chapel
▁theatrical
atus
▁requires
▁publishing
▁jurisd
▁evacuated
▁Gary
▁Lion
inister
ivation
▁debt
itudes
▁Vancouver
▁Dall
▁Mint
▁origins
▁founding
▁originated
ipper
itals
▁tort
▁cannon
▁stationed
▁Gate
▁Symph
▁explan
▁Edin
▁Jupiter
▁connect
olly
▁establishing
▁brill
run
ugg
▁mush
▁supple
▁defending
▁rebellion
▁shorter
▁considering
▁announcement
▁arrangements
▁Mem
adier
▁steps
▁cutting
▁Champions
▁bones
▁Pakistan
▁fantasy
▁guarant
▁Mountains
▁Abd
annon
▁magic
OT
rapped
▁Drive
▁Lib
▁TNA
itively
autical
▁aspect
▁magazines
▁connecting
▁Cov
▁Tit
▁err
▁Bradman
▁approaching
aja
▁hosts
▁memor
▁donated
▁walking
▁Champion
▁extratropical
ais
▁ing
phone
ennium
▁placing
▁strategic
▁Our
▁Portuguese
▁lying
▁Triple
▁Administration
▁insects
▁ongoing
▁discussion
▁Len
hears
▁talent
▁colleagues
▁Ship
▁Stu
▁cub
▁funny
▁edited
▁youngest
▁glac
▁Alice
▁closest
▁predict
▁gathered
▁hypothes
▁qualified
▁mal
▁tubes
▁battlecru
asa
▁forth
▁decide
▁Trophy
▁volumes
▁Joy
▁coup
ecution
▁indicates
adal
onium
▁Dwight
▁landscape
▁strongest
▁watershed
▁withdrawal
fts
▁Isa
venth
▁Gene
▁rede
▁switch
▁putting
bow
▁angle
▁caps
hous
▁forg
▁markets
▁identify
▁gray
▁supplied
▁les
▁circle
▁exposure
▁Marvel
▁Fleming
▁neighbour
▁desert
▁confront
▁specimen
atra
▁Anc
▁Pap
▁Ches
▁partial
▁collapsed
▁challenged
elta
earing
▁merely
▁Reserve
▁Honor
▁Dub
anner
▁beam
▁density
▁Hampshire
▁NCAA
▁brig
▁Mission
▁Edinburgh
▁bare
▁cock
▁shift
avel
▁dubbed
▁spac
▁limits
▁visits
▁feeding
join
▁Pam
▁Stri
▁hydrogen
▁Bak
▁Oliver
▁provision
ieth
soft
▁Those
agger
▁clin
▁prize
▁educational
▁conventional
▁Dod
▁Meteor
▁Beng
enna
ista
▁plain
ocy
▁duo
▁Somet
▁Flying
▁seized
athers
▁Years
▁Afghan
▁annually
▁Tob
▁corps
▁bearing
▁concentrated
▁exha
irates
▁marry
▁topped
▁membership
otal
amental
▁attending
▁champions
▁Say
▁parody
▁assembly
iper
▁Mosc
▁Charts
▁bacter
▁ranges
▁dogs
hard
▁Natural
▁offense
▁navy
▁Type
arr
▁furn
▁Pin
▁Tig
igenous
▁emphasis
▁Monte
▁weekly
▁Princip
▁Begin
▁exercise
▁productions
▁legit
▁ticket
▁unless
▁talking
▁Meg
▁investigate
▁List
▁Kap
▁basin
▁trough
▁Ralph
▁anime
ür
▁cruc
▁Finally
▁promotional
olve
terior
▁Victorian
▁bond
▁Personal
▁bone
▁Democrats
▁jury
▁portrayal
oys
▁Ax
uzzle
▁Deep
▁Mand
▁ceased
▁flooded
▁fortress
▁Yorkshire
erk
▁advertising
▁Celt
▁fill
▁Ko
▁Om
▁Argentina
ported
▁Lloyd
▁uncle
▁uncom
▁regime
▁birthday
▁conservation
rising
onica
▁Pink
▁coff
▁invent
▁persons
▁queen
▁ballad
▁output
▁Convention
▁employment
▁Where
▁sending
▁Christianity
▁Village
▁attitude
▁photographs
▁experimental
▁eval
▁bishop
▁software
▁Brothers
▁hitting
▁questioned
▁Haz
▁Jerry
ović
aders
▁guide
▁Overall
▁Tak
▁Chronicle
▁provincial
▁Lt
pled
▁aggreg
▁drinking
▁scattered
▁translation
▁unclear
▁underwent
▁AS
▁Kam
▁Fund
▁Prop
▁mature
▁overwhel
hin
▁outd
hammad
▁endors
▁replied
▁assembled
▁cousin
rapy
▁Books
ications
▁Collins
▁Mong
▁papers
▁liberal
▁representatives
▁Prim
▁cens
▁coat
▁Craig
▁clock
▁swimming
▁Marge
ayan
rawn
▁Cad
ashes
▁external
▁commentary
▁wire
ologies
▁lawyer
▁proclaim
▁Apoll
▁thirteen
▁Andre
▁stere
▁Finland
▁imagery
aft
▁shr
▁trail
▁empire
▁monaster
▁NO
▁wait
assador
▁Glen
▁Howe
▁Maya
▁loved
▁comprom
▁Gor
▁lawsu
▁terrain
▁acoustic
▁slave
▁exclusive
idal
▁duration
▁pictures
▁electricity
▁streak
imm
amas
owski
▁movies
▁daughters
▁Eug
▁sang
▁devast
▁Wii
▁cad
▁Turner
▁accompanying
ioc
▁expert
ersed
▁tenure
▁arrives
▁surrendered
ensed
atever
▁branches
▁stronger
▁identical
pler
▁Jun
▁burial
▁Sle
▁Hardy
▁succession
▁Pad
aman
riors
▁beats
▁dread
▁Norfolk
▁Similarly
▁Queensland
▁Protest
▁charter
▁reverse
▁components
▁Heritage
▁Boat
▁Jama
▁prices
▁reducing
▁reveal
place
▁Sign
▁scar
ellation
▁reinforcements
rod
▁Burton
▁Hawaii
▁Din
▁penet
▁Belgian
erg
▁trading
▁Nicholas
▁Professor
illes
▁prev
▁spaces
▁destroying
▁Ric
▁mechanical
▁competing
▁isot
▁push
▁recall
▁failing
▁Beaut
▁Bennett
▁Communist
▁exclusively
olen
▁quad
▁component
eyer
▁stops
▁atomic
▁Rangers
▁myst
▁Davies
▁Cricket
▁Services
▁counterp
err
hell
▁Emmy
▁slavery
▁precipitation
▁Lock
▁Vincent
▁developers
▁Dak
ricts
▁dict
▁fossil
▁devices
onian
▁polar
▁traded
ibilities
▁governments
esty
▁Credits
▁Catherine
case
▁mini
▁pole
▁Liberal
abe
uras
▁elig
▁Living
▁banned
▁reward
▁Medical
▁Thunder
▁centers
▁confirm
▁obsc
▁Swift
▁Yellow
▁varied
▁Dram
▁Malt
▁wish
▁flowers
▁artificial
▁consistent
▁Lem
IV
▁Ni
▁pel
▁tube
▁radiation
▁Hob
▁Rud
▁redes
▁virus
▁waste
▁considers
▁platforms
▁tomb
▁Local
▁Hughes
▁Transportation
▁Curt
▁Look
▁bath
▁ow
▁Donald
legraph
▁earthquake
▁electrical
▁contribution
▁Tax
▁disb
▁incom
itarian
▁Guitar
▁hybrid
▁Training
pike
ethel
▁Prix
▁burned
angel
▁Must
▁humor
▁songwriter
▁architectural
▁ecc
▁reviewed
▁Next
▁Market
▁boilers
▁proceeded
▁profession
▁advised
▁fourteen
rastructure
▁understood
gs
▁CO
onald
▁Harvard
▁frequency
enesis
▁Peters
▁handled
▁intersects
▁talks
▁destroyer
▁improvement
acles
▁heir
▁lie
▁amateur
▁Darwin
▁Bald
▁Saxon
▁texts
▁copper
MI
rost
▁requirements
▁theore
ön
▁Swiss
▁samples
▁conceived
asm
▁Dyn
uating
▁phrase
▁induct
itely
▁portr
▁Cameron
▁conflic
▁investment
▁Blu
▁Kate
▁rein
▁Moscow
▁sixteen
▁reduction
▁referring
bal
mith
▁Ara
ensis
▁Oslo
▁shares
ulty
encing
▁users
▁recon
▁Gallery
▁airfield
▁Pittsburgh
eding
▁worn
▁charity
▁certainly
rehens
axy
umble
▁Harbor
▁voting
▁Indonesia
▁Pic
▁weigh
▁cleared
▁praising
▁respective
▁Phys
▁soph
▁Geoff
▁parks
▁labour
▁Craw
▁constitutional
eto
▁exceed
▁Inv
▁lock
▁flows
▁tactics
▁connections
▁nit
strong
▁photography
▁spoken
▁grossing
▁AM
ffield
▁toured
▁qualifying
haw
▁blind
▁survival
▁MS
tery
ingham
▁Terry
▁sweet
▁autumn
etheless
gom
eping
▁shoulder
rh
avor
▁continuous
▁ruler
▁fisher
▁Ali
▁stuff
▁reorgan
▁commanding
ean
▁Antonio
▁commenced
▁Mond
▁Mason
▁nautical
▁patients
▁Tow
▁unw
▁taxes
▁unlik
▁Alaska
▁tonnes
▁confidence
▁legislative
▁AT
▁fold
▁Broadcast
▁fasc
▁exists
▁enthusi
▁attorney
▁opportunities
icated
▁Wallace
▁transported
▁Sweet
▁Rest
▁communist
▁signature
▁Som
▁competitive
▁camps
▁uranium
▁Microsoft
▁translated
▁nat
▁melody
▁relocated
TWC
hum
pot
▁JTWC
▁Still
ario
▁Stef
▁Mayor
▁Got
▁indeed
▁tested
▁minority
▁Ent
▁Syria
▁Upper
▁rocks
porting
▁reinforced
▁AP
▁fulf
▁Aftermath
▁traveling
▁HD
ashi
▁Sid
▁Clay
▁fairly
illo
▁dece
▁moon
cester
minster
▁revolt
▁revised
▁sovereign
▁commanders
ambers
▁pairs
▁Past
▁noble
▁Ori
bes
▁RP
▁Emer
▁Grace
▁impression
▁manga
▁cartoon
▁explicit
▁uncon
expected
▁Fr
▁crops
▁withdrawn
▁Sheffield
▁See
▁Stars
▁Adv
▁Aer
▁Exper
▁blues
▁programming
ye
tes
anger
▁accord
urricanes
▁Larry
▁extending
▁Ec
▁dischar
▁displaced
oca
▁Ru
eared
▁fram
▁Israeli
▁experiments
▁Luke
▁Trail
▁voices
▁Security
▁principles
▁pap
▁Half
▁hole
▁promin
▁Officer
▁extinct
▁Fu
▁Cass
avia
where
▁provinces
▁Vel
▁chron
▁magnitude
▁representation
cott
seud
isive
▁conce
▁learns
▁enforce
▁characteristic
ussion
▁catal
▁distant
▁Jefferson
uto
asks
▁Osc
▁summ
▁prisoner
▁GameS
▁culmin
oda
▁Herald
▁Pictures
▁abuse
▁craft
▁Dallas
▁marine
▁sample
▁wonder
▁Bryan
▁Clarke
▁lights
▁interpreted
▁Johnston
umph
itious
▁Cyrus
▁warfare
▁Together
▁nerv
car
lad
aching
▁relatives
utton
▁compound
▁practical
▁hem
rooms
▁rivalry
▁approaches
▁id
▁Quest
▁herit
▁Mix
▁cuts
▁Austin
▁Guinea
▁victim
▁Malaysia
▁Performance
zed
▁Daw
▁Chile
▁airing
▁Defense
▁displays
▁judg
▁burning
▁shifted
▁proposals
▁traditions
▁Owen
▁bull
▁skill
▁Steel
▁Wells
▁carries
▁rehears
uez
▁Eis
▁Woman
▁chore
▁lighting
▁warnings
▁girlfriend
▁multiplayer
▁Neil
▁sings
▁Orange
▁myster
▁Parsons
▁restore
▁graduate
▁FBI
▁Nord
▁Greater
▁Official
▁participation
▁web
▁rebels
ationally
ags
▁Eight
▁absent
▁blocked
▁thunder
▁medicine
▁preparing
▁transportation
▁Falls
▁Priv
▁scores
iciency
▁Liter
▁march
▁conven
▁Chelsea
▁Tai
alia
▁Danish
▁valuable
▁interviews
umped
▁mans
▁cyclones
▁Formation
aha
urd
▁Sac
▁riding
▁salary
▁Classic
▁protests
▁filmm
▁wished
▁brilliant
len
▁Nev
merce
▁salv
▁passion
▁Description
yd
▁Sega
▁pier
▁unlikely
▁Armstrong
▁Brazilian
▁Hav
▁McKin
▁creek
berry
leans
▁infl
▁cabinet
▁recovery
▁Eve
ocity
▁Quebec
▁Fisher
▁Beginning
▁districts
▁maintaining
aters
▁Studio
▁reforms
▁Rena
▁cinema
▁Greatest
▁Yam
▁fest
▁intervention
▁garn
▁arguing
▁estimates
▁Fourth
▁Kaiser
▁courses
▁drummer
▁grandfather
▁amph
▁racial
▁contend
▁aft
▁clar
▁beneath
▁recurring
▁Actor
▁Ga
▁Rio
▁Salt
▁releg
▁petition
▁significance
▁Spirit
▁vulnerable
aze
uri
▁towers
▁Eff
▁Link
▁kills
▁accurate
▁advertis
eston
ource
▁upset
▁Gay
▁diverse
▁Il
▁Eth
▁valid
aser
lete
▁eating
▁Authority
▁Cathedral
▁Plant
▁Constantin
▁statistics
▁communications
▁Vers
▁Reich
▁Agency
▁sponsored
onge
▁cant
▁paras
▁applications
▁hind
▁Susan
▁Orleans
▁clothes
nt
beat
iar
▁answ
▁shock
▁Kane
osexual
▁numbered
▁efficient
▁Poly
▁Utah
achute
▁Harold
▁airline
▁Cultural
▁Mend
▁unexpected
▁Serbian
abilities
TS
▁Sug
▁Ivan
▁Globe
▁morph
▁surve
▁toler
▁Junior
▁sacrif
▁Amb
▁CBS
▁steep
▁shallow
▁decorated
utor
▁inclusion
itate
▁faces
▁answer
▁lasting
▁essentially
ucker
ATO
▁iP
▁pm
▁FIFA
▁Scar
▁tale
wright
ét
▁mate
▁gender
▁consolid
▁surprised
ME
affe
erver
ipped
▁charted
▁jet
oting
▁mood
▁chronic
▁emotion
▁Richmond
▁liner
▁Panzer
▁CS
▁Muhammad
▁deeply
▁beaten
OC
mn
asha
rary
▁Newton
▁theories
▁squadrons
anche
▁ratio
landers
▁fate
▁merged
▁Province
dess
hers
▁manage
▁summit
▁Constantine
▁potentially
▁MI
aiden
oria
▁drafted
keeper
▁suspic
▁Republicans
levard
▁Tyler
castle
▁tours
▁processes
iko
▁Scientology
vet
▁ho
▁Pok
▁grave
▁swit
reated
▁Minor
▁proportion
Arthur
▁crimes
akh
▁Stuart
▁descent
▁dancers
▁sentence
▁scr
enson
▁Ferr
▁demo
▁dual
opp
▁YouT
▁merc
▁beating
▁segments
▁civilians
▁persuaded
▁dense
▁Fighter
▁dim
ocation
▁beauty
▁funded
▁heritage
▁hills
▁implemented
▁Ins
▁bell
▁Apollo
▁Orchest
▁YouTube
▁accommodate
▁boot
▁Picture
▁altitude
▁reactions
▁Product
▁Sout
▁XII
▁colors
▁Bes
▁manip
és
▁golden
▁Indonesian
▁agriculture
▁presentation
▁Full
▁wine
▁Buffalo
▁Amendment
▁structural
born
▁pip
▁rib
aping
▁Tang
istent
▁proof
▁administer
▁complained
▁feared
▁devoted
▁PS
▁Alt
▁evident
▁Cardiff
▁columns
▁addressed
▁southeastern
▁nurs
▁sailing
▁requiring
▁dwarf
▁rejoin
▁Symphony
boards
▁Sultan
▁oriented
▁Quar
▁McN
▁breaks
▁triang
▁Had
▁Days
▁Conservation
▁Wa
heric
yself
▁Kyle
▁fame
▁observation
sts
▁error
▁Hunter
▁jack
▁Burns
▁truck
▁Brooks
▁voyage
▁tribe
▁Wonder
▁Without
▁kidn
▁Ground
▁recept
▁followers
▁mythology
▁Sox
▁cards
▁Johann
▁Register
▁pregnant
▁interaction
▁pink
▁Danny
isons
▁Ruth
▁gene
▁judges
▁confusion
▁researchers
ocket
▁Aber
▁knee
▁rect
usalem
▁holiday
▁Electric
▁jurisdiction
ulus
ospel
▁Section
▁quarters
▁Walt
▁Cavalry
gie
sor
▁Heb
onsin
rific
▁Nature
▁operates
▁intermedi
othy
▁Mall
▁suddenly
▁Pant
▁Side
▁Prest
▁Until
▁categories
▁diplomatic
anted
▁opens
▁sugar
▁superst
▁writings
▁commenting
izer
▁Wisc
osaurs
▁Islamic
rob
arks
nels
▁Fitz
iously
▁Actress
▁Titan
lon
▁physics
▁tension
▁Metropolitan
▁Hope
▁embarked
▁advancing
▁sculpture
▁highlighted
cha
▁Airlines
▁extensively
sburg
▁sized
▁Jerusalem
oded
quest
▁Gang
▁fert
master
▁assum
▁thrown
▁principle
▁similarities
imp
▁ages
amount
▁bears
▁Boeing
▁Justin
▁gaining
▁studying
▁challenges
enos
▁mud
lington
LA
NC
▁Abu
▁Bible
▁tooth
urst
▁manif
▁Executive
▁Trade
▁gardens
▁drown
▁Edition
▁lifetime
▁Env
▁Start
▁equally
▁statements
▁Meth
▁Legisl
▁Typhoon
▁knocked
▁Kid
▁sentenced
▁infrastructure
▁fee
▁orange
▁constitu
▁Schum
▁Barnes
▁rivals
▁locally
▁educated
▁gift
▁universal
▁disturbance
▁Crus
▁divorce
ín
pine
thodox
▁Wisconsin
edia
▁Based
▁Mind
▁dealing
▁predators
▁boundaries
▁traditionally
osph
▁priest
▁variation
chi
▁Nas
▁Sean
▁ties
▁gh
▁sword
ancellor
▁Independence
atched
▁Miles
▁overlook
▁documented
▁Sud
▁empty
▁explaining
▁Trad
gomery
▁Baron
▁Saturn
▁resolved
▁Montgomery
▁Bud
▁Attorney
▁UC
▁Patri
▁Rogers
▁stretch
▁Leaf
▁rings
▁spawn
▁Century
▁villain
▁receives
phan
▁scre
▁Grade
▁enabled
▁settlements
ulsion
▁Control
▁recruited
aple
piece
▁Scots
▁supern
▁garnered
▁discontin
▁forb
▁tape
▁Turkey
▁MacArthur
▁travelling
▁Tu
▁Syn
▁urg
unning
▁naming
▁explore
▁benefits
▁commercially
▁considerably
▁cry
▁helps
▁tickets
▁Cemetery
ni
backs
▁Fact
ometric
▁strand
▁hostile
▁rescued
▁Wes
▁lift
▁options
▁Icel
▁seas
▁smoke
▁crashed
▁ashore
▁substitute
▁Winn
▁involves
▁weakening
rien
▁Lev
▁Toy
▁flex
▁cliff
▁Sherman
▁Pul
▁batted
▁disorder
▁Christians
▁dimin
▁tasked
▁proteins
cut
▁guy
▁Ages
▁Bert
▁concerning
wald
▁spar
▁Movie
▁dying
▁Pierre
▁housed
rene
rift
uters
▁doors
▁detect
▁escorted
▁NS
▁Midd
▁assert
▁CP
hill
ovak
agers
lights
▁depicts
ellar
▁Flore
anne
zing
▁Beh
▁vig
▁epic
▁styl
▁Spider
▁inning
▁elaborate
▁Baltic
▁Iceland
▁pursuit
▁volunteers
▁Cer
▁gods
▁borrow
▁concurrent
sa
gged
▁Aren
▁Judge
▁Krist
▁dinner
▁circular
▁imprisoned
én
▁Und
▁Flow
▁inhib
▁innoc
▁Management
▁Ce
▁nut
▁tel
▁Fern
▁Fish
▁reass
▁Romney
▁Thames
▁warships
▁authorized
▁collections
olar
▁Ref
▁editions
▁conflicts
▁competitions
▁teammate
▁Tourn
▁pursued
ía
▁Fil
▁tempo
▁Athens
▁Hearts
▁Barbara
▁revival
lane
▁Stein
ardo
▁pill
▁ramp
▁eventual
▁favourite
kh
aco
▁fra
▁liver
▁politicians
▁Evil
uction
▁Reagan
▁harbour
ourag
▁beliefs
▁virtually
tains
▁Bask
▁Code
▁Crow
▁drain
▁Regional
▁Mang
▁conj
▁urged
▁Comedy
▁chemistry
▁NATO
▁Against
▁renewed
▁opposing
▁screenplay
▁manufacturing
▁Pas
▁cam
▁Hunt
▁Zone
▁Branch
▁abroad
▁veteran
▁handling
▁Representatives
▁chase
▁Nancy
▁census
▁mixture
▁Fight
▁cable
▁portrait
▁velocity
cliff
▁leaf
▁unve
▁stones
▁examination
▁suspected
▁universities
ao
▁Any
▁Sonic
▁medals
▁congress
▁participants
eling
ublin
▁verte
isition
▁stolen
gow
▁Face
▁laps
▁spur
▁Report
▁Tribune
izz
onation
▁rushing
▁trailer
▁Neb
▁cow
arest
▁Nova
▁colours
▁possess
▁promoting
▁remembered
anim
▁cattle
▁promise
▁thereby
▁rendered
▁organisms
ando
ridor
▁sharks
▁inherited
mo
▁Tru
inery
▁Chad
▁pitcher
▁taste
▁Saf
▁interven
roe
▁apply
▁Portugal
▁Newcastle
itic
▁sor
▁Ernest
▁comics
▁capturing
point
▁Gran
▁Invest
otion
▁Bright
▁trapped
▁decreased
▁loud
▁prox
▁Draft
▁decay
▁tissue
▁costume
▁tracked
▁bombardment
ocal
▁positively
▁Constantinople
▁hopes
▁inhab
▁vital
▁compositions
▁accidentally
oba
▁rand
▁invaded
▁celebration
▁Wed
▁Glas
▁Magic
occ
▁Has
▁blend
▁prototype
ilda
▁sav
▁juven
▁Charlotte
isan
▁Personnel
▁occasional
mont
▁Shah
▁maps
▁warned
▁tornado
▁Mi
quer
▁links
erts
▁Pete
▁Heavyweight
▁ib
▁José
▁Merced
limin
▁rains
▁hoping
▁Liberty
▁variations
▁anticipated
idia
icking
▁Joint
▁Youth
▁Chapel
▁Affairs
▁upcoming
▁Laboratory
▁Environment
ampton
▁boyfriend
ovic
rible
▁Cornwall
▁Saw
▁Others
▁Agu
▁Cryst
▁Voice
▁bomber
▁batteries
▁separation
bing
▁Kon
▁genu
▁dozen
▁laugh
▁scandal
▁laboratory
▁provisions
vo
colm
▁dust
▁rever
▁Freedom
▁marking
▁sinking
▁accessible
eps
▁Cinem
▁guests
▁horizont
▁impressive
fly
ulum
igious
auc
▁RO
rior
▁Sic
▁Beth
▁fires
▁biological
▁nose
▁easier
▁Filming
▁nickname
▁dependent
▁Gon
hou
▁Hom
restrial
▁politician
▁Vo
▁random
▁Friends
▁supports
▁parliamentary
icken
▁Chester
▁indigenous
DI
ER
orf
ught
▁Term
▁afford
▁avoided
▁Leices
▁lighter
▁Armenian
held
▁fed
rogen
▁Bapt
artime
▁therm
▁handle
▁Marines
▁threats
▁progressed
▁eld
agles
▁Duch
▁Kenneth
▁formula
▁hyper
▁deputy
▁biography
▁consumption
▁restrictions
▁DJ
ptic
▁Cand
▁Case
▁fier
▁Members
▁volcanic
▁corporate
var
▁Cinc
▁Vick
ailing
▁Oscar
▁Malcolm
▁Protestant
atsu
▁nep
amics
orted
▁truly
▁LP
▁XX
▁Bark
▁Tree
▁cash
▁Meteorological
▁Thr
amine
▁Peng
▁Skin
▁Bears
▁toxic
▁trunk
▁Energy
▁imposed
gé
▁da
enberg
▁Lower
▁Pedro
▁rugby
▁mixing
▁Orchestra
▁occurring
▁particles
▁Chamberlain
WA
agg
lem
▁Mult
▁fles
▁usage
▁Boulevard
▁Cena
▁Antar
▁Isaac
▁produces
▁license
▁noticed
▁murdered
▁evacuation
etta
ielder
changed
▁dreadn
▁customers
▁por
▁wound
▁contracts
▁defenders
▁ine
▁Dublin
▁MV
acht
▁acre
heimer
▁Chair
CO
▁ERA
racks
▁exile
oples
▁Than
alling
ded
iah
osy
▁metric
▁cathedral
▁Sex
▁Take
▁Zero
▁choir
▁lawsuit
▁abb
▁Athletic
▁relation
▁prest
▁Room
▁wake
▁Break
▁Action
▁Career
▁Cyclone
▁Guild
▁killer
▁speculation
▁nephew
▁intellectual
▁debris
▁timber
▁ordinary
▁engineers
▁Slav
▁hence
▁plates
ju
▁angry
▁Bradley
▁disappointed
▁Eddie
▁Gabri
▁Watch
▁Altern
▁depicting
▁cu
▁aside
▁eastward
bach
▁fab
▁Glee
▁developments
▁kilog
▁conquest
▁Pel
emble
▁ignored
▁decrease
▁Tournament
▁encounters
▁industries
▁Continental
▁threatening
hl
▁lyrical
▁throwing
▁Archbishop
▁territorial
HS
overed
▁complicated
for
▁Serbia
▁Luft
▁ward
▁chrom
▁mechanism
▁undertaken
▁thunderstorm
▁revolutionary
▁mit
▁une
▁Alberta
▁Cincinn
▁stern
umbered
▁breast
▁vicinity
alg
▁Ord
▁Future
▁mounts
▁elite
▁strikes
▁touchdowns
osion
▁Mann
▁Tommy
▁remin
▁humanity
▁convicted
▁Springfield
▁championships
ieg
itol
▁mos
▁Metro
▁Micha
▁exhibit
▁confident
▁conversation
icing
▁Villa
entieth
▁focuses
▁Collection
olia
▁unt
onial
▁penn
▁Gates
▁mammals
▁inaugural
▁Joan
▁lacking
▁contacted
▁gif
▁Tint
▁entert
▁suspension
▁farmers
▁preserve
▁realistic
itime
iture
▁Place
▁boost
▁Gibral
▁Veg
encer
▁Shep
▁constantly
etary
▁metre
▁helicopter
uka
▁Pros
▁stim
▁arose
▁posts
▁Muslims
▁Studies
▁diamond
▁Tir
▁facil
▁infection
▁Yugoslavia
iked
▁patri
▁tools
▁Marshal
bel
ocol
▁infer
▁voters
omed
▁Kin
▁Chet
ellers
▁Malta
liminary
▁feathers
▁collaborated
▁predominantly
▁Uk
▁Canu
▁photo
▁Wagner
▁thorough
▁Friedrich
asp
▁Jake
▁thro
▁Shiva
▁asserted
iga
▁LS
▁Pay
ortion
▁desper
▁Gibraltar
▁AL
▁Rear
rolled
▁Maine
▁patient
▁absorbed
rank
▁Kaz
▁centered
enz
oirs
quiry
▁Hood
ischer
▁castles
▁releasing
▁Reed
▁user
▁Robin
▁holes
▁Fly
▁mad
▁Hull
▁tune
▁grows
▁Waters
▁peninsula
▁Cincinnati
▁Parks
▁Comics
▁Taiwan
▁Ancient
▁removing
ework
▁Round
▁illustrated
▁pig
ubble
▁apolog
▁Angelou
▁explanation
Hg
▁knows
▁speeds
▁sustain
auge
▁Dud
assy
▁antib
▁resid
▁compiled
▁Maced
▁Hispan
▁breeds
▁retrie
▁Normandy
▁canceled
▁bowl
regular
▁Cort
ennial
▁relieved
▁situations
▁independently
▁encom
▁enorm
ahl
▁Lords
▁sheep
▁isn
▁lib
▁Brid
▁Vegas
▁roadway
▁lover
asury
▁Poké
▁Shield
▁pleased
ritic
▁Alliance
▁Twitter
▁offshore
▁Afghanistan
rels
▁Kill
▁VIII
enburg
▁Olivia
▁clergy
▁layers
▁Madison
▁marched
▁aest
▁Edmund
▁locomotives
▁Esc
music
▁prosper
▁viewing
▁outstanding
hall
ulates
▁couldn
▁Conservative
oi
▁Sad
▁Rush
▁Burke
▁arena
▁blast
▁genres
▁paying
oom
uber
▁Eld
icular
▁expanding
▁Technology
▁closure
▁varying
▁Lud
ringe
▁backst
▁Gregory
gus
▁mild
▁Leeds
▁butter
found
overty
▁colored
▁mask
instein
▁Former
umberland
▁sentiment
▁Schumacher
hart
▁Brooklyn
▁disappeared
avan
izard
▁bapt
▁Revolutionary
bu
▁perc
▁suggestion
▁regulations
▁JNA
▁fant
▁reporting
▁atop
▁spir
ribution
▁celebrate
gary
▁Sor
▁grid
▁Orton
▁Julian
▁Mercury
▁armoured
imony
▁Cond
aneous
▁dropping
onnie
▁Serge
▁fungus
issioned
▁Cou
▁Cry
▁asc
▁inducted
▁conspiracy
ipher
▁Burg
▁Hubb
▁Soph
▁faculty
▁Princeton
ishn
▁Cut
▁Talk
acular
▁anthem
▁attraction
▁Browns
▁McKinley
▁Aub
▁Kra
▁Chem
▁Helen
▁Dennis
▁Nation
▁romance
▁reporter
zes
▁Hus
▁Rus
▁flour
▁companion
▁nevertheless
▁conced
▁SA
gett
▁Tigers
▁blamed
▁witnesses
feld
▁tent
▁Chang
▁swept
▁submer
leted
▁oxid
▁eagle
▁Organization
▁af
▁MLB
▁Nathan
▁organic
▁fundamental
▁Leo
▁pseud
▁remote
▁repris
▁publicity
odium
▁stored
▁Historical
▁submarines
flow
▁Stal
inated
▁parking
▁whatever
▁aqu
▁Coal
▁Vern
▁sulf
▁Ghost
▁positioned
bie
▁Mut
▁annex
▁Musical
▁retreated
▁mail
▁Month
▁Barcel
▁verses
▁stability
omon
▁lung
▁fortifications
▁Lamb
usters
▁fract
▁shelter
▁focusing
▁progressive
pin
hend
▁inHg
▁Hubbard
▁targeted
▁condemned
▁NASA
▁Steam
▁noise
▁swing
▁gentle
▁Glasgow
eness
▁monit
lett
▁drunk
▁flown
▁Father
▁irregular
rity
▁Canucks
▁corresponding
▁Tests
▁curve
▁recruit
▁disbanded
▁resignation
DA
eda
yan
▁Isle
▁Devil
▁Opera
▁fossils
▁Political
cell
▁rab
▁Isab
▁Nass
▁Pick
▁detected
qual
▁Hey
▁Nad
▁cruise
▁confused
▁melod
▁winners
▁convince
▁magnetic
▁telephone
▁torpedoes
▁challenging
▁encourag
▁preceding
▁Smack
areness
▁roster
▁Holland
▁rebounds
arded
▁machines
▁mentions
▁cha
▁Fifth
▁Solar
▁brings
▁quoted
▁Phillies
▁Mak
▁rice
▁ferry
▁Inside
▁Montana
▁Insp
▁bore
▁scrap
▁studios
▁insurance
▁regiments
▁worse
▁terminal
▁calculated
elin
▁fault
▁solely
▁Herbert
▁tourist
▁Theodore
▁concepts
▁directing
▁BCE
auded
▁triumph
▁creature
▁diversity
▁Celtic
▁Tintin
iki
▁Millennium
▁Kil
roscop
▁darker
▁CC
ishops
▁thanks
▁Morning
▁judicial
▁rotation
▁Westminster
isk
▁CA
▁Seb
▁Strong
phal
igation
onso
▁nice
▁historically
atty
▁CEO
▁hide
▁favored
▁Adventure
▁fo
▁Nam
▁tap
avian
▁Epis
▁Mercedes
▁examined
▁scholarship
▁Wel
overy
ourable
▁jersey
▁Rav
▁Brah
hentic
▁Denver
▁Poe
▁jew
▁zero
▁myself
▁Barn
▁Yard
▁gear
▁Austro
▁config
▁Basketball
umi
▁Mig
ewise
inter
iors
▁Expl
▁Athen
▁cotton
▁battlefield
ampa
▁Cox
▁Albany
▁steadily
▁prompting
ht
▁Glou
▁balls
▁wartime
▁acclaimed
▁reconstruction
sis
▁Bour
▁sharing
▁messages
nda
▁trio
▁walked
▁rounded
▁Occ
▁Salv
▁Percy
▁Ronald
▁Theater
▁measuring
▁monastery
lude
▁Sri
▁ghost
▁spacecraft
▁Gothic
▁elevated
ör
▁masc
▁screens
▁Bulgarian
▁Additional
works
▁Cany
▁troop
▁linear
▁connects
acer
▁Hok
▁Led
▁Rivers
▁guards
▁agencies
▁eligible
▁NA
atisf
▁gusts
▁agrees
▁flower
▁Current
▁Bris
▁Verm
▁postp
▁curved
▁themed
▁routing
▁decisive
▁commitment
▁distinction
▁trig
▁Ottawa
▁presents
aton
Music
lined
rians
arians
▁motif
▁Carlos
▁refuses
▁exterior
▁accomplished
aku
▁oct
opard
▁Chuck
▁Nevada
▁clouds
▁opined
▁radius
izers
▁kids
▁stall
▁revenge
▁cemetery
▁arguments
▁conducting
vor
cont
▁Berm
▁Pack
▁cosm
omical
▁tough
▁convey
▁incidents
▁hosp
▁Squad
▁comed
▁walks
▁poster
▁Pokémon
▁physically
▁Duc
▁Abra
▁echo
▁Rosen
▁Barcelona
▁Territory
▁proclaimed
eta
atar
olan
▁Caes
▁Michaels
▁creatures
▁kilometers
abad
▁Marl
▁loose
istical
▁encompass
▁integrated
▁consequence
▁participating
▁Fun
aults
iffer
▁spell
▁ritual
unge
▁Arc
▁Mega
▁rebel
▁finest
▁indirect
sch
ettes
▁Milan
▁canon
▁width
▁venues
▁centimet
▁Cardinals
▁intend
▁EC
▁Wis
▁Enix
▁scout
▁runner
▁touc
▁chann
▁theaters
▁Hi
itars
reeks
▁Metac
▁complimented
▁marg
▁lesser
▁properly
▁ceremonies
▁demographic
▁Tas
▁unh
▁lakes
▁spots
▁enhanced
▁reminisc
aba
anka
ighed
▁Drake
▁prince
▁borough
▁extends
▁Churchill
▁contribute
ubs
arthy
▁Colin
▁bowled
▁telesc
▁Parkway
▁mansion
▁deliberately
season
▁Foster
▁Paraly
▁Raymond
▁contrad
▁martial
▁peoples
bi
▁RBI
▁gram
▁Archae
▁insuff
▁varies
▁Romanian
▁preparations
RS
rium
▁Hein
▁remake
▁heavier
▁Bod
▁southwestern
asia
▁harsh
▁weakness
▁instructions
▁intermediate
▁Emma
▁Manuel
▁ministers
▁Operations
▁Wings
▁onwards
▁Computer
▁transformed
Down
▁possessed
▁coaches
▁updated
▁playable
▁prospect
▁continental
▁hurt
herent
▁optim
▁achievements
lake
rush
▁RNA
▁fru
▁Speed
▁Circle
▁Middles
▁SmackDown
GM
▁Voy
▁Shin
▁rook
ashire
▁Weather
▁Sciences
▁sensitive
▁initiative
▁yd
▁logo
▁airborne
inus
▁Alam
▁rider
▁Diamond
▁outcome
yc
▁Belie
▁Blair
▁Venice
▁propaganda
▁transmission
▁Total
▁aided
▁Northwest
▁homosexual
chw
▁Jamaica
▁Richardson
▁consideration
▁wit
▁moist
▁allied
▁Paralymp
▁variable
▁critically
ogs
appa
▁bin
▁Bass
▁Powell
▁disabled
▁vegetation
▁autobiography
▁consciousness
cht
▁Unit
▁orchestral
▁Calgary
▁deposits
▁emerging
▁tourists
▁reh
▁tom
assic
alties
▁Contem
▁Duncan
▁monster
ironments
▁estimate
▁landmark
▁depiction
▁exercises
▁Lancashire
▁Composition
agi
actic
▁Arena
▁Ferdin
▁Ib
▁spite
▁unanim
▁worker
▁Fa
▁Body
▁Henderson
▁permanently
HC
arus
core
▁stom
▁routine
▁municipal
▁punishment
▁consistently
▁Delta
▁Floyd
▁comprising
▁northeastern
▁epit
▁latest
▁borders
▁presidency
▁Isles
▁amphib
▁ascend
▁pref
▁Psych
rington
▁staged
▁damaging
▁assassination
▁ion
▁Medic
atorial
▁managing
▁delegates
▁searching
▁achievement
▁journalists
▁subtropical
▁XI
▁dock
riages
▁payment
▁sailors
▁performers
▁environments
▁Cu
▁Aqu
▁Carn
▁Planet
▁honors
▁summon
▁doctrine
▁belonging
▁revealing
▁Mills
▁witnessed
▁complement
▁Berg
▁Frances
▁mysterious
▁Ellen
▁Conserv
▁Crawford
▁psychiat
▁encourage
rip
▁odd
▁Cloud
▁Range
▁Using
▁input
▁marsh
▁archaeological
▁Chan
▁seal
▁enlar
▁Canyon
▁confer
▁Springs
▁priority
▁reluctant
▁Pon
▁milk
▁Rodrig
▁phenomenon
▁philosopher
zig
▁silent
▁preventing
gor
▁Dj
omys
Brien
▁Leicester
▁dispatched
▁unsuccessfully
arma
olars
iang
▁argue
▁gates
▁anarch
▁venture
▁actively
ido
▁Tab
▁Vic
▁versus
▁hypothesis
▁mant
▁Grove
▁Marqu
▁lengths
▁Veronica
▁belonged
▁coaching
▁switched
▁plum
▁Crystal
▁Food
▁icon
▁Pra
▁Tib
▁gest
isations
▁finance
▁frigate
▁strange
▁Telegraph
▁root
▁ceiling
▁poverty
▁disputed
▁eighteen
▁Palestine
▁listening
▁corruption
▁executives
▁distinguish
idge
assed
▁Mile
▁Punk
rained
▁Tucker
▁awareness
▁scientist
▁SH
adows
ijing
▁introduce
asi
oric
▁Mull
▁vamp
▁Fischer
▁mechanics
▁directions
▁Headquarters
▁contributing
▁ov
immer
stown
▁abst
▁shaft
▁Assist
▁exploration
▁expectations
RC
eches
▁Anat
▁Films
▁adjust
▁Why
▁procedure
lex
Tunes
▁honey
▁metals
▁rational
▁internationally
boat
rews
▁Bea
▁Fur
▁Kepler
▁Region
▁phosph
▁whales
▁molecular
▁formations
nery
usty
▁Ply
▁Plat
▁Flanders
▁naturally
▁surpassed
▁sib
asaki
▁mbar
▁Intellig
▁objectives
rud
▁Seas
▁sheet
▁carved
▁guitars
▁leagues
▁mystery
▁advocated
▁improving
▁dimensional
BO
▁Pine
▁Truman
▁tribut
▁UB
▁saving
▁desired
▁privile
▁Hass
▁True
▁accus
▁Commons
▁shipped
▁Hil
▁reop
ulture
▁submerged
▁Syl
▁unrel
▁Dudley
▁abundant
▁discussing
▁processing
istocr
▁requirement
▁overwhelming
ierra
▁cubic
▁eleph
▁remind
▁staying
▁Standard
▁tasks
▁Masters
▁convert
▁temples
▁acceptance
▁reson
▁Desert
▁crucial
▁associate
ouch
waffe
▁dive
▁Watson
▁horsepower
eded
▁cro
amation
▁Deputy
▁Newman
▁Beijing
▁Ky
▁Mail
▁Exped
▁Malay
angered
▁Byzant
▁Commerc
▁partners
▁Vlad
erness
▁genes
▁McCarthy
▁explored
PS
ogg
▁Adela
▁estates
▁blockade
▁comprised
▁haz
▁Raid
▁pump
acking
▁nervous
▁keyboard
▁speculated
▁cameo
▁Gibson
▁channels
▁opinions
▁refugees
▁authentic
▁composers
▁unre
▁Trinity
▁collecting
▁jaw
▁memb
▁adequ
▁resemble
▁fragments
▁navigation
GB
▁Bran
▁perf
▁Eagle
▁loaded
▁Rif
utely
▁gran
isting
▁femin
▁Colomb
▁photos
▁suffer
▁undertook
imer
inqu
▁Clif
▁iTunes
▁immigrants
heads
utter
▁Alpha
▁Surv
▁Guadal
▁genera
▁averaged
▁habitats
▁republic
▁turbines
▁percussion
▁Professional
elia
▁Sche
▁Meyer
▁seeds
▁whale
▁Culture
▁posthum
avil
▁ants
▁bench
▁faction
rehensive
▁complaints
▁compromise
▁manufactured
opol
▁RIA
▁Mick
thlete
▁Monster
lia
▁sic
▁bars
▁Angle
rection
▁assets
▁metall
▁homeless
▁networks
ho
suing
▁lesb
▁repet
▁Luther
▁Mobile
▁rushed
▁consequences
wyn
▁stair
▁underwater
orig
employ
▁Aaron
▁manages
▁coastline
▁Metacritic
▁Wellington
▁Appro
▁gauge
▁Method
▁summar
▁absolute
▁dissolved
▁reconstruct
amped
iggins
▁Baptist
▁symbols
▁eruption
▁psychological
▁emig
otypes
▁goddess
▁honorary
▁Luftwaffe
▁contempor
di
oves
▁ups
▁Want
mother
▁symph
▁improv
ographed
▁Bermuda
ugs
▁Timber
▁Shelley
▁lengthy
iden
▁buff
▁relied
▁consensus
yll
unar
▁Monroe
▁lemurs
▁variant
▁ultimate
fr
▁loyalty
▁ol
cour
otto
▁Cool
▁adds
▁Urban
▁fears
▁ensuing
▁singers
▁Kem
▁signals
▁RPG
▁brut
▁intact
▁Aguiler
▁landings
▁reserves
▁unveiled
▁qualities
icus
ylum
olith
▁cave
▁Woods
▁fraud
▁eldest
▁Machine
▁disappoint
ikes
▁Herm
through
▁Selena
▁teachers
▁assessment
ema
▁CM
▁Otto
▁Shan
▁Shar
▁rocket
▁Aguilera
▁aristocr
▁flesh
▁Notable
usive
▁Marx
▁duck
▁doctors
▁defenses
▁ambassador
▁interactions
▁Hat
ovsky
▁Henri
▁millions
▁Engineering
▁battlecruisers
▁Rah
▁amid
▁emotions
▁spectators
▁Mom
▁Choice
▁Various
▁batsman
▁delight
▁grossed
▁printing
▁literally
orge
eward
▁sear
▁essay
▁Wolver
▁pounder
▁MC
▁gam
▁owing
▁tradem
▁weighed
▁comparing
▁twentieth
▁songwriting
▁Pi
▁Ellis
▁costumes
igo
▁clip
licted
▁chlor
▁Flames
▁lifted
▁enormous
ebe
auna
stad
▁Esp
imity
▁Female
▁Cabinet
AL
▁Wool
▁stabil
▁Stage
▁Dakota
▁bacteria
▁explosive
aurus
▁rent
▁rally
▁interf
▁engaging
iri
edar
star
▁Fab
▁Leigh
▁dealt
▁trips
▁revived
▁intelligent
cock
▁Chin
monton
▁Wrest
▁patrols
▁appealed
▁instructed
▁Renaissance
ci
issa
uits
▁Pent
▁Money
▁Genesis
▁strings
▁Expedition
▁politically
▁insufficient
▁hier
▁deals
dam
▁Mk
iche
▁MVP
keley
▁Nept
▁telev
▁reader
▁Newport
▁relating
▁tensions
▁horizontal
▁instrumentation
▁Drum
▁Lore
▁stroke
▁Soviets
▁Chandler
▁enrolled
▁WWF
▁digit
▁bitter
▁suited
▁graphic
▁Adelaide
▁Phillips
▁diseases
bery
orus
▁Hanc
▁cats
▁Maxwell
▁subordin
nal
▁anx
▁liv
endar
▁woods
▁hurricanes
hand
▁Sans
▁Riley
▁Curtis
▁Heaven
▁Geoffrey
▁vocalist
zo
▁Nak
▁subd
▁referee
rav
▁Mol
force
▁clan
▁widow
▁Butler
▁slower
▁Ferdinand
▁termed
▁chapters
▁mushroom
▁reminiscent
▁Surrey
▁Knights
▁incomple
▁exhibited
▁intersections
utonium
▁Barrett
▁missile
▁extraordin
▁allegations
▁declaration
the
▁etc
▁incred
▁Abraham
ulu
▁Essex
▁wishes
▁counsel
ologically
▁Therefore
▁Screen
▁Spencer
▁involve
▁mistake
▁overcome
▁discipline
odon
▁Madrid
▁Plymouth
▁tactical
▁mathematics
pect
▁Right
▁Prison
▁Capital
ichi
▁Wald
▁Blake
▁Burger
▁Combat
▁Fellow
▁Romans
▁gallery
▁GameSpot
▁disliked
▁sacrifice
▁shirt
▁cultures
ED
othe
▁Lie
▁hunt
▁Heath
▁Metal
▁joins
▁modest
▁athletic
▁quantities
▁Franco
▁Movement
▁Tall
▁frog
▁shar
▁transit
▁thickness
▁interference
zi
odied
▁expense
▁proceeds
ulk
▁NL
▁Hond
▁hung
▁resur
▁syndrome
▁Marcus
▁Resident
alid
enne
wind
▁Come
▁Adrian
▁Bosnia
▁fights
▁finger
▁caliber
▁circles
▁nicknamed
lend
▁bol
▁assign
▁Daniels
▁supporter
▁Contemporary
urers
▁Poll
▁Hancock
▁machinery
▁migration
▁Bri
raine
▁View
kinson
▁Contin
▁nomine
▁panels
▁spores
▁imported
▁Brigadier
▁Relations
▁locomotive
▁rifle
▁repaired
▁interviewed
▁fatal
▁fluid
▁Fergus
▁gaming
▁washed
▁Aviation
▁Gaz
opsis
▁Spit
▁hect
▁Flood
▁Tales
▁Florence
▁continent
olo
▁Equ
icity
▁Brew
stand
▁fare
▁joke
▁bankrupt
▁shopping
▁molecules
▁commentators
imir
▁misc
▁custody
▁proximity
▁Publishing
▁raw
▁Nobel
▁Tasman
▁Reading
▁beer
▁Jeremy
ikh
otilla
▁Usher
▁Baldwin
▁Agricult
▁currency
▁redesign
▁Admiralty
▁Suz
▁mim
arted
▁Lead
▁Norse
athetic
▁Twenty
nut
iday
▁Hergé
▁curves
▁Arkansas
▁pronounced
pit
▁Bot
▁lip
▁Vienna
▁Manning
▁Preston
▁Romania
▁acquire
▁Jennifer
▁Ltd
aston
cious
▁fluor
▁allocated
▁Laf
▁Sib
▁Article
▁Num
▁puzz
▁Leban
▁hatch
▁floors
▁rulers
▁Banksia
▁knowing
▁undergo
▁contested
▁successive
umar
urbs
xide
▁Mam
▁Put
osity
▁reef
▁tong
itects
▁Shadow
▁Stories
▁unaware
▁memories
▁demanding
▁separately
front
▁Buch
▁McDonald
▁Architect
elfth
▁Adri
▁Bent
▁Motor
▁aviation
▁populated
wig
▁JG
ungle
▁sect
alysis
ashing
▁disgu
▁maneuver
▁Garc
▁gathering
▁discussions
▁preliminary
▁Kes
▁Kub
▁publish
▁northwestern
rez
▁Idol
▁Suff
▁Minogue
▁Newfound
▁comparable
▁interrupted
▁Ow
▁Pall
▁ally
▁Glass
▁proud
▁zones
▁scrapped
▁Electronic
▁regardless
▁dawn
▁Chase
▁McCain
▁cylinder
pes
asse
▁golf
▁bills
▁farms
▁cylind
▁Capitol
▁Skinner
▁screening
▁photographer
▁Bowie
▁Bengal
▁Allmusic
▁Orthodox
▁Character
▁editorial
▁demonstrate
eria
iary
lass
▁cease
▁advances
▁discontinued
▁chord
▁subsc
▁damages
▁tourism
▁Hawaiian
▁massacre
▁installation
▁dynamic
▁editing
▁Edmonton
▁nineteenth
▁Bog
▁Nav
guard
▁Hous
▁paved
▁Sponge
▁Grad
▁Perth
▁unrest
▁Industrial
▁halted
▁Lancaster
tz
▁Ports
istence
▁Single
▁sporting
urse
▁Ing
▁subsidi
▁Newfoundland
pat
▁sew
▁Winc
▁gravity
▁licensed
▁regained
▁ambitious
mel
vern
▁therapy
▁seemingly
▁neighbouring
atha
list
▁Spin
▁Turks
▁grain
▁Senior
▁harbor
▁subtle
▁crowned
▁uprising
▁Jur
eries
▁busy
▁opted
▁projected
▁functional
▁Sep
▁Crom
▁Gonz
▁anger
▁citizen
▁contracted
▁instruction
▁administered
▁Dh
olves
▁regist
▁lessons
▁disputes
▁descended
▁protecting
bus
ride
▁Jen
▁Bear
▁gamb
▁creates
▁Beautiful
▁deployment
how
▁Fras
▁barely
▁masses
▁openly
▁perpet
▁Circuit
▁descendants
▁joy
ramid
onnell
▁privately
▁cooperation
irk
▁overh
▁honest
▁orient
▁symmet
▁Senators
▁accomplish
▁coloured
nan
▁CN
ripp
▁lux
▁Chop
▁Hoff
▁Logan
▁Maxim
▁deeper
▁totally
▁corridor
▁generals
▁captivity
▁northwestward
ait
tage
rosse
▁planes
▁jumping
▁volcano
▁Buddhist
▁collision
▁quit
▁atmospheric
zac
▁Make
▁file
▁Janet
▁Shank
▁Mounted
▁farming
▁outdoor
▁Caroline
dan
▁Tiger
▁chess
isphere
▁Motion
▁rapper
▁Cos
▁Store
▁Louise
▁delegation
▁necessarily
▁nam
▁Task
lessly
▁lacks
▁delays
▁roller
▁steady
▁invented
▁coalition
▁Adventures
▁ibn
▁Roth
▁suburb
▁Protection
ervers
▁cream
▁eject
▁reiss
▁mutual
▁Nashville
▁Generation
ugu
▁FM
▁oak
oning
▁Myst
▁Observ
▁decomp
▁conting
abet
▁Bron
▁nests
achelor
inae
▁Bott
▁Kens
▁Rams
aceous
▁conve
▁Sierra
▁presum
▁developer
▁Online
▁shadow
▁fatalities
▁Productions
HA
entric
▁Lynch
▁jokes
▁tracking
▁declaring
▁excessive
Pa
▁Harper
▁Chairman
▁Hamb
▁greet
▁Palmer
▁electro
▁AllMusic
▁relay
▁hur
▁teammates
▁Commissioner
▁IC
▁Cann
ficial
▁Emily
▁Plaza
▁copyright
▁Hyd
▁Gust
▁lava
▁shops
▁Airborne
▁prohibited
▁Trip
▁keen
▁Apart
▁Chall
▁gains
▁divine
▁unemploy
▁Yet
graduate
▁kitchen
▁operator
▁Parachute
▁struggling
lew
▁sixty
▁recognize
▁Consequently
otus
ovich
▁Busch
▁inject
▁honours
▁Paramount
▁aggregate
▁pregnancy
achi
atem
▁Did
isans
▁Cant
▁Drama
▁cabin
▁Damage
▁trophy
▁Maurice
▁Garfield
▁realizes
▁Moz
▁ber
▁Devon
▁Nothing
▁generate
eli
▁Hip
▁calm
▁eliminate
▁Squ
▁tum
nolds
▁outs
▁ironcl
▁disappear
OR
▁Spy
ocene
▁unst
▁edges
▁param
▁backup
▁storylines
mill
▁dug
elfare
▁minim
▁operas
▁findings
▁merchants
▁Aur
▁Bast
▁clay
▁auction
▁reserved
▁attractive
holm
yers
▁pine
▁draws
▁acquisition
▁Ost
▁soap
houses
▁lyric
▁Regard
▁transp
▁secular
▁philosoph
▁Wid
▁Soft
▁riff
ayette
▁Griffin
▁surfaces
▁memorable
▁unusually
▁Holl
▁ridic
letcher
▁Arctic
▁Panama
▁decomm
▁Chancellor
▁remarkable
ady
ilia
▁Sold
▁sketch
▁experts
▁streams
▁reversed
▁incomplete
▁conjunction
▁proceedings
ymn
▁spo
▁dors
▁freed
▁princ
▁unpop
▁transc
▁caution
▁package
▁scenario
▁adaptations
▁EU
▁Sed
hurst
▁Large
legiate
▁grants
▁perfectly
▁Valent
▁pedest
▁impress
▁substance
▁ruins
▁Finnish
▁chances
istically
▁restaurants
▁Booth
▁tennis
▁metropolitan
▁sufficiently
mons
ndum
▁Heat
▁keeps
▁Holmes
▁Reform
▁SpongeB
▁Starting
▁motorway
▁HM
▁Hab
▁tab
▁Dian
▁Doug
▁shed
▁fabric
▁Armenia
▁Windsor
▁Junction
▁Michelle
pow
▁Phant
▁lobby
▁micro
▁Number
▁worried
▁Lindwall
▁detached
▁veterans
▁lifestyle
▁Serbs
▁modes
▁resort
▁Jacques
▁assessed
▁floating
▁allegedly
anan
▁overd
▁Tunnel
▁tunnels
▁emphasized
▁progression
ovo
hero
▁pled
▁diving
▁hiding
▁Too
▁topic
▁Formula
▁Solomon
▁festivals
▁Cec
▁Yok
▁sin
rolling
▁muzzle
▁nights
▁Koreans
▁manifest
▁demonstration
▁Ned
birds
▁Edwin
▁Arabic
▁overth
▁erosion
▁loading
▁incorporates
net
▁Rup
rozen
brook
uxili
ipping
▁Starr
▁Claire
▁Guatem
▁Advance
▁Stanford
▁climbing
ibl
▁coc
istle
▁Spiel
▁Superman
▁speeches
▁plutonium
omes
uchi
▁Sue
▁sty
▁Randy
▁Monday
▁consul
▁Berkeley
▁supplement
ivic
▁Luis
▁synth
▁floods
▁monitor
▁attachment
rano
▁Lut
▁obl
▁rays
olades
▁crust
▁Gerald
▁Illust
▁puts
▁escal
▁Presley
inguished
post
▁fox
oline
▁Kiss
▁mobil
▁Legion
▁errors
▁prosecut
▁amendment
▁diagnosed
▁metab
▁ranged
▁tended
▁centres
▁upgrade
▁internet
▁pleasure
▁investigated
▁Els
anian
▁flee
▁haul
▁Guards
▁Martha
▁warrant
▁appreciated
▁modifications
▁Gam
▁....
▁Cuban
▁Recre
▁counteratt
▁introducing
ushes
▁pist
▁immun
▁merger
▁Collect
▁consent
▁Zh
▁Wake
▁naked
▁Pierce
▁incons
official
▁cameras
▁inhabited
▁Fac
▁Ober
▁butt
▁ease
▁lineup
▁generations
lesi
lies
▁Anti
penter
▁notion
▁Jennings
▁securing
▁comfortable
aude
▁item
▁Manor
▁Warwick
imination
▁Bulgaria
▁Rhodesia
▁Soundtrack
VA
▁bonds
▁Irving
▁compat
▁hamlet
▁thrust
▁nearest
▁qualify
▁Augustus
▁confined
▁thoughts
▁Broadcasting
▁enable
▁stance
▁Chapman
▁Commercial
▁strengthening
▁Belle
▁Delhi
▁inver
▁Finals
▁organs
rann
▁ampl
▁Price
▁reads
▁revel
▁Gabriel
▁pushing
▁Dere
▁cere
rators
▁Sword
▁Mirror
▁muscle
▁Turnpike
▁electoral
▁maintains
ishi
quet
raid
▁stripped
▁Nab
▁soci
ocaust
▁artif
overning
▁doubles
▁colleges
▁waterline
apa
▁Yu
▁Gas
▁sel
ogical
▁Glenn
▁Hayes
▁betray
▁speaker
▁SpongeBob
DP
veloped
▁embarr
▁elderly
igu
imid
isle
▁Hopkins
▁grandson
▁graduating
▁Pun
▁fib
▁sus
▁flags
▁Sr
▁Um
▁Berry
▁monks
▁witch
▁Prepar
▁ensemble
▁Subsequently
osystem
▁Things
▁enthusiastic
▁AF
▁tool
▁sacred
▁SN
▁Global
▁filter
▁preval
▁successes
▁legitimate
▁Sunder
▁Borough
▁es
▁vit
▁Made
▁Prin
opters
▁Derby
▁Edgar
ountain
▁Easter
▁exhaust
▁brigades
▁carefully
▁ESP
ylogen
▁courage
▁stepped
▁Fletcher
▁Spielberg
▁Et
▁Hess
▁knock
▁layout
▁rookie
▁barrier
▁escapes
▁eleventh
▁Crime
▁laying
▁Manager
▁Reviews
▁monthly
▁infected
▁sexually
▁incorporate
▁entertaining
Ne
▁Kot
▁McA
▁mes
▁ump
▁Laura
osphere
▁Brandon
▁darkness
▁exceeded
▁Southampton
▁compensation
▁CG
▁Bangl
▁Kenny
▁arbit
▁satir
▁Saints
▁wounds
▁honored
▁frontier
oints
▁Cave
ophone
rieved
▁Eisenh
▁genuine
▁readily
▁promising
oop
▁Schw
▁Venus
▁Bolton
▁Patton
▁Pirates
▁defeats
▁healthy
▁definitely
▁pressed
▁mistaken
ibal
▁bend
▁monarchy
▁invitation
▁consequently
odia
umni
▁NOK
andin
▁carn
▁rely
▁tram
rified
▁Hammer
▁drives
▁fusion
▁Artillery
bage
isch
erals
▁Basin
▁Truth
▁integr
▁midnight
▁maneuvers
▁Lay
▁Ming
▁corp
▁slowed
▁missiles
▁sophistic
▁Doc
▁diary
▁Artist
▁Travel
▁thirds
▁Hendrix
▁spawned
▁fragment
▁Goeb
▁locate
▁pupils
▁retros
▁submit
▁Gardens
▁concludes
▁unpopular
isor
▁Crane
▁Leader
▁Porter
▁convinc
▁profits
▁employee
▁reflects
▁Principal
▁disappointment
▁identification
oshi
ppers
▁Rugby
▁Strat
▁reper
▁Member
▁dispers
oub
▁drag
▁Rocky
▁demon
▁Sebast
▁blacks
▁magical
▁negotiated
▁destination
▁inscription
▁measurements
neum
▁Gren
▁duet
▁trap
ictions
▁exciting
▁Lightning
▁competitors
▁Ps
▁Kos
▁Stop
▁refit
▁coffee
▁heroes
▁traits
▁Treasury
▁celebrity
▁computers
▁northbound
▁Fan
▁Rare
▁tide
▁Lakes
▁mirror
▁Eisenhower
▁controlling
RT
▁Prad
▁Wals
▁smart
▁assume
▁Stefani
nor
▁Vul
▁consumed
▁Argentine
▁affecting
▁assignment
mitt
olics
osely
▁colonel
auer
▁Fant
▁tril
▁Rever
▁Warsaw
▁automatic
▁physician
canal
▁Fear
▁Lucy
▁posed
▁Powers
▁accuracy
▁testimony
elic
inite
neath
▁AIDS
▁Flag
▁dorm
▁freight
▁choosing
▁neighboring
▁predecessors
▁IU
▁Was
▁Gone
▁lion
▁forts
▁lined
▁arcade
▁Britney
▁stomach
▁Ferguson
▁distances
▁struggles
▁evolutionary
▁psy
▁sink
▁Almost
▁Sussex
▁Jeffrey
▁deciding
▁procedures
▁capabilities
nam
onom
▁Bav
▁antiqu
▁topics
tershire
▁leather
▁Banglades
cycl
▁Rhode
▁Willis
▁unnamed
atum
▁jail
▁Castro
▁realize
▁drainage
rock
▁abd
archy
irate
▁Carr
▁oral
▁acids
▁Morton
▁wouldn
▁Columbus
▁relevant
▁Guadalcanal
PC
jud
▁Hutch
▁Spect
▁besie
▁herald
▁Reynolds
IC
▁Lan
adequ
uates
▁rush
▁seiz
writer
▁fairy
▁schem
▁spare
▁regret
▁preceded
▁suburban
beit
dict
▁tribal
▁SE
▁Variety
▁Universe
▁momentum
▁volunteer
hey
ked
▁Sha
▁Franz
▁illeg
changes
▁Municip
▁choices
▁cinemat
▁hardware
▁requests
rimination
▁illustrations
▁hin
▁Rice
▁trem
▁Citiz
▁respected
vik
▁ecl
▁bold
▁Annie
▁blown
▁Munich
▁feminist
▁settings
▁Aw
▁Hig
▁Site
▁bread
▁Places
▁Russians
▁advocate
▁nobility
▁que
▁burst
▁Beyond
▁analog
▁kicked
▁enhance
▁speakers
▁warriors
▁Lithuania
▁dimensions
▁Ny
▁Va
▁Lag
▁incorrect
▁limitations
▁aug
▁toss
▁Hanna
▁Batter
▁Calvin
▁Greeks
▁Popular
▁bassist
▁twelfth
▁abolished
▁governing
ente
▁tea
▁Style
▁lease
▁crystal
▁suspect
▁teenage
essa
▁Hast
▁repeat
▁painter
▁anywhere
▁resembles
▁enforcement
oids
▁Dre
versely
▁proven
▁endorsed
▁skeleton
▁absolutely
▁referendum
▁underneath
▁Nebr
▁wanting
▁conquered
cope
▁Lav
▁hol
▁Dawn
▁Shen
▁ware
▁wool
▁Quarter
▁Intelligence
iott
▁jam
▁sou
▁Balk
▁Ster
▁Eighth
▁nickel
▁precise
▁comprises
▁Lithuanian
▁Boyd
isbury
▁lemur
▁presc
▁thriller
▁accordance
▁nationally
▁congregation
▁Chi
ocese
▁Euro
▁Mumb
▁Page
▁Britt
itating
▁prayer
▁Hammond
▁Ultimately
▁municipality
aru
▁Rhys
▁Eugene
▁Survey
▁namely
oft
lance
▁Pred
▁Gross
▁rectang
▁maturity
▁underlying
vae
soon
▁Pand
▁Comic
▁renown
▁commerce
▁secretly
▁Catholics
▁Distinguished
IT
▁Lear
▁Rather
▁fortified
▁imprisonment
▁extraordinary
▁Dy
▁Ess
▁Kur
ounce
▁Derek
▁Kath
▁fees
▁extant
ipel
▁Kom
▁Lois
ainted
▁dorsal
▁rumors
▁safely
▁innovative
▁specialized
ele
oton
▁Pend
▁anat
▁pian
▁Sport
▁deriv
▁seize
▁coupled
▁plastic
▁judgment
▁Southeast
▁negotiate
▁extinction
iji
elest
▁locked
▁compact
▁customs
▁Ultimate
▁substantially
▁Remix
▁Roads
▁fever
▁genius
▁totaled
▁Robertson
▁keyboards
berger
▁Wander
▁export
▁scales
▁united
▁enacted
▁limestone
▁Raf
lides
▁Shack
▁gifts
▁Double
▁specialist
▁nationalist
▁rod
▁scope
rically
▁albeit
▁Associated
▁Gav
▁Dart
▁Mine
▁Wend
▁Woll
▁Catal
▁atoms
▁unders
▁hanging
▁preview
▁retaining
▁subsidiary
▁millimetres
aque
▁Sau
▁Blaine
▁Canber
▁chains
▁Wrestle
▁Nebraska
▁conviction
▁efficiency
▁fart
▁patch
▁rewrit
▁hospitals
▁trademark
▁Dry
▁inex
abling
▁runway
▁societies
▁BM
▁pige
▁dragon
▁Taxonomy
▁pointing
inely
▁Swan
▁eaten
▁fitting
▁Sunderland
▁Joyce
▁Quinn
▁Fraser
▁throat
▁inadequ
▁Kay
▁array
▁realm
▁crowds
▁welcom
▁Outside
▁murders
▁merchand
▁preservation
▁investigations
onde
▁Joel
▁Reds
▁divide
▁sphere
agonists
▁deceased
▁factions
▁designers
▁southbound
▁comprehensive
iev
gence
▁volunt
▁summary
▁Gameplay
▁Salisbury
outed
▁Arms
▁axis
▁barb
▁fake
▁André
▁Metall
▁garage
▁guided
▁occupy
▁Brighton
▁Scouting
▁perception
▁Pont
▁bout
▁stunt
▁Stalin
▁infant
▁thinks
▁introduces
▁Bun
▁Critic
▁achieving
▁helicopters
RO
otta
▁Jenna
▁Karen
▁Linda
▁Willie
▁domain
▁inflicted
▁sexuality
▁confronted
▁je
▁blank
▁facts
▁relax
▁Lesser
▁contrary
▁Holocaust
▁intercepted
▁vow
inate
▁Resp
▁Whitney
▁servants
▁breakdown
▁Timberlake
▁HIV
▁Von
▁Amaz
▁RIAA
▁vacc
▁inquiry
▁freshman
▁realised
▁seventeen
▁HV
▁Alc
▁Azer
▁rape
▁Torres
▁tender
▁resolve
▁highlights
nae
oro
zym
ilian
▁Coul
▁Shir
▁alert
▁mouse
▁permit
▁pocket
▁athlete
▁monsters
▁tendency
▁Dominican
adic
▁fut
▁Axis
▁engra
▁Racing
▁scorer
▁Arabian
▁Ble
▁Exam
▁amino
▁Buenos
▁Norton
▁pitching
▁protective
▁prosecution
▁Diet
aulted
spring
▁excited
▁Portsmouth
▁availability
▁effectiveness
▁decommissioned
▁Arn
▁rer
▁hell
▁Shawn
▁ballot
▁solutions
▁ank
▁grace
▁Scotia
▁cement
▁admired
▁matched
▁rolling
▁substit
▁contents
▁synthesis
▁dome
orters
▁Block
▁lesbian
▁drawings
IN
▁Dayton
▁Monument
▁basement
▁Kann
▁Pitt
▁blog
▁activated
▁ancestors
ilis
▁Myc
▁ram
▁sid
▁monuments
oan
▁Ré
▁Lac
▁Forbes
▁amazing
▁Aircraft
▁Petersburg
▁collective
ovan
▁Singh
▁Elliott
▁adoption
ums
ithm
▁wors
ittees
▁analys
▁insect
▁Scandin
▁depends
▁Nonetheless
rina
▁Kle
▁Traff
▁botan
▁Besides
▁careers
▁suburbs
▁performer
▁placement
▁endangered
▁Information
▁Nu
▁oz
osal
▁cler
▁gren
▁spont
▁Galile
▁Sicily
▁alumin
▁homage
▁skiing
▁Ferrari
▁anthrop
▁citizenship
DT
▁ESPN
cliffe
esters
▁Bailey
▁Durham
▁Webber
▁Mü
acco
aceae
itory
▁Cros
▁Kang
▁denomin
▁stopping
▁concluding
yss
▁Ana
▁SMS
▁rode
▁Humph
▁Omaha
▁meteor
▁underm
▁barracks
▁regulation
▁mathematical
anz
roft
▁Lodge
▁Anders
▁Economic
audi
▁Chal
▁ears
▁mere
▁annoy
▁visuals
▁favoured
▁Engineers
▁varieties
▁FC
▁cit
iatus
▁Hugo
▁Wang
▁Austen
▁runners
▁reliable
▁Model
▁Strait
▁subsid
▁worlds
▁motivated
▁countryside
jar
elda
▁Tell
▁dign
ourage
retion
▁Birth
▁semif
▁worksh
▁bishops
▁Historian
▁commended
▁dinosaurs
▁departments
hm
▁IX
▁Jag
armed
▁McMah
▁reconcil
▁goalkeeper
adoes
▁Cock
▁Lope
▁Given
▁Maple
uxiliary
▁Gardner
▁unhappy
▁colleague
▁organisations
▁Aj
▁Gy
gedy
▁Nem
▁imper
▁solve
▁Caesar
▁Ruther
▁millimeter
zyme
▁Jazz
▁slot
▁Train
▁receiver
▁seasonal
▁Smy
▁Berk
▁hipp
▁Mumbai
▁puzzles
▁governed
▁democracy
▁satisfied
▁reflecting
anto
▁dys
child
▁guid
agonal
▁cheap
▁lingu
▁Priest
▁Bahamas
▁Duchess
▁binding
▁fortune
▁watches
▁Democrat
▁Moreover
▁dominance
▁Philippine
▁installment
keys
▁Cyp
ctive
▁Doll
▁MacL
▁Wilm
▁stip
▁stuck
▁theor
▁rehabil
▁Assistant
▁specified
▁accelerated
teg
▁XV
▁Hed
estock
▁backd
▁phases
▁talked
▁inherit
rah
▁AU
iasm
jord
▁Imm
ishna
▁Evan
▁Hers
luence
▁Plate
▁fails
▁Monica
▁Prussia
▁Canberra
▁woodland
▁diagnosis
▁terrestrial
▁correspondence
▁Wu
▁exagger
▁borrowed
▁averaging
▁observers
iman
arity
sover
▁funk
▁mast
▁Angela
▁explicitly
▁incorporating
▁Pix
▁Giant
▁Snake
unciation
▁goaltend
▁isotopes
▁maritime
▁persisted
uba
▁Gat
▁Lopez
▁Concord
▁silence
▁Og
▁Wong
▁grab
▁Rovers
▁clever
▁activist
▁siblings
▁businessman
irs
orp
▁lod
chard
▁mineral
▁juvenile
▁frustrated
▁NME
▁Aven
▁downed
▁leaked
▁exhibits
▁Neg
▁Pearson
▁cluster
▁ensured
▁precurs
▁remarks
▁boarding
▁charting
▁performs
▁detachment
▁Distribution
throp
▁Aires
▁Syrian
▁valued
▁Hamburg
▁configuration
▁ost
▁Palm
▁Wick
▁tier
▁Diana
▁Oppen
▁sanct
▁Eagles
▁morale
▁conductor
▁ecosystem
▁shortened
ggy
▁fus
aland
stock
▁steal
▁orbits
▁Recreation
▁presenting
arte
▁Falk
▁Creat
▁sounded
ET
oufl
xter
idity
▁boom
▁erup
aunton
▁Bened
▁buses
▁drift
iblical
▁Newark
▁disagreed
▁eccentric
bul
▁Yang
▁trilogy
▁avoiding
▁intentions
▁na
boro
empl
riet
▁Conv
▁Male
▁Tampa
▁ineff
▁anchor
▁variants
▁Core
▁Duck
▁mall
ovakia
▁Joshua
▁aliens
▁median
▁slopes
▁Concert
▁Engineer
▁expelled
▁AN
▁bure
▁Beast
▁Lions
▁unity
▁Volume
▁develops
▁immigration
▁descriptions
▁northeastward
avi
eros
▁trump
▁reunited
▁née
enary
▁bicy
▁Hallow
▁Holden
▁immune
▁Playing
▁orbital
▁poisoning
▁determination
uin
artz
▁Kas
▁Nig
▁Claud
▁Jesse
▁Compton
▁lowered
▁steering
▁superhero
imo
oni
horn
▁regain
▁strain
▁Neither
▁outlets
▁portrays
▁afterward
lay
bane
▁Adult
▁accent
▁catalog
▁screened
él
hyd
▁RS
grim
iker
zens
▁rises
▁scripts
▁organize
▁persuade
▁foundations
▁McE
▁depot
▁saves
▁Destiny
▁doubled
itational
▁retiring
▁prominence
▁Till
▁Trin
▁Rhine
▁cheer
astical
▁Anglic
▁bowler
▁larvae
onscious
▁responsibilities
aird
enez
▁dio
olesc
ubles
▁dish
▁lean
▁plag
ailand
▁chambers
▁frigates
▁overhaul
▁shelters
▁inability
▁primitive
▁attributes
▁Environmental
arin
▁Dum
▁Rip
▁Cruz
▁drops
▁Hannah
▁Philos
▁adventures
▁continuously
CN
▁Laz
▁inev
▁Savage
▁bigger
▁freely
▁tailed
cies
▁bag
▁Ashley
▁dreams
▁Knowles
▁narrowly
ifax
▁Ivy
▁Dale
▁irre
▁Armed
▁Immedi
▁judged
▁welcome
▁peaceful
▁symbolic
▁Jin
Mania
atoes
▁cord
omorph
▁Sugar
▁tract
▁Adriatic
▁smallest
▁Bangladesh
ighthouse
hal
pered
▁silk
▁roofs
▁tales
▁Schools
▁Writers
▁enlarged
▁graduation
gov
vas
opal
▁Allan
▁Dover
▁linking
▁overtime
▁manuscripts
▁breakthrough
▁accommodation
▁Eb
▁gig
▁Gaza
▁Have
▁dent
▁acute
▁deton
▁pneum
▁Hollow
▁Singer
▁trails
▁Dodgers
▁Kingston
bin
▁SAS
▁Brock
▁Shore
▁Butter
▁Retrieved
▁Tradition
▁abolition
isa
▁ot
oths
▁Vas
matic
▁Karn
▁Tank
▁veto
▁abrupt
▁tongue
▁excluded
▁Antarctic
▁responses
atab
elage
▁Lich
▁bred
▁loves
▁Moving
▁commands
▁spectrum
▁accepting
▁Alexandria
▁financially
▁OC
▁Lor
▁Nan
▁Individ
▁revenues
▁transformation
GS
vić
▁Left
▁Rook
▁Yank
▁pray
alford
▁Bahrain
▁Written
▁legally
▁isolation
unker
▁haun
▁Birds
chester
▁Chapter
▁centimetres
▁sovereignty
▁Cert
▁Data
▁Name
▁Spot
▁Guerr
icia
▁Sah
amous
▁Betty
▁kidney
▁shapes
▁McMahon
▁quantity
▁shortage
▁launching
▁relegated
▁expressing
▁Costa
▁brass
avilion
▁galaxy
▁Fiction
▁Limited
▁conform
▁convoys
▁oversaw
ete
ometown
▁priests
▁clearing
▁welcomed
▁unwilling
▁Presidential
▁deteriorated
▁contemporaries
Far
▁Bj
▁NC
▁pp
▁Moh
▁blame
▁counted
▁entries
▁activists
▁enthusiasm
▁Sag
▁Crash
▁Minne
▁reapp
▁Capcom
▁Danube
▁fierce
▁economics
▁Rutherford
▁Indianapolis
gas
undy
vous
▁Away
▁Uran
atters
▁tables
▁Observer
▁Sergeant
▁rejoined
▁technologies
quin
▁Dana
▁Drew
▁Gand
▁XIII
▁Celeb
▁Johns
▁bullet
▁frames
▁shocked
▁accumulated
▁sympathetic
oeuv
stead
▁Avon
▁depr
▁sued
▁Bruns
▁polls
▁saint
icz
oya
▁Reid
▁Faith
▁Tibet
▁alarm
▁climax
▁Neptune
▁grandmother
▁tournaments
anga
▁Hod
▁hes
▁Lans
▁Lomb
▁Crazy
▁swall
▁medley
▁anonymous
▁shipments
▁Cran
▁dull
▁whit
▁Hutton
original
▁fratern
▁managers
▁nitrogen
▁phylogen
▁recommendation
gun
gent
▁Ful
aline
brates
▁Julia
▁Fringe
▁televised
▁Afterwards
▁Winchester
▁Underground
▁SC
▁Dob
▁worthy
▁Halifax
▁evacuate
▁narrator
▁subjected
kien
▁Thir
▁conserv
▁telescope
▁alk
itative
▁Astron
▁Compan
▁physic
▁sitcom
▁Dynasty
▁lawyers
▁Thailand
▁propeller
▁favourable
▁fet
▁Dock
▁casem
olithic
▁nucleus
▁Prussian
▁pollution
▁wonderful
▁confrontation
▁Lil
entry
▁disk
▁aster
▁Hebrew
▁platoon
▁pursuing
▁theoretical
ikk
▁beds
▁riot
▁manor
▁harvest
▁Coch
▁Bever
▁beings
▁intrig
▁Wheeler
▁conclus
▁heating
▁displacement
▁investigating
▁superstructure
uke
▁Kor
world
▁scream
▁catches
▁welfare
▁contacts
▁Discovery
▁Middlesex
▁accidents
EF
▁Gö
▁OS
▁pad
ensing
▁Thorn
tingham
▁Barber
▁recapt
▁meantime
opl
shi
▁Gould
▁showc
▁troubl
▁prolong
▁Bradford
▁meanwhile
▁wrestlers
▁altogether
▁imagination
amus
arta
▁Ses
▁ARIA
▁Kend
▁cros
▁epid
▁recreational
pur
▁Hir
▁cott
▁Haven
▁admits
▁averages
▁criteria
▁inferior
▁comparisons
▁dramatically
▁newer
▁stake
▁postponed
▁reviewing
▁encouraging
▁undergraduate
zel
▁BL
opus
heres
▁gills
▁lauded
▁Stafford
▁affiliated
▁Beau
▁shale
▁trout
ropolis
▁Norwich
▁captive
▁Trafford
▁expenses
▁hometown
▁preference
oyle
▁Hawk
▁plug
▁stab
cyclop
▁Angels
▁Primary
▁observe
▁refusal
▁Interior
▁renowned
▁Sebastian
▁sax
▁vin
▁Donna
▁tired
▁trace
▁viewer
▁Jessica
▁Medicine
▁Lafayette
▁declining
▁rebuilding
fact
idad
▁Ard
▁Tina
▁deer
▁Pitch
▁Vince
▁Evening
ibe
ouk
▁Jak
▁cig
▁Java
caster
▁lunch
▁tends
▁Freeway
▁ordering
▁peripher
▁WrestleMania
▁automatically
▁Sul
▁parade
▁spokes
▁destruct
▁terrible
▁everybody
▁moderately
anas
▁Cly
▁dil
opold
▁sends
iggered
▁Stewie
▁calendar
▁ceremonial
▁cav
▁Byrd
▁Level
▁Vaugh
▁Greene
▁planted
roduction
▁socialist
▁triggered
▁manufacturer
▁advertisement
▁thunderstorms
cip
▁wages
▁Marcel
▁interrog
▁Rochester
▁disturbed
▁monitoring
▁supposedly
haus
▁Cai
▁Ley
▁Rot
▁Pike
▁mock
▁loses
▁purely
▁Commodore
▁dedication
▁implementation
▁Log
▁tet
ormal
▁Erie
▁dolph
▁retro
iability
▁Literary
▁admission
▁fins
▁seam
▁Weber
▁curric
▁trucks
▁recommendations
▁stun
assing
▁Happy
redited
▁drowned
▁happens
▁discrimination
▁Ri
▁kinds
▁exempl
▁marble
woman
▁Wade
▁Coach
▁Damasc
▁Hunting
▁degener
▁suppress
▁Gloucester
▁concentrate
▁Zoo
▁freestyle
▁reasonable
anor
atas
dish
▁Jets
▁Tong
▁fing
▁libr
▁wond
▁gospel
▁Private
▁smoking
▁Brunswick
▁Canadiens
idan
▁Rama
▁nost
▁cater
▁powder
▁thermal
▁passages
ovny
▁CIA
idian
▁rows
▁Being
▁Thurs
▁nurse
▁Behind
▁buying
▁confisc
▁rectangular
▁civilization
bai
▁sab
pling
▁Decl
▁Wyatt
▁timing
▁Cornell
▁Shakira
▁Duchovny
▁exhausted
▁mortality
▁neighborhoods
fold
▁Kol
▁Oil
agara
▁discl
▁Sharon
▁Forever
▁apprent
▁guidance
▁controller
▁nationwide
▁Oppenheimer
oved
▁slee
▁tiny
▁iconic
▁portraying
▁Nim
▁proc
▁Mahar
▁sided
▁Thorpe
▁batsmen
▁coaster
▁disrupt
▁Richards
▁tornadoes
▁democratic
comb
▁Fra
▁Miy
▁peas
izable
ometry
▁unnecess
▁publishers
gi
ohl
▁lor
▁Guest
▁Heming
▁degrad
thal
asterly
▁objected
▁promises
▁affection
▁detective
▁capability
OL
arre
▁ACC
thood
▁Joker
▁heter
▁boards
▁induced
▁nesting
chant
ifier
plane
▁Better
▁insurg
▁Metroid
▁Student
▁statute
▁Yankovic
kar
oner
▁Fen
▁Folk
▁Gret
▁Cohen
▁labeled
▁amounted
iffs
emics
▁Dame
▁Basil
▁Hindi
▁Episode
▁enclosed
▁communicate
▁philosophical
▁Rank
iguous
▁Elder
▁Iraqi
▁parad
▁utter
▁patent
▁Volunte
▁adequate
amy
▁Sz
ilus
▁nas
▁Peru
▁Myster
▁instances
▁accounting
▁radioactive
▁celebrations
▁Ja
▁Fow
etics
ocate
▁flav
▁Niger
▁Milton
▁skilled
▁torture
▁demolition
unta
▁client
▁hollow
▁operators
▁Louisville
▁complexity
fast
cling
fires
▁chim
▁farmland
▁invested
▁filmmakers
▁Lebanon
▁generic
cat
▁Kun
▁Hern
▁lady
▁slip
▁vibr
gestion
▁Darren
▁bedroom
▁interface
▁recipient
▁Immediately
▁sophisticated
ede
irable
▁Venez
▁Miguel
▁harder
▁helium
▁Harbour
▁virtual
▁aesthetic
▁testified
▁culminated
▁manufacture
▁cancellation
▁qualification
▁crus
▁shirts
▁Clement
ordination
oqu
▁Bé
idium
▁skirm
▁sting
▁regards
▁Damascus
▁innocent
ribe
▁Eye
elles
▁Hank
▁Path
▁Rupert
▁Hastings
▁Rhodesian
▁violation
ów
eca
atri
chev
send
▁Mits
▁Virt
▁Vocal
▁clerk
ipelago
▁Archer
▁discharge
isure
▁Sansk
▁conceded
▁divorced
▁broadcasting
ucc
herd
▁Gwen
▁purple
▁Hundred
▁sandstone
urated
▁Euras
▁Juliet
▁assured
▁psyched
▁donations
▁dissipating
ea
amo
cor
inos
▁flaw
▁Aside
▁Zelda
▁Alonso
▁rubber
▁tackle
▁coached
▁convincing
▁Pale
▁Arist
▁Jamie
▁Paper
▁horns
▁peers
holders
▁premise
▁Georgian
▁ancestor
▁consumer
▁possessions
▁Saudi
▁ingred
▁categor
▁trigger
▁Lexington
▁desperate
▁victorious
atz
kee
▁Fi
adar
oque
▁Sit
▁fog
▁Cret
▁Nolan
▁Siege
umbering
▁Azerbai
▁Chetnik
▁Doggett
▁camoufl
▁regener
aca
omi
imson
▁Glac
▁halt
▁sits
▁Mater
▁perimeter
elong
▁Hear
▁herb
▁lots
▁ballet
▁ruined
▁dioxide
▁disrupted
▁offspring
cul
▁Clem
▁guys
assium
▁Langu
▁oxide
▁Visual
▁Hispanic
rency
▁Gael
▁cogn
▁oath
atories
▁Safety
▁Initial
▁devised
▁clusters
▁kilograms
▁rendition
▁diminished
ieu
▁dy
commun
intend
▁Mered
▁Annual
▁heated
▁Tonight
▁reddish
▁architects
WR
▁Mé
apor
bred
elyn
oult
▁Cay
luded
oding
▁Julie
▁Fuller
▁Thirty
▁dining
▁declare
▁defender
▁investors
▁parallels
rys
▁Kön
ilight
▁flies
enstein
▁Approx
▁corners
▁Stockholm
▁accusations
▁Emb
▁Tomb
▁Wess
▁Neigh
▁nerve
▁mortar
▁presumed
▁Mansfield
▁Buckingham
asma
▁ore
▁Bess
▁Cubs
▁Stern
▁livestock
▁acceptable
▁Minneapolis
rust
athon
eways
▁Alien
▁Clear
▁Lauren
▁opener
▁starter
▁Warriors
yt
alus
quel
▁Teen
▁Brisbane
▁Meredith
▁Worcester
chy
alore
▁abbey
▁viral
▁plumage
▁relieve
▁remnant
▁sleeping
▁Carpenter
▁companions
▁eighteenth
unct
▁EMI
▁hate
▁cheek
▁Orland
▁landsc
▁particle
▁payments
▁strictly
▁posthumously
▁lord
▁boxes
▁persona
▁colonists
▁LC
▁Eyes
▁Kamp
raints
▁Shear
▁manoeuv
▁premier
▁Halloween
▁inadequate
dal
▁Miz
ibles
▁Tele
▁Wimb
▁aims
▁Lanka
▁Grande
▁Indeed
▁sacked
▁throws
▁beaches
▁depress
▁Sanskrit
▁backdrop
▁feedback
▁Methodist
▁Scientific
▁exceptional
gae
▁Kiel
▁MacD
▁Adolf
▁numer
▁mosque
▁dissatisf
▁archbishop
▁commemorate
▁MA
isen
▁Leip
▁Meet
▁Flash
▁limbs
▁cooler
▁manned
▁schemes
▁Wildlife
▁defining
▁Por
▁ell
▁Gore
▁tear
▁Beatty
▁beside
▁Origins
▁profound
▁fu
venge
▁knight
▁combine
▁announcing
▁orientation
arck
girl
hist
▁Dad
union
▁Keys
▁Need
▁altar
▁guerr
▁stalk
sequent
▁hiatus
▁cooking
▁Northumb
▁presumably
▁characterised
RI
lide
▁Ork
▁Wey
ledon
▁clad
▁unpre
▁Cherry
▁clause
▁Shackleton
▁corporation
▁Bard
▁Tact
thouse
▁Carte
▁slope
▁penalties
▁Supporting
▁unofficial
lot
▁loot
▁crack
ificate
renches
▁breach
▁thread
▁Leopold
▁Species
▁sparked
cestershire
yon
▁Cha
oping
▁Seym
▁counts
▁makeup
▁Colbert
▁broader
▁instructor
▁Yale
▁relat
▁Wednes
▁monsoon
▁Animation
▁uncertainty
▁Cum
ivided
▁Herze
▁amend
▁metap
▁tears
▁diesel
▁packed
▁Hampton
▁Orlando
▁ecclesi
arc
lyph
▁jeal
▁lith
▁Clare
▁Moroc
▁gravel
▁infilt
▁wrestler
▁Subsequent
oux
▁Cul
▁hub
▁eleg
▁fals
▁spans
▁spear
▁Kapoor
▁Patric
cedented
▁Casting
▁observing
▁portraits
▁conventions
▁nonetheless
▁collectively
ados
▁Lak
▁Sinc
▁define
▁outfit
▁debated
▁sharply
▁lectures
▁railways
▁wildlife
byter
flies
ivier
▁grap
shadow
▁spark
▁wears
▁formats
▁senator
▁forgotten
▁Approximately
▁concentrations
aho
org
▁Fo
lair
▁zinc
▁Dexter
▁Thanks
▁button
▁humour
▁Harding
▁Hoffman
▁Seymour
▁conning
▁Chambers
▁Persians
▁sediment
▁antagonist
▁Bend
▁keys
▁Shane
▁cloth
▁taxon
▁Corner
▁Palestinian
▁Spl
▁Auto
▁Wesley
▁fright
▁fundra
▁speaks
▁Georget
▁differs
▁clinical
▁enabling
▁kilometre
▁mechanisms
▁reflection
▁advertisements
irus
▁Bord
▁Lynn
▁foul
uclear
▁Parad
▁traced
▁Persona
▁nominee
▁unprecedented
▁Knox
▁comeb
▁lords
emption
▁servant
▁refusing
▁fantastic
▁framework
▁listeners
opy
pop
illon
utors
▁Bergen
▁Crisis
▁emerge
▁Krishna
▁Complete
▁triangle
imi
▁pard
▁Albion
▁Viking
▁Welles
▁magnet
▁Panthers
lled
▁sau
asures
▁puppet
▁climbed
▁additions
▁reporters
▁resemblance
▁Fey
▁Gem
▁Troy
marine
rescent
▁Horror
▁courty
▁routed
▁seated
roscopic
▁Belarus
▁Victory
▁filling
▁landown
▁Coalition
▁purchasing
itus
▁tob
▁Self
▁disco
▁Hokies
▁Jackie
▁reclaim
▁whereby
▁Previous
▁everyday
▁remaster
▁Sometimes
▁Technical
▁southward
▁stretched
▁elimination
agne
amph
icon
▁neu
ioned
ourse
rities
▁Mechan
▁ridges
idelines
▁pulling
▁Belgrade
▁comedian
▁resource
▁prominently
ulent
▁lend
▁Pilot
▁digest
▁reprin
▁Carroll
▁Oakland
▁Sinatra
▁spirits
▁Cardinal
▁Numerous
▁hectares
inas
rors
entin
▁Dund
▁Sales
▁artic
▁eager
▁Animal
▁Cinema
▁dozens
▁sealed
▁Winston
▁Working
▁statues
▁Students
▁befriend
▁disappro
▁rh
enge
elman
▁Loch
▁porn
umbent
▁Dixon
▁currents
▁teenager
▁Hemingway
▁similarity
wy
▁ba
▁Bret
▁Seth
▁angles
▁muscles
▁composing
▁guaranteed
uru
opoly
▁Dors
▁Kahn
▁Twin
▁Cecil
▁Venezuel
▁ancestry
awi
anni
▁lav
▁rif
▁Qual
▁onset
▁hotels
▁steals
▁interim
▁uniforms
▁Moor
▁Quint
▁soccer
▁frontal
▁realism
▁devastated
afe
cos
tra
ithe
▁Jed
▁Own
erget
raced
rimin
▁undef
▁entity
▁mating
▁shipyard
▁electrons
▁patronage
▁associates
▁expeditions
DOT
lim
nant
▁Dew
▁Unf
▁Vij
▁Kids
▁Campus
▁Dawson
▁Surviv
▁boiler
▁enzyme
▁shoots
▁skelet
▁wheels
▁pioneer
▁deadline
continental
▁counterpart
sta
▁ES
hrer
itia
▁Jet
▁pac
▁pub
▁sne
▁Guam
▁stup
iology
▁Achie
▁Getty
▁Verde
▁accepts
▁contempl
▁overturn
▁exchanged
▁overnight
▁integration
▁MGM
chair
▁maybe
▁smugg
▁burden
▁Systems
▁Transit
▁seating
▁guarantee
▁practiced
▁spreading
▁transports
▁ps
▁dup
▁Ferry
▁Eleanor
▁deleted
bled
▁Jab
▁Very
▁beta
▁crazy
▁Barton
▁Wisden
▁reinst
▁Pradesh
▁biology
▁summoned
▁recovering
mare
erman
▁Hack
▁fond
olving
▁Crist
▁chaos
▁Claude
▁McLaren
▁broadly
▁hosting
▁jealous
▁Anglican
▁reopened
▁elementary
▁supervision
▁Dol
▁Typ
▁spy
kward
▁enzym
ifferent
▁sometime
▁utilized
▁abundance
▁invention
▁unconscious
uli
▁Kre
omans
▁Bism
▁deity
▁poets
▁prose
▁Battles
▁jointly
ortunately
▁geographical
evo
emia
urred
▁pant
▁invas
▁mills
▁spore
▁swift
▁gasoline
▁trenches
▁complaint
▁westbound
▁agreements
anza
▁Kyl
▁barn
ulatory
▁afraid
▁Byzantines
▁dreadnought
▁suggestions
GA
oser
▁Give
▁pride
▁wives
▁barrel
▁locals
▁metaphor
▁constituency
urai
rella
▁Diss
▁gast
▁Bloom
▁Vishn
▁touched
▁anchored
▁reformed
▁excluding
▁PP
▁rud
▁Rise
▁Haiti
▁elong
▁reply
▁riots
▁sympath
▁Blackburn
▁Tud
▁billed
hibition
▁Amazing
▁Federer
▁extract
▁flowing
▁Antilles
▁troubled
▁counterparts
▁Dot
▁Dup
▁Hits
▁Sask
essing
▁Arabia
▁Undert
▁cataly
▁miners
▁awkward
▁Italians
▁impacted
▁supernatural
▁Communications
FR
Re
▁Lü
▁Joey
▁jungle
▁deficit
▁disqual
▁sketches
▁collector
▁combining
▁backgrounds
fork
phae
▁Cham
▁cruel
imetime
▁Bronze
▁Herzegov
▁Primetime
▁Wimbledon
▁associations
▁congressional
omo
▁Aval
▁Glad
▁trop
▁Zagre
▁Telugu
▁facial
▁urging
lore
ritz
▁ATP
eated
lette
onely
▁Krak
▁sher
ogenic
▁Mongol
▁Believe
▁overlap
▁maternal
eur
fax
mid
abul
▁Fork
▁boxing
▁unbeat
▁authored
▁blocking
▁comeback
▁Returning
▁coronation
▁inscriptions
usa
lord
▁Ach
▁Rut
▁Bren
▁Attack
▁Plains
▁dismant
▁creators
gic
tym
erves
▁Kind
▁Smart
▁Witch
▁embed
▁Zagreb
▁Webster
▁posting
▁melodies
▁sounding
▁troubles
▁crossover
▁Sara
▁Arabs
▁Stark
▁traces
▁Benedict
▁Valentine
▁sculptures
ión
via
mass
ulator
▁Blanc
▁weird
ulative
▁hardly
▁Biography
▁accounted
▁registration
oj
oka
ials
igon
▁Conrad
▁farther
▁handful
▁prestigious
uer
▁Ig
▁Boot
▁Mana
terson
▁Cedar
▁Congo
▁embry
▁fungi
▁traff
▁vacant
▁Gazette
▁informs
▁shooter
▁mountainous
NT
mm
bone
orum
▁Hes
ancer
court
iscal
▁Zimb
▁subf
▁Sandy
▁feder
▁prone
▁sizes
▁Orkney
▁attain
▁incarn
▁terrorist
▁campaigned
▁generating
▁renovation
arms
▁Math
ochond
▁prints
▁Sheriff
▁pyramid
▁reactor
▁surveys
▁eastbound
▁resembling
iem
▁fa
▁IUCN
▁Stoke
▁pagan
▁Chiefs
▁consec
intendent
▁matching
▁Guatemala
▁legendary
▁occupying
▁awa
▁Deal
▁Fine
▁gorge
▁nutri
▁Athletics
▁consolidated
amoto
▁odds
▁labels
▁Speaker
▁chicken
▁compose
▁consort
▁dissent
▁forever
▁lecture
▁motorcy
▁recalls
▁remixes
▁devastating
▁downloadable
do
jm
iop
▁cob
ewall
▁Dorothy
▁calcium
▁energet
▁integral
▁stealing
▁confronts
▁factories
anol
boats
apeake
▁gases
▁halls
▁plots
▁Crosby
▁Tolkien
▁issuing
▁Socialist
▁starboard
▁recruiting
▁terminated
ár
▁Ely
▁Liv
▁Sap
▁Saff
▁Syrac
▁likes
▁seeks
▁Khrush
▁nobles
hea
▁CH
asis
▁Hyde
▁Jain
▁Match
▁guilt
actions
▁Gaelic
▁forget
▁heaven
▁storey
▁tragedy
▁Heinrich
▁advisory
▁unstable
▁spectacular
enic
▁Hep
▁amp
▁iPh
isely
▁Rosa
loaded
▁papal
tically
▁Trinidad
▁breathing
▁broadcasts
▁Bf
chet
▁ric
▁Diane
▁subpl
▁heights
▁bombarded
▁Architecture
vara
▁Hog
▁Yar
▁lev
parts
▁None
▁Volt
▁Wemb
▁Yosh
▁Abbas
▁punct
▁Eminem
▁hailed
▁sulfur
▁whites
attering
▁Airways
▁ballads
▁erupted
▁viruses
▁Reviewers
▁Legislative
AA
MC
awak
▁adul
▁Felix
▁debts
▁rocky
▁Auburn
▁firmly
▁Element
▁endemic
▁neutron
▁Guerrero
▁consoles
▁designing
▁specially
▁Khrushchev
▁delivering
uj
elius
▁Duff
▁Eman
▁Hort
▁sweep
▁faithful
▁correctly
▁emissions
▁Expressway
▁divisional
KO
▁Ans
▁Bil
▁gale
▁Veter
▁lumin
▁neuro
▁resume
▁Voyager
▁striker
▁Sinclair
▁profitable
quis
▁bund
▁knife
▁alumni
▁emblem
▁Planning
▁stranded
say
▁Lass
▁bord
▁Kannada
▁embassy
▁quadrup
▁promptly
▁notorious
▁obtaining
▁Pom
▁Tat
▁Tul
▁Phot
▁cure
▁Raven
▁Solid
▁gradual
▁rituals
▁Syracuse
▁mushrooms
▁pressures
▁shoulders
mal
path
▁abn
▁Agre
▁Moff
▁plaque
▁melodic
▁membrane
▁transmit
▁consultant
▁transmitted
▁unnecessary
usk
▁Rum
▁maj
avier
▁Giro
▁Hipp
▁hire
▁rats
▁loans
▁stiff
▁Andrea
▁Worlds
▁Comment
▁Matilda
▁Wembley
▁depictions
▁residences
▁thirteenth
▁Herzegovina
▁continuation
vol
raged
▁rope
▁lunar
▁leased
▁survives
▁Chesapeake
ifa
inks
bands
▁McCl
ricken
▁Abdul
▁tying
▁Midway
▁Artists
▁expired
pa
▁Liu
rague
▁Himm
▁Jill
▁Sixth
▁Trent
▁dances
▁Thursday
▁fuselage
▁uncommon
▁dispersed
▁compelling
▁Representative
elo
abwe
▁Pod
veston
▁sperm
▁Krusty
▁encirc
▁Effects
▁Perfect
▁Wyoming
▁Brittany
▁whenever
▁Classical
▁Southwest
▁merchandise
▁Hew
▁LGB
▁Ride
▁fuck
ictionary
▁envision
▁disappointing
inski
▁Hale
▁Mant
▁bust
▁Natal
▁paths
▁editors
▁quantum
▁abstract
▁revision
▁persistent
lamm
oken
▁vinyl
▁Sesame
▁binary
▁dancer
▁magist
▁mentor
▁compass
▁Fighting
▁besieged
▁kingdoms
▁committees
▁differently
▁emotionally
loo
▁Hook
▁rept
usions
▁Watts
▁optical
▁humorous
▁Christina
▁detection
acey
▁Rox
rowing
▁Bohem
▁Tracks
▁hyphae
▁Leipzig
▁reacted
▁Randolph
▁accurately
▁contingent
▁curriculum
▁discovering
ahu
ghai
▁Sut
▁Viv
▁grat
▁Rough
▁Vernon
▁manual
▁shifts
▁Journey
▁Ottomans
▁periodic
▁deposited
▁reservoir
etti
▁Bede
▁Brom
▁syll
▁Honey
▁Venet
▁pamph
▁poetic
▁spiral
▁Shannon
▁compuls
▁vampire
▁Wanderers
▁coincided
▁referenced
▁celebrities
▁concurrency
▁determining
▁battlecruiser
rice
▁JMA
▁Gilm
▁popul
▁Maggie
▁pinned
▁memoirs
▁differed
▁dinosaur
▁entirety
▁Hutchinson
▁bankruptcy
bye
▁nu
rise
ugged
▁bark
▁Bates
▁flatt
▁tidal
▁Charac
▁Gospel
▁tobacco
▁Zimbabwe
▁Galveston
▁Structure
▁circulated
▁tides
▁Aberde
▁Complex
▁Towards
▁crushed
▁fitness
▁halfway
▁dismissal
▁goaltender
▁intensification
eals
▁Tuls
▁wolf
ishers
rament
▁calib
▁imped
enhagen
▁exploring
▁amphibious
▁decoration
▁constituted
▁Nep
ensen
igion
▁Styles
▁Goodman
▁Shanghai
▁gambling
▁Declaration
▁SP
▁Lars
atabase
iencing
▁Saskat
▁loosely
▁melting
▁Tasmania
▁talented
▁prolonged
▁Providence
NS
uxe
cill
opot
▁NWA
▁Wit
▁bio
▁Alleg
▁ankle
Farlane
▁Hipper
▁shorts
▁aligned
▁rebuild
▁treason
▁submission
▁lac
▁fron
▁Aston
ivorous
▁Exeter
▁Gustav
▁satire
▁Heights
▁Phantom
▁Clarkson
▁furniture
▁visibility
bot
isy
▁Cit
eters
orman
▁Cord
inished
▁fruits
▁cantata
▁tremend
▁Twilight
▁hampered
▁mobility
▁unbeaten
▁auxiliary
▁discusses
▁eruptions
▁protested
▁propulsion
orms
occup
▁LGBT
▁Peak
▁cage
▁punt
▁ellip
▁incon
ailable
▁Bayern
▁Slayer
▁Weston
▁unified
▁inserted
▁longtime
▁incumbent
▁inspection
▁identifying
▁MCC
▁Rib
▁Pain
▁Chess
▁luxury
acements
▁intimid
▁balanced
▁Pitchfork
ongs
▁surn
▁Breck
▁risks
▁Silent
▁echoed
▁sprint
▁waited
▁Railways
▁obstacles
▁caut
▁spor
▁till
izards
▁Ganes
▁Torch
chwader
▁Booker
▁Magnus
▁enroll
▁Warrior
ographies
▁labelled
▁predator
▁solitary
▁rendering
iban
umer
▁Dim
▁Lip
▁Gear
▁Webb
▁Brett
▁Rican
▁anten
▁Carson
▁Parish
▁trench
▁Looking
▁Scholars
▁crystals
▁rankings
▁recruits
▁Augustine
▁Characters
▁exceptions
▁retreating
OW
▁Bag
▁hab
▁Kant
▁Said
▁Trevor
▁Animals
▁Davidson
uce
gren
▁Aus
▁phon
powder
▁Julius
▁pretend
▁dressing
▁weighing
▁Something
▁sentences
pets
phis
▁tens
▁files
▁funnel
▁iPhone
▁Wollston
▁artifacts
▁exceeding
▁relegation
▁Parliamentary
▁Wollstonecraft
oco
▁Oz
▁ST
▁Glory
▁snake
▁splits
astically
▁Czechosl
▁answered
▁stricken
▁surfaced
▁vertebra
▁Presbyter
▁inflation
aris
stop
uana
▁Fav
▁radi
▁succ
▁vest
ateral
▁Moreno
▁hammer
▁shrine
▁sophom
▁Ukraine
▁liberty
▁Geography
▁precursor
fa
ben
hot
▁toy
adian
▁Note
▁hast
▁pharm
astrous
▁Vishnu
▁ecology
▁travers
▁likewise
▁intensive
alan
anic
enza
obil
▁Egg
▁Lik
▁sap
asted
▁pipe
▁Advan
▁Mercy
▁alike
agnetic
▁Gentle
▁outflow
▁replica
▁visitor
▁ministry
▁settling
▁attracting
▁objections
▁Yuc
agher
▁Cauc
▁quot
▁Nazis
▁ensued
▁Salford
▁Streets
▁rumours
▁Progress
▁latitude
▁downloads
▁programmes
▁reproduction
▁dw
▁Dow
▁Nom
▁Fast
▁owns
ratory
▁Ladies
▁dispar
▁hazard
▁paired
▁Empress
▁valleys
▁Americas
▁crystall
▁distress
▁marching
▁continually
▁reproductive
▁unemployment
▁intentionally
lif
▁Eg
bons
▁ende
▁mars
▁Nikol
▁Marian
▁farmer
▁debates
▁recreation
▁experiencing
iew
▁Pé
anch
▁Bie
▁ODI
stage
▁unav
lywood
▁Slant
idships
▁Amazon
▁heroic
▁patern
▁Battery
▁gunfire
▁sequels
▁Chemical
▁Exchange
▁Nottingham
obs
▁Slam
▁glam
▁crick
▁Bombay
▁lament
▁belongs
▁patches
▁utility
▁marketed
▁spanning
▁Copenhagen
▁Undertaker
▁disastrous
▁Devils
▁Appeals
▁dialect
▁instant
▁carriage
▁moisture
▁Wednesday
▁happening
▁reconstructed
▁Northumberland
kan
uta
bard
nance
▁Tsar
▁replay
▁informal
kov
▁Ecc
▁Tip
arius
eason
finger
▁Dreams
▁decent
▁harmony
▁granting
▁inscribed
nie
ibald
imacy
▁Moss
▁USAF
▁Lines
▁Spike
onomous
▁robust
▁strips
▁Andrews
▁Regular
▁Success
▁warrior
▁wrapped
▁stressed
▁subordinate
▁bog
fight
▁Sang
▁Stro
▁Wilf
▁aunt
▁caves
▁Herman
▁Winnip
▁convex
▁storyt
▁totals
▁examine
▁marginal
▁morality
▁amidships
geon
rath
▁NES
▁Mell
▁Prinz
▁Yucat
illance
▁Barrow
▁orphan
▁academy
▁bowlers
▁township
▁Metallica
Cl
utz
ahan
▁Imag
oughts
ranger
hematic
▁Compet
▁oppose
▁rowing
▁Monthly
▁enzymes
▁microph
▁stellar
▁broadside
▁thoroughly
nar
▁Maz
▁Pret
▁deny
▁alpha
▁index
▁plaza
▁Rivera
▁derives
▁reunion
▁spiders
▁ensuring
▁renumbering
RNA
ups
otted
▁Advis
▁Idaho
▁Cretaceous
▁appreciation
▁counterattack
obe
upe
▁SK
▁Luz
itian
▁Borne
▁disin
▁Galaxy
▁Letter
▁fertil
▁deities
▁isotope
▁abortion
▁ideology
▁limiting
▁sciences
▁Testament
▁suspicion
▁downstream
▁protesters
▁manufacturers
este
leased
▁mates
▁suite
▁frozen
▁impacts
▁rematch
▁heaviest
▁Challenge
▁lightning
▁unrelated
▁advisories
anus
ardi
eren
▁AIF
▁Buc
▁Bram
▁Denn
▁Gott
▁croc
▁cuis
stidia
▁Thing
▁Claren
▁extras
▁jacket
▁Charter
▁careful
▁failures
▁mistakes
▁turnpike
▁Agreement
▁censorship
▁prosperity
erie
▁Mys
aukee
▁fran
▁indef
▁rented
▁Winnipeg
▁intimate
▁reigning
▁excavated
▁instantly
▁identifies
▁gravitational
arf
iago
insky
erving
▁Legal
▁incap
▁irrit
▁arches
▁aquatic
▁coinage
▁Isabella
▁exploded
▁courtyard
▁indication
borg
igne
unda
▁Kee
▁Cage
▁Noel
▁Pole
▁holy
acious
▁infect
▁spider
▁natives
▁escorting
▁Georgetown
rite
▁Rag
▁Phel
▁Taft
▁Vamp
▁Lance
▁shoes
▁Financ
▁coined
▁Cunning
▁Economy
▁omitted
▁elephant
▁equality
▁inherent
▁Middleton
▁Offensive
▁discarded
▁teachings
▁Observatory
▁choreography
LL
him
▁wag
iking
▁Kemp
skirts
▁foods
▁ordin
▁Vladimir
▁stronghold
▁concurrently
▁constructing
uum
▁BA
bank
urnal
▁Sons
▁Torn
▁bast
▁indie
▁retal
▁correl
▁crafts
agements
▁balloon
▁inexper
▁tallest
▁Covenant
▁trustees
▁Dartmouth
▁rejection
▁cultivated
bat
inda
ranes
amorph
▁Cairo
▁Towns
▁Worth
▁Policy
▁raiding
▁retrieve
▁eponymous
▁hostilities
▁overlooking
▁missionaries
▁Kw
▁Ibn
▁Tues
▁Vent
▁beet
▁tang
▁firms
▁Across
▁Nicole
▁brutal
▁grades
▁relate
▁static
▁Warning
▁intersecting
auts
atches
▁Agent
▁Locke
▁basal
▁exotic
▁expend
▁rolled
▁weaker
▁airplay
▁granite
▁Commerce
▁commence
▁governors
▁slaughter
▁supervisor
▁constellation
pus
▁IA
akov
▁Mis
▁Raz
orrow
▁Fresh
▁cents
▁Levine
▁Platinum
▁assuming
▁enjoyable
▁outskirts
▁organizing
▁Baja
▁Close
▁ditch
▁Paragu
▁Seventh
▁criticizing
DH
▁GM
▁SF
prin
▁Cho
▁ROK
▁Jump
anners
rovers
▁Plain
▁clips
▁Gaming
▁Mariah
▁Rebell
▁Randall
▁appeals
▁likened
▁markings
▁cinematic
▁practition
▁Preparations
▁LA
kill
uddy
▁ded
▁hPa
▁menu
rition
▁Madras
▁bottle
▁jumped
▁modeled
▁Combined
▁Einstein
▁probable
▁Divisions
▁persecution
▁Lux
▁Mih
▁rav
▁Pist
▁Leafs
▁slide
ificent
▁Heroes
▁Rotten
▁graves
▁Factory
▁Germanic
▁metallic
▁questioning
▁superiority
enb
▁Lyr
▁Wer
▁aspir
▁ultra
▁Monten
▁refurb
▁Stanton
▁Matthews
▁collided
▁strategies
▁Vid
▁bush
▁Marion
▁fiscal
▁resisted
▁upstream
▁occurrence
▁Alternative
iya
▁MW
kind
alley
▁pose
▁unin
▁amalg
▁Memphis
▁cockpit
▁Advanced
▁Alexandra
▁Christine
▁resembled
▁temperate
▁repetitive
▁cylindrical
▁CF
gency
▁Bols
▁Pemb
▁PopM
▁bind
▁Words
▁poles
▁Broken
▁Fields
▁indoor
▁teamed
▁unions
▁stained
▁imminent
▁engagements
▁Ek
▁tu
▁tin
▁zoo
atics
▁wage
▁Touch
▁Cowboy
▁Mickey
▁verdict
▁Habsburg
▁novelist
▁accession
▁integrity
▁auditioned
▁ecological
▁Agriculture
▁auto
▁Negro
▁towed
itement
▁Barack
▁Source
▁distract
▁appealing
▁barometric
▁Illustrated
▁Hassett
▁Workers
▁answers
▁metabol
▁pianist
▁financed
▁sacrific
▁memorials
uh
▁UP
▁sa
alli
▁Ist
▁Ket
hardt
umbled
▁Gibbs
▁Theod
▁burnt
▁Harald
▁Lakers
▁repuls
▁greeted
▁illumin
▁inflict
▁Bismarck
▁attitudes
▁Cornwallis
▁facilitate
▁dissolution
▁dreadnoughts
uins
▁Erin
▁pond
idable
▁Frost
ocolate
ondheim
▁ambush
▁inflamm
▁slender
▁digitally
▁ineffective
eted
kers
▁Ras
▁leak
▁trim
▁codes
▁puzzle
▁Revival
▁Europeans
▁kidnapped
▁surprising
bern
orers
▁Breat
▁McCle
▁Mortal
▁congreg
▁yielded
▁forbidden
▁Xen
▁Mold
▁Vari
▁Vett
▁aren
▁Loyal
▁backs
▁Lambert
▁Rockets
▁Vermont
▁Clarence
▁emergence
▁prevalent
▁destructive
▁personalities
spe
▁seab
▁Elvis
▁Amster
▁Casino
▁update
▁Batista
▁anthology
▁somewhere
▁supervised
▁technically
ér
uper
▁Ism
andra
atile
oining
▁Rebec
▁Albania
▁insight
▁museums
▁seventy
▁Language
▁theatres
▁violated
▁expresses
▁potassium
▁innovation
atl
▁Ng
cover
▁outn
▁pits
▁Marty
▁Walsh
▁coral
▁Landing
▁Shepherd
▁uncovered
grat
▁Enc
▁musc
waukee
▁sexes
▁Caliph
▁exiled
▁nobody
▁plasma
▁Hepburn
▁dominate
▁princess
▁villains
▁Emergency
▁frustration
ppe
▁IB
care
▁Kau
▁Leh
▁Colt
▁Kany
▁fool
solete
▁adolesc
▁Greenland
▁affiliate
▁trunkline
▁uncomfort
▁beneficial
▁camouflage
aic
aji
▁ma
leigh
shine
▁musk
resses
▁tuber
▁Europa
▁banner
▁Neville
▁asserts
▁cooling
▁peasants
▁strained
▁websites
▁intensify
▁miniature
▁spokesman
▁Restoration
▁coordinated
▁interception
vana
▁Ace
▁Edg
▁Ono
▁Pond
▁Table
esterly
▁Bottom
▁Bryant
▁affects
▁gunnery
▁mothers
▁Facebook
▁electrom
▁treasure
▁undergoing
▁millimeters
▁unexpectedly
▁complications
aguar
▁Bono
▁Hitch
▁Inform
▁dishes
▁outpost
▁stalled
▁postseason
▁problematic
▁commissioner
lynn
ongo
vals
walk
▁Rac
illas
▁Murd
advant
fields
glades
▁Manit
▁Barker
▁Groves
▁Oldham
▁boring
▁prejud
▁clients
▁autonomy
▁disposal
▁visually
▁consulted
▁unfinished
ipse
▁Rao
▁overc
▁violin
▁Shirley
▁admiral
▁fleeing
▁obscure
▁texture
▁Aberdeen
▁defendant
▁denounced
▁Cunningham
▁envisioned
▁certification
ál
ás
rio
▁Ug
chus
ogle
▁Ved
axies
▁nave
irming
ulance
▁stems
▁grouped
thy
athi
days
▁ech
▁hij
ombat
▁Eston
▁Cartman
▁Goldman
▁Taunton
▁Thomson
▁chromos
▁lightly
▁underway
▁Amsterdam
▁expecting
▁Everglades
▁ecclesiastical
▁GC
pole
rill
▁luc
▁Stam
▁offs
▁Farmer
▁Scouts
▁cultiv
▁virtue
building
▁cartoons
▁sixteenth
▁culminating
▁psychedelic
III
▁Tz
▁NHC
▁bail
▁Instr
▁Sharp
▁rework
▁Present
▁depressed
▁Conversely
▁contributor
▁Yuk
▁Zach
▁suck
▁Build
▁fluct
▁Landmark
▁suspects
▁explosives
▁Exc
▁sop
epers
▁Ling
▁Okin
asting
gerald
ijuana
▁Bruss
▁Tunis
ivities
version
▁Bolshe
▁viable
▁centred
▁Religion
▁shifting
▁oxidation
▁attractions
hoe
sten
▁Wein
▁monk
▁Braun
▁Period
▁deadly
▁provoked
▁targeting
▁Congressional
▁possibilities
cats
▁VHS
▁cum
aunch
▁Nigel
▁charm
▁midst
▁Colony
▁Walton
▁vector
▁Bosnian
▁Nuclear
▁Rodgers
▁sparrow
▁Producer
▁Elsewhere
▁acquiring
▁Everything
▁Fitzgerald
lund
▁rall
istice
▁Peggy
▁Plans
▁Strike
▁doubts
▁hunter
▁Gillian
▁disorgan
▁energetic
▁deliberate
▁TS
idas
ostic
lining
▁Brent
▁Champ
▁algor
▁locks
▁wheat
▁Naples
▁obsolete
▁displaying
▁Achievement
agua
chron
▁Dang
▁Brest
▁Moffat
▁humili
▁incent
▁Himmler
▁drought
▁fingers
▁interchanges
▁IP
bath
itsu
▁Rhy
bourg
itius
▁Shoot
▁Motors
▁Rebecca
▁Medieval
▁Survivor
▁upgrades
▁justified
▁parasites
▁planetary
▁demonstrations
▁BS
▁IOC
▁tips
▁wand
▁Ernst
▁arche
▁twist
▁Geneva
▁Keynes
▁Relief
▁ambition
▁Marlborough
kef
▁Gul
▁Belf
▁Mets
▁Rita
▁hood
▁Bruno
▁Pione
▁civic
▁Godwin
▁Concern
▁Located
▁Humphrey
▁theology
▁Financial
▁backwards
▁charitable
UP
▁Cyn
▁Casc
▁Ebert
▁Tudor
▁robot
▁Taking
▁sodium
▁upheld
▁Lindsay
▁Academic
▁flexible
▁grounded
▁observer
▁Dickinson
▁eliminating
▁anticipation
▁surroundings
beck
ilem
onne
▁Morm
▁Rash
▁feas
forest
▁Filip
▁Males
▁Sounds
▁costly
etically
▁Support
▁surgeon
▁Highland
▁constraints
▁correspondent
edo
oki
aran
hawk
leen
▁Bax
▁Kip
antha
▁Pill
agogue
▁Marse
▁panic
imental
▁refuse
elestial
▁Olivier
▁advisor
▁implied
▁mercury
▁sponsor
▁customer
▁disadvant
▁aggression
▁individually
▁protagonists
▁piv
▁maid
▁Jenny
▁enact
▁olive
▁parap
ismatic
▁Climate
▁Detective
▁Evolution
▁columnist
▁discharged
▁Institution
agasy
▁Cust
▁Hert
▁Lone
▁Moses
▁Noble
▁Notre
▁Braves
▁Census
▁crater
▁punish
tymology
▁Canning
▁Certain
▁Glacier
▁Sarawak
▁sighted
▁suscept
▁captains
▁continuity
▁defendants
▁alterations
▁governmental
oku
▁PR
ilib
thon
▁Dru
▁Viol
▁vein
▁Phase
anthrop
assment
▁Brussels
▁Fernando
▁Wilkinson
onstruction
▁conception
▁plantation
▁progresses
▁redesigned
▁Presbyterian
▁additionally
▁PD
▁WS
▁Pos
▁bite
▁Navig
▁outline
▁reperto
▁rewarded
▁Milwaukee
▁mitochond
▁tributary
▁Literature
oos
quez
▁Koh
▁jun
▁Romeo
▁subdu
▁Borneo
▁climbs
▁Everett
▁Honours
▁staging
▁Salvador
▁devotion
▁founders
▁animators
▁numbering
▁PopMatters
▁excavations
▁professionals
ivo
ndon
▁ITV
▁Yah
▁iOS
plant
▁Hour
▁drif
▁infra
▁keeper
▁Highlands
▁Ambassador
▁Cumberland
▁astronomers
▁seventeenth
▁interpretations
aby
ylon
accur
uties
▁Acts
▁Wilde
▁dried
▁agenda
▁catast
▁decree
▁mammal
▁rotating
▁touching
▁conscience
Cube
▁Sev
▁pec
▁upt
ansen
▁Alec
▁Chak
▁Inch
▁Sale
▁Bridg
▁Cliff
▁Outer
▁Theme
▁suits
▁Multip
▁Santiago
▁vacation
vie
irie
tail
▁Net
▁mour
▁feeds
▁Ronnie
▁Wenger
▁eighty
▁cannons
▁fulfill
▁Johannes
▁Municipal
▁unchanged
▁archipelago
▁modification
IP
nai
vre
regor
▁Shop
▁horm
▁chords
▁helmet
▁ladder
▁Shankar
▁masters
sm
artet
ührer
▁Huff
▁Mare
▁Whig
▁Payne
fielder
▁plains
▁Clifton
▁couples
▁grammar
▁Albanian
▁Software
▁embedded
▁Malaysian
▁intervene
▁sophomore
▁BP
berht
▁Erik
▁cope
▁dirt
▁owed
▁peer
▁Hiros
▁Minaj
▁cites
▁tiger
▁Chopra
▁Chaplin
▁relates
▁diverted
▁nineteen
▁rehearsal
▁Ign
▁lent
▁Estab
▁Marco
▁facto
▁asylum
▁habits
appropri
▁Freeman
▁inaccur
▁contamin
▁galaxies
▁prestige
▁sanction
▁psychology
▁Paralympics
▁redevelopment
rí
eks
harm
▁lig
iciary
istani
▁Daven
▁tombs
▁corpse
▁walled
▁Allison
▁Cromwell
▁ironclad
▁somebody
▁Rebellion
▁Regarding
▁Secondary
abi
▁neo
▁Argy
▁Lana
▁cree
▁duel
▁Savoy
▁Shock
▁merit
▁Majesty
▁bicycle
▁widened
▁catching
▁scripted
▁sympathy
▁Azerbaijan
▁stationary
▁supplemented
▁homosexuality
zan
pers
psil
▁Jut
ewood
staff
▁Solo
ilated
irling
▁Ambro
▁mimic
▁mould
▁Nasser
▁Timothy
▁congrat
▁resistant
ambo
omal
▁Hag
▁Lob
▁shy
atham
ennes
▁Biden
▁fined
▁picks
▁Beauty
▁baptism
▁fixture
▁applying
▁minerals
▁Continuing
▁Legislature
▁disagreement
▁Suk
enzie
▁blew
▁McCoy
▁Mitch
▁laser
▁scrut
▁Iranian
▁bureauc
▁comedic
▁warming
▁Cambodia
▁Pakistani
▁criminals
▁u
anti
▁Til
▁Kell
▁Tosh
▁Whed
izarre
stones
▁Lionel
▁Triang
▁hunted
▁Clayton
▁resting
▁Released
▁airports
▁disorders
▁obviously
▁consulting
▁lighthouse
anya
urus
▁Grim
▁atom
▁iPad
▁ruin
▁Abyss
▁Irene
▁Dorset
▁Fowler
▁hitter
▁reduces
▁redesignated
▁municipalities
mir
uns
leaf
▁Gob
▁buck
ezvous
utnant
▁Going
▁Rings
▁paran
initely
▁Course
▁demise
▁matrix
▁Physical
▁allegiance
▁negatively
▁strikeouts
atro
rawl
▁nmi
▁Kart
▁clade
itivity
▁Recent
▁Totten
▁minded
▁Destroy
▁Reverend
▁rehabilitation
NG
▁q
amba
heed
▁Utt
▁hex
icious
▁Casey
▁Salam
▁devot
▁trunc
▁Benson
▁breath
▁Malagasy
▁glaciers
▁missionary
iu
pro
igue
hesis
ikini
▁dams
▁Wheel
▁inund
olation
▁Search
▁demons
▁maiden
▁therap
▁trends
▁Coastal
▁obliged
▁basically
▁phenomena
oran
▁Dee
▁hymn
▁Ahmad
▁Buffy
▁Sally
▁hairs
▁Helena
hetamine
▁Sanders
▁Analysis
▁prolific
▁MacDonald
▁satisfying
▁celebrating
▁exaggerated
ija
ević
obic
onal
prises
▁Arrow
▁lasts
▁reint
▁Kombat
▁insert
▁Letters
▁hunters
▁butterfly
▁undertake
▁inheritance
▁SI
bral
omac
▁Belt
▁Echo
▁Herc
▁Zack
▁glee
ifiers
▁Graves
▁Saffir
▁spells
▁Colombia
▁employer
▁enforced
▁senators
▁investments
▁technological
▁Lé
buck
ihan
▁Word
▁glow
illion
▁Coming
▁wholly
▁kickoff
▁relinqu
▁supreme
▁talents
▁Townsend
▁casemates
▁departing
▁mandatory
▁tremendous
▁retrospective
iw
▁Schu
▁Stre
▁edit
▁soils
▁Vander
▁exploit
▁outrage
▁spectral
▁religions
▁Hungarians
▁Wolverines
▁repertoire
▁statistical
lla
rar
▁meg
arios
iners
tures
▁stir
▁Clyde
▁Offic
▁minds
▁truce
▁Georges
▁Titanic
▁lateral
▁Eurasian
▁Groening
▁folklore
▁singular
▁Wilmington
▁treatments
▁campaigning
▁photographed
eka
isha
raul
▁mol
uffed
▁Carm
▁gill
▁luck
▁nude
▁haven
▁Brooke
▁Proper
▁insign
▁nightcl
▁compensate
▁surveillance
▁CB
▁Yo
esis
▁Lif
▁Vil
ataka
▁Tate
▁eman
▁stre
▁maxim
▁Picard
▁Themes
▁Glaston
▁healing
▁retains
▁Griffith
▁conclude
▁explores
▁athletics
▁uncomfortable
▁Try
esome
▁Cald
▁Poul
▁desk
▁meal
phabet
ptical
▁Rising
▁Writer
▁tragic
▁equation
▁appointments
elly
▁Kab
▁nan
▁Beta
▁Hole
▁slam
▁Eugen
▁Terror
▁essays
▁thesis
▁Vickers
▁angered
▁corrupt
▁welding
▁daylight
▁definitive
▁unanimously
RL
▁Das
▁SEC
▁spr
▁Crew
▁gymn
▁Mozamb
▁Prague
▁crocod
▁volley
lessness
▁Tuesday
▁anxiety
quartered
▁sculptor
▁searched
▁Mauritius
▁shortages
▁communists
▁Few
▁Coin
Reilly
▁Conan
▁Extra
▁Pratt
▁flames
oval
pend
rade
▁Byr
▁seap
▁Known
▁gonna
▁aiming
▁hiring
▁racism
▁sheriff
▁Davenport
▁financing
▁confirmation
▁HBO
▁Tah
iston
▁folded
▁immort
▁leisure
▁emission
▁Patterson
▁restoring
▁congestion
▁commentator
▁decorations
▁volunteered
gil
gra
▁Iss
oxide
▁Cull
▁Guin
▁Nadu
▁Nell
lewine
▁Hogan
ocative
▁Hanover
▁banking
▁boarded
▁traders
▁Erlewine
▁evaluation
▁viewership
▁masterpiece
▁disappearance
▁NW
▁Fry
▁Yes
itism
▁Monk
▁Toul
▁ling
▁Revel
▁stole
▁wavel
▁Macdon
▁legends
▁convened
▁interfer
▁Stevenson
▁breakaway
▁differing
▁elongated
▁employing
▁Charleston
▁Glastonbury
▁Pt
word
▁Ens
▁Foss
unkers
▁Pluto
▁Alamos
▁raided
▁angular
▁barrage
▁picking
▁Flotilla
▁fortunes
▁monitors
▁bil
▁exits
▁screw
▁Malvern
▁contender
▁alternating
LU
foot
▁Arj
rophic
▁Antio
▁Boone
▁Kylie
▁Sanct
ublished
▁Potomac
▁Criminal
▁variously
▁Controvers
▁Catholicism
▁commissioning
Sh
▁Iw
gging
▁Chip
▁Tran
▁carc
asurer
▁Innoc
▁Waugh
▁irrig
▁Blacks
▁Suffolk
▁envelop
▁warship
▁Honduras
▁premises
▁SM
Conn
iped
arium
▁Inner
▁Bonnie
▁Nickel
▁Breckin
▁Cartoon
▁Armoured
▁Colonial
▁treating
▁Bollywood
▁decreasing
▁productive
▁ingredients
ei
ango
mere
ooks
ukov
▁Mud
oland
olson
▁Resc
▁carb
▁ions
actory
imated
▁Alger
▁Kanye
▁motiv
manship
▁Horses
▁groove
▁malaria
▁escaping
▁kilogram
bins
icho
▁Gle
rigan
▁Thur
▁Amber
▁Fritz
▁decks
▁invade
▁Katherine
▁graduates
▁automobile
▁criticisms
▁wavelength
▁accomplishments
afi
oit
▁Bly
▁Gir
maker
odont
▁Poor
▁oval
▁sexy
ranged
▁Hyder
▁tenor
▁Scheer
▁duplic
▁nominal
▁tackles
▁Fortress
▁unanimous
▁warehouse
▁commercials
▁astronomical
▁ye
robe
▁Bene
▁Kash
▁unse
▁Lenin
▁appar
▁Nassau
▁salmon
▁outright
▁Rodriguez
▁geographic
▁rehearsals
▁ul
▁pope
waters
▁Brady
▁Carne
▁Scream
▁plenty
▁Rainbow
▁ethanol
▁refined
▁improvised
▁Interactive
lez
emann
hawks
▁Goes
▁ours
verage
▁badge
▁globe
▁peaks
elihood
ouraged
▁Niagara
▁Creation
▁combines
▁NE
▁Dix
▁Rex
rones
▁cass
▁Bench
▁Poles
▁admit
▁dwell
▁stint
▁Talbot
▁Wessex
▁Jarrett
▁Million
▁Phillip
▁pipeline
▁undefeated
▁Nir
▁cyt
▁Cory
▁Flem
▁Giov
▁palm
olding
▁Boris
▁Colts
▁Phelps
▁Sophia
▁Vettel
▁anyway
▁expans
▁Perhaps
▁scratch
▁overhead
▁Sacrament
▁overlooked
▁cultivation
▁destinations
uo
ynt
ller
plus
▁Fig
iances
▁Uncle
▁devil
▁Avatar
▁Berger
▁Calais
▁Oswald
▁Rookie
▁catchy
▁glands
▁Epstein
▁turbine
▁councils
▁downgrad
▁precisely
cs
▁Cav
▁Sas
enton
▁Laws
ropods
▁Cover
▁Pract
▁Quick
▁Stones
▁flanks
▁Hunters
idy
oso
▁AV
▁Iz
▁Rous
▁Wigan
▁Quater
▁styled
▁steamer
▁Tomatoes
▁chloride
▁convinces
▁Paralympic
igma
▁Ain
ieces
▁burg
▁prost
▁bombed
▁Crowley
▁remixed
▁yourself
▁detention
▁dimension
▁competitor
adh
iae
lov
isse
oyne
▁Tin
▁kin
books
▁Ferm
▁rhet
vester
▁boots
▁logic
▁Bedford
▁cuisine
▁endured
▁Manitoba
identified
▁Lyrically
▁airfields
▁overthrow
▁remastered
▁Bung
▁ramps
usement
▁Rumble
▁collar
▁Vaughan
▁premature
▁excitement
ych
alis
▁Hib
heart
ragon
▁brow
▁Above
▁Estate
▁mantle
▁Okinawa
▁furious
▁foraging
▁monetary
▁Macdonald
▁consumers
▁Quatermass
▁infections
▁overwhelmed
▁ts
thms
▁Kru
aparte
▁fence
▁rigid
lectric
▁Reserv
▁umpire
▁letting
▁finishes
▁complexes
▁reasoning
▁rendezvous
▁revelation
▁Investigation
opa
▁Use
▁Synd
eworth
▁Beech
▁moons
▁Cotton
▁Hamlet
▁preseason
▁vertebrae
▁Reformation
dad
▁MT
▁Mao
erner
▁Muss
▁Requ
▁belly
▁tiles
ournals
▁Vision
▁Ambrose
▁Everton
▁Garrett
▁deposed
▁Multiple
▁compatible
▁freshwater
▁morphology
▁IM
base
ophon
▁Change
▁Rockef
▁bloody
▁phrases
▁Likewise
▁vegetables
RE
onda
sche
notes
▁Gamb
▁Nina
▁lions
ilibrium
▁Charity
▁Yucatán
▁tissues
▁ambitions
▁interfere
▁Experience
In
lyss
odyn
elope
▁nons
ecuted
▁McCay
▁align
▁ignor
▁Circus
▁ladies
▁knights
▁chemicals
▁cricketer
▁prospects
▁volcanoes
▁OK
afia
bles
▁Lap
▁beef
▁pall
linger
▁Andri
▁Comet
▁Kerry
▁jumps
▁sheer
▁Manila
▁Anatomy
▁Miranda
▁aground
▁overrun
▁restart
▁Reporter
▁lifelong
▁showcase
▁Canadians
▁Direction
▁precedent
▁derivative
▁separating
▁pronunciation
ozo
esta
etto
▁Lec
alach
owitz
▁Buzz
▁Hamm
▁noun
viated
▁Megan
▁Pixar
▁Reyes
ikovsky
▁Access
▁Ratings
▁aggress
▁Hereford
▁Remember
▁database
▁detained
▁pressing
▁propelled
▁Hemisphere
▁autobiographical
▁Io
cons
▁RKO
▁Shō
▁omn
ftime
opath
▁Rein
herical
▁Ranger
▁Summit
▁overly
▁Buddhism
▁Tottenham
▁intervals
▁illustration
▁administrator
Bi
lar
nell
▁pod
amily
andro
ceans
ludes
▁Cope
▁Dres
▁Gris
▁Wine
street
▁Ashes
▁Milky
▁Pride
▁cripp
abulary
▁barons
▁rested
▁barrels
▁chimney
▁heroine
▁implies
▁catalogue
▁decorative
▁stretching
▁unreleased
▁headquartered
role
uffs
▁Ish
▁Bras
▁Eddy
▁jewel
▁pipes
▁Killer
▁chased
▁Holiday
▁spokesp
▁surname
▁listened
▁Karnataka
▁fishermen
▁reprinted
▁guidelines
erun
▁Ich
▁Toby
ewater
▁Flynn
▁theft
▁Whedon
▁mascul
▁pistol
▁turtle
▁Rowland
▁curtain
▁essence
▁inverte
▁Carlisle
▁totaling
▁Northeast
▁exercised
▁assumption
▁reluctantly
▁storytelling
baum
▁Fay
▁Rit
▁wis
grass
▁Lyon
▁bees
Connor
▁Bound
▁Marina
▁Vulcan
▁Britten
▁consume
▁hostage
▁plateau
▁charging
▁compares
▁hearings
▁fifteenth
▁libraries
▁mathematic
gio
lian
llan
orse
plate
▁Lark
giving
▁Privy
▁Running
▁intermitt
▁teenagers
▁Individual
▁Mozambique
▁inappropri
aea
pox
▁Ez
indy
uala
▁Gan
▁Kaw
▁Muk
naeus
▁Nike
▁extr
▁Myers
forward
▁Twelve
▁conspic
▁fearing
▁hydraul
▁exported
▁clearance
▁neglected
▁villagers
▁converting
▁trafficking
▁Conservatives
▁RC
aunt
azed
ummy
▁Eva
▁gut
▁Bagh
▁Rory
▁Byron
▁admir
▁dirty
▁seals
▁stamp
▁Atomic
▁Nordic
▁choral
▁wrought
▁geological
▁confiscated
▁tributaries
▁Breckinridge
uity
Neill
iolet
▁Poet
▁Tren
▁Trig
▁Urug
▁Vale
▁bike
▁idol
▁Bacon
▁Thous
▁airst
▁Pepper
▁cheese
▁employs
▁assisting
▁standings
▁concession
▁requesting
ser
tef
ysc
arez
lash
unal
▁Pav
▁lag
▁puls
▁Eliot
▁Vatic
▁Appeal
▁Sparta
▁depths
▁Revenge
▁Strange
▁execute
▁Peterson
▁spinning
▁incredible
▁midfielder
BL
pert
▁Arr
auses
hanna
▁Kron
▁verb
▁wise
▁Briar
▁Kumar
▁Orion
▁Zhang
riction
▁Factor
▁Making
▁diocese
▁dragged
▁Buchanan
▁Examples
▁measurement
▁AG
▁Ms
beth
acerb
▁Hang
▁Minh
▁Mund
▁Phon
▁Schne
urities
▁superb
▁Belfast
▁Spartan
▁posters
▁musically
▁renovated
▁Resolution
gone
banks
▁Helm
▁Ruby
▁cort
▁Salem
▁Trial
▁arise
▁rowed
inating
▁Saigon
▁Morocco
▁sectors
▁seizure
▁wrecked
▁Jurassic
▁Philharm
▁tolerance
▁liberation
▁Rockefeller
ounge
▁crude
▁thres
▁Garcia
▁Volcan
▁ideals
▁bizarre
▁neglect
▁prehist
▁Napoleonic
▁excavation
esi
▁Ae
▁TH
▁AFC
▁Vin
ochem
▁Golf
▁Pound
▁tally
▁tuned
▁tunes
reprene
ringing
▁absurd
▁motifs
▁Kubrick
▁Stephan
▁rerouted
▁augmented
▁inception
pm
▁Lyd
▁Clan
▁Krat
▁toys
geance
▁Built
▁Kenya
▁float
▁stays
▁Rapids
▁vacuum
▁Coleman
▁Females
▁adjusted
cyclopedia
▁candidacy
▁satirical
▁descending
▁inevitable
▁mg
iracy
onson
▁Lowe
▁Tale
▁argu
runner
▁tyres
▁equity
▁pigeon
▁Emerson
▁ejected
▁imagine
▁listings
▁gunpowder
▁triangular
▁ID
shaw
▁nic
▁Bian
▁Loop
▁Anime
▁subplot
▁Romantic
▁finances
▁precision
▁governance
▁suppressed
▁expressions
▁surprisingly
▁dod
acker
agram
▁Olga
▁Wins
arsity
points
▁Nicar
▁Silva
▁Cruise
▁cliffs
itations
mination
▁Pauline
▁approve
▁passive
▁Charlton
▁diamonds
▁surveyed
▁commissions
PD
▁ta
ourg
▁Luk
▁Vit
fleet
▁Cobb
rusted
▁Kitty
▁Smash
▁shout
▁Ludwig
▁Sidney
▁loving
▁ornith
▁epithet
▁scholarly
▁instituted
▁innovations
iao
kas
▁til
▁Peck
▁keel
▁Beaver
▁Lester
▁contempt
▁Bonaparte
▁benefited
▁advantages
▁suspicious
esy
with
fried
▁athe
formed
▁Dubai
▁risen
▁smell
▁Schwar
▁chicks
▁holder
▁insists
▁piercing
▁suffrage
▁addresses
▁MacFarlane
▁economically
achy
▁Lic
▁haw
omatic
▁Incre
▁Urugu
▁abbre
▁dunge
▁fauna
▁maker
▁extrav
▁guides
▁conquer
▁lineage
▁earnings
▁killings
▁addiction
▁composite
▁impending
▁authorised
▁probability
RD
aden
chel
mire
▁Nos
▁Tet
stadt
yards
▁Bres
▁Judy
▁Siber
stanbul
▁Gloria
▁Weaver
▁framed
▁mascot
▁proves
▁snakes
▁warmer
shadowed
▁Heather
▁adviser
▁amended
▁branded
▁exacerb
▁accessed
▁barriers
▁cleaning
▁enduring
▁halftime
▁paternal
▁marriages
▁advertised
▁succeeding
tor
▁NG
▁QF
▁pic
bours
▁Coke
▁intr
▁kits
▁Hence
▁bells
▁Ukrain
▁ethics
▁adverse
▁decreases
▁flashback
▁splitting
▁downgraded
▁instability
▁commissioners
▁XL
amen
oise
▁Biz
horst
▁Hair
▁Read
▁Blind
▁Brain
▁Brill
▁Crete
▁Sudan
▁clash
▁toile
▁disreg
▁spends
▁transf
▁trauma
▁Finance
▁ambient
▁princes
▁trainer
▁bachelor
ipes
lown
▁Kod
athed
▁Cell
▁Tara
▁lone
▁tops
▁comet
casters
▁lovers
▁sheets
▁Janeiro
▁Strateg
▁gesture
▁plaster
▁Avengers
▁analyses
▁mounting
▁Accolades
▁attackers
▁coloration
▁CL
▁ni
▁Tac
▁tut
asian
icker
▁neur
▁Denis
▁quote
ouncing
▁Bieber
▁Persia
▁stanza
tenstein
▁Dragons
▁Opening
▁Sisters
▁bleeding
▁bureaucr
▁delegate
▁Macedonia
▁necessity
▁contradict
▁naturalist
▁proportions
▁Classification
arine
atops
nders
▁Exit
▁Mode
▁Nest
▁Swim
▁olds
unders
▁Ariel
▁chanc
▁Gallip
▁resent
olutions
▁justify
▁margins
▁Athenian
▁observes
▁McClellan
▁structured
▁certificate
▁exploitation
▁inconsistent
▁NK
wold
▁ECW
liest
▁Eden
▁Rocks
▁slate
▁Threat
▁append
▁cables
▁exempt
▁plural
▁Jericho
▁exports
▁outages
▁Patricia
▁acquaint
▁arguably
▁comprise
▁Squadrons
▁collectors
▁motivation
▁psychiatric
▁sponsorship
fal
thia
▁Eri
▁Kad
▁Ory
▁Ree
▁Mayer
▁render
▁wooded
▁notices
▁pension
▁analyzed
▁innocence
▁voluntary
▁Chronicles
▁constitute
▁outnumbered
cot
atta
▁Mab
▁RAR
▁Sou
▁USC
omencl
▁flame
▁solic
▁insult
▁Crimson
▁Galileo
▁chasing
▁fission
▁pitches
▁quietly
▁Samantha
▁Speaking
▁deserted
▁Partisans
▁Trondheim
▁discoveries
▁plantations
▁spontaneous
FS
iard
shot
▁Scr
recht
▁RBIs
ometer
▁Massa
▁spine
▁swamp
▁tapes
▁Canton
▁Prayer
▁apology
▁arrange
▁nursing
▁pilgrim
▁organism
▁severity
▁Gallipoli
▁captained
▁possesses
▁switching
xes
▁WC
▁AFL
worthy
▁Khmer
▁aging
▁scutt
▁Regina
▁Travis
▁Jutland
▁assumes
▁guarded
▁mentally
▁Thereafter
▁supportive
uy
zt
ruff
▁Ion
▁Jol
▁Grup
▁saga
▁Chrys
▁Dolph
▁Klein
▁discs
▁Sloven
▁lumber
▁footballer
▁Unfortunately
▁RCA
▁Dear
▁Dion
▁Earp
▁grie
▁Libya
▁vault
erville
▁Gandhi
▁inspir
▁intric
▁Higgins
▁Shepard
▁Soldier
▁peloton
▁singled
▁Clifford
▁inclined
▁threaten
▁parachute
▁absorption
yah
adin
bels
▁Agg
▁Lep
▁Umb
▁Vie
▁tran
houser
▁Atari
▁motto
▁Reconstruction
MP
▁HS
ombie
▁Aman
▁Boul
▁bias
▁herd
▁Damon
▁Eleph
▁merge
▁punch
▁tense
▁Corpor
▁mutiny
▁prophe
▁Militia
▁Synopsis
pendicular
▁Promotion
▁pneumonia
▁transitioned
▁commemorative
ui
▁Bury
▁taxi
▁exter
▁grief
▁Button
▁Forrest
▁drifted
▁embraced
▁assaulted
▁exploited
▁substances
osc
udi
▁Barr
▁Duchy
▁Miche
▁paced
iscopal
artments
▁Physics
▁springs
▁Hartford
▁agreeing
▁nominate
▁spelling
▁autonomous
▁contention
▁perfection
▁commemorated
aras
enter
chewan
orcing
▁Lands
▁coden
▁spray
breaking
▁skating
▁hardcore
▁shipment
▁Religious
▁everywhere
▁SG
chez
▁owl
orate
roads
▁Jude
▁Mats
▁Niss
▁sinc
church
illand
▁frogs
▁Bruins
▁cadets
▁soprano
▁GameCube
▁dwelling
▁geometry
▁Stevenage
▁Venezuela
▁astronomy
▁passionate
▁playwright
▁prescribed
▁procession
▁unavailable
gau
▁AB
trak
▁Mau
▁Coff
▁Dahl
▁Study
▁Murder
▁suprem
▁Réunion
▁Midnight
▁Paradise
▁trailing
▁wireless
▁ambiguous
▁concealed
▁fourteenth
▁insistence
▁combinations
igny
▁Riv
▁crem
▁Wizard
▁shores
▁pending
▁pleaded
▁Istanbul
▁Liberals
▁Politics
▁Waterloo
▁adopting
▁penetrate
▁coordination
imus
▁Kok
▁McB
ayana
uling
▁Wise
▁noon
▁Jacqu
▁incub
▁lodge
iratory
▁Barney
▁Higher
▁ascent
▁dismay
▁cheaper
▁infrared
▁instinct
▁explosions
▁collaborator
gue
▁VH
afts
just
oche
kinen
▁Gaul
▁Jedi
▁Sina
▁inad
▁zool
▁Dirty
▁rails
▁bubble
▁monkey
▁Hermann
▁draught
▁glacial
▁Citizens
▁fountain
▁ancestral
▁compelled
▁resonance
▁astronomer
▁motorcycle
▁projection
▁spokesperson
gem
igi
loe
mans
olet
▁Amph
▁Bolt
▁Trit
▁Chick
▁hered
▁Lowell
▁endeav
▁pledged
▁somehow
▁Kendrick
▁physicist
▁systematic
▁Congressman
▁corporations
zh
▁MFR
▁Jard
▁arter
▁flaws
▁sprin
▁Archie
▁Rifles
▁crowded
▁Atlantis
▁Giovanni
▁Mathemat
▁honoured
▁filmmaker
▁preferring
▁experimented
▁implications
▁decompression
ajan
▁Germ
▁asym
▁Impro
▁assim
▁canals
▁copied
▁memoir
▁outlaw
▁revive
▁surplus
▁upwards
▁monastic
▁treaties
▁Havilland
▁neighbors
▁Hurricanes
▁coordinate
▁prohibition
but
imon
holic
▁Cott
▁Oval
▁mason
▁Schmid
▁Suzuki
▁Grammar
▁anybody
▁admiration
▁pedestrian
▁simplicity
▁Northumbria
▁electronics
▁exceptionally
otle
umbo
▁exh
▁Host
arious
▁Doyle
▁Vikings
▁clashed
▁proving
▁relying
▁symphony
▁reorganized
▁retaliation
roduced
▁McCorm
▁Harriet
▁Nichols
▁plagued
▁Linnaeus
▁depleted
▁hierarchy
▁Elementary
▁minorities
into
asses
▁Amin
▁dose
▁reck
itches
▁ammon
▁chiefs
▁penned
▁embrace
▁holders
▁Terminal
▁biblical
▁screenwriter
RB
▁Mob
▁Nun
▁Fiji
▁Odin
▁Zion
ppelin
▁adorn
▁urine
▁Shrews
▁Spartans
▁Veterans
▁assaults
▁juveniles
▁pseudonym
▁contrasted
▁ridiculous
▁universally
▁Historically
ondo
sham
▁Etty
▁stro
urtles
▁Kappa
▁demos
ounding
▁Buddha
▁verbal
▁evangel
▁voltage
▁Bachelor
▁Venetian
▁marrying
▁spherical
▁synthetic
▁contestant
▁indirectly
▁prevailing
▁IF
litz
umen
▁vag
annah
stick
utsch
▁Kess
▁Ware
▁Wehr
aceans
rances
▁Avery
▁inert
ifiable
▁unfair
▁Baroque
▁checked
▁oversee
▁Animated
▁Cochrane
▁interred
▁searches
▁detailing
▁telegraph
▁Shrewsbury
▁commitments
▁cooperative
▁Saskatchewan
▁Confederation
VN
azy
kie
▁Beg
▁MPs
▁dop
uming
▁bays
ermaid
▁Favor
▁Paulo
▁Ashton
▁Scharn
▁Rowling
▁carriages
▁favorably
▁institute
▁Sacramento
▁Operational
erne
gang
sted
tingu
▁Chev
▁gaps
▁noir
▁Blame
▁drinks
▁Garland
▁cottage
▁stripes
▁presided
▁emphasize
▁Williamson
▁privileges
▁soundtracks
akon
offs
onte
▁Pry
▁Sis
▁Zah
apest
▁Auck
▁Dunn
▁Goss
▁warn
achers
▁Cities
▁Jerome
▁Mercia
▁unsure
▁Britann
▁licence
▁Brownlee
▁Recorded
chaikovsky
▁Hitchcock
▁examining
▁staircase
▁Confederacy
▁substituted
▁characterization
ibi
iza
▁VC
icked
reted
▁pawn
▁Audio
▁Gamer
▁Rules
▁disgr
▁pupil
▁Haynes
▁Invinc
▁Mysore
▁coffin
▁hatred
ogenesis
▁theorem
▁parodies
▁proposes
▁Schneider
▁flattened
▁illustrate
▁equilibrium
▁exhibitions
lav
usan
ogene
▁Expo
hausen
▁Poole
▁crypt
▁Airbus
▁Parade
▁fleets
▁Internal
▁airplane
▁charming
▁flotilla
▁sanctuary
pez
▁Era
ellus
▁Benz
▁Odys
backer
▁weren
▁Azores
▁Nearly
▁builds
▁Sabbath
▁logical
▁offence
▁painful
▁councill
▁repulsed
▁substrate
▁addressing
▁successors
▁coordinator
▁Northwestern
ussy
eking
▁Milk
▁Timb
▁Cooke
▁EastE
▁Tiber
▁erect
▁Seward
▁racist
▁tricks
▁Carnegie
▁Informer
▁Interest
▁dynamics
▁openings
▁outlined
▁Inspector
▁transferring
zb
▁FS
olls
▁Alg
icals
▁Gert
▁Wulf
▁brid
▁Byrne
▁Weiss
▁blade
▁Chrono
▁cycles
▁rifles
▁Collier
▁Dresden
▁besides
▁illusion
▁attaining
▁consuming
▁regulated
▁EastEnders
▁Thanhouser
▁discretion
▁expressway
▁generators
▁wheelchair
▁transporting
▁electromagnetic
▁Ki
empo
▁CNN
grove
▁Bucc
▁Gale
▁weld
▁Occup
ificant
▁hangar
▁wagons
▁swallow
▁abruptly
▁depended
▁reminded
▁surpassing
▁interactive
rae
leys
olio
▁MLS
▁gri
▁Boom
▁Fram
luding
▁Gerry
▁ought
▁Angles
▁Hooper
▁barred
▁Sporting
▁airlines
▁enterprise
▁Transylvania
▁simultaneous
zko
roys
utory
▁Cosm
▁Dust
▁scra
▁Baden
▁Hawks
▁Levin
▁Loren
▁StarC
▁alloy
▁wield
▁Hansen
▁Purple
▁attach
▁embark
▁Spector
▁outfits
▁relaxed
▁shields
▁Election
▁extraction
▁incredibly
▁microphone
▁contestants
▁straightforward
OM
ulse
▁tam
ilocy
▁vass
▁afore
▁vivid
▁Calder
▁Ethiop
▁Robson
▁Raiders
▁Dominion
▁Marriage
▁rhythmic
▁Industries
▁extensions
▁Anniversary
▁Scharnhorst
▁contrasting
▁recruitment
▁Publications
top
▁Vig
anity
ounty
▁Role
▁Spok
▁disg
▁ethn
▁spun
▁Brend
▁indul
rogamer
▁García
▁cycling
▁deposit
▁gallons
▁dolphins
▁elephants
▁Liberation
▁Presidency
▁Statistics
▁synthesizer
EA
rone
▁bru
ctica
orpor
▁fres
▁hail
▁pigs
▁Mersey
▁feudal
▁handic
▁rhythms
▁Laurence
▁Standing
▁Eurogamer
▁Provincial
▁obligations
▁practically
AFTA
ulin
▁Fus
▁unm
elves
▁Milne
▁glory
▁probe
▁revis
▁sabot
iferous
▁Arcade
▁Conway
▁Kratos
▁midway
▁Smoking
▁satisfy
▁suffers
▁classics
▁elevator
▁enjoying
▁fashioned
▁railroads
▁fundraising
etus
wulf
▁Sto
▁Yas
▁clo
atton
▁Holt
▁Quad
▁euro
▁Huron
▁meals
▁sworn
▁Divine
▁Straits
▁immense
▁outward
▁topping
▁trumpet
▁generous
▁advocates
▁realizing
▁Navigation
▁antibodies
▁engineered
▁Philharmonic
▁translations
▁PT
hail
romb
zomys
▁OCLC
▁Yoko
▁scan
▁twins
▁Patrol
▁cavity
▁coasts
▁hanged
▁lavish
▁catcher
▁nostalg
▁sorties
▁synonym
▁cruising
▁explorer
▁overflow
▁stunning
▁convenient
▁descendant
▁patrolling
▁neighbourhood
headed
▁wrist
▁Maiden
▁capped
▁Antioch
▁Mongols
▁invalid
▁Auckland
▁Rainfall
▁alphabet
▁destroys
▁licensing
▁reservations
ajo
▁BB
▁DA
ossa
▁Meh
▁caf
areth
ineas
▁Kerr
▁Shot
▁USSR
hetics
perors
▁vigil
iseries
children
▁compare
▁crafted
▁extingu
▁Reservoir
▁adjoining
▁countered
▁happiness
▁marijuana
▁realigned
▁franchises
▁millennium
▁functioning
agar
gain
▁gly
▁hed
▁hen
▁hob
▁Gaud
▁Gong
▁Oric
▁Tick
▁Weap
▁chef
▁Apost
▁Lotus
▁Piper
▁recyc
itimate
▁Gerard
▁Google
▁Henson
▁Midland
▁blowing
▁Advisory
▁mourning
▁prevents
▁revolves
▁worsened
▁Austrians
▁Whitehead
▁deception
▁diversion
HP
umo
▁Ci
▁Wi
card
▁Nit
anish
thard
▁Root
▁adhe
shaven
▁Dante
▁Index
▁venom
▁Rescue
▁Jenkins
▁Mystery
▁Pioneer
▁Cheshire
▁Diamonds
▁Sheridan
▁Nicholson
▁Officials
▁scenarios
▁monasteries
▁Jacksonville
▁Scandinavian
▁Het
ogram
retto
▁noct
▁outc
psilon
▁hilar
▁Jacobs
▁Norris
▁canopy
▁metaph
▁prizes
▁sleeve
▁solved
▁Macbeth
▁Darkness
▁willingness
▁specifications
ON
erff
inka
▁Wan
about
▁Anto
▁Emil
▁Gian
▁Hors
▁Mini
▁Nicol
▁Piano
▁faint
▁remod
ultural
writing
▁Theory
▁abduct
▁dealer
▁Develop
▁Evangel
▁anatomy
▁geology
▁fraction
▁Recordings
▁compulsory
▁sentiments
▁earthquakes
▁Ya
▁hp
azar
▁NSB
▁Won
▁cris
▁jaws
▁Hazel
▁Balzac
▁conson
▁simpler
▁Gallagher
▁Hyderabad
▁actresses
▁landslides
▁overturned
▁inaugurated
inia
▁Neal
▁bests
▁Autumn
▁Camden
▁Credit
▁Hurley
▁Slavic
▁disemb
▁insane
▁makers
▁Celtics
▁annexed
amination
▁painters
▁sponsors
▁breakfast
▁reassigned
▁provisional
▁inappropriate
▁Ti
zier
▁Bac
▁Ner
▁Urs
macht
opers
▁mint
isible
▁Byrds
▁packs
▁portal
▁Evidence
▁forested
▁ornament
▁predation
▁optimistic
▁conclusions
▁Kry
▁Saga
▁surg
emouth
enders
culosis
itorium
▁halluc
▁subgen
▁Spokane
▁crewmen
▁shuttle
▁Crescent
▁notified
▁socially
geschwader
▁confluence
▁fraternity
▁recognizes
▁forthcoming
▁conversations
eno
oros
önen
▁Nay
▁Tub
rowth
▁Clap
▁Khal
▁Krie
▁Pony
▁Sard
▁Sejm
▁acet
▁spat
ifully
▁Blade
▁Robot
▁Toyota
▁Trench
▁glider
▁stupid
▁Castell
▁Version
▁Partisan
▁Superior
▁delivers
▁immunity
▁alcoholic
▁Ub
▁ga
▁Cod
▁Hak
▁Ski
▁ree
hound
▁Bash
▁Bund
▁Gwyn
illard
▁cohes
▁Bullet
▁Import
▁absorb
▁offset
▁unlock
▁Mansion
▁Schwarz
▁filters
▁Frontier
▁Wehrmacht
▁distorted
▁recognise
▁elaborated
esa
zhn
▁CT
▁ego
▁pulp
▁sake
▁tern
ikkönen
▁Royals
▁Suther
▁tactic
▁prequel
▁cardinal
▁delicate
▁impedance
▁fortification
▁practitioners
fin
▁bug
ingle
ropod
▁Bonn
▁Dodd
lysses
umping
▁Kesha
▁docks
▁sandy
▁souls
▁Eleven
▁Ulysses
▁slipped
urrection
▁journals
▁pavilion
▁polished
▁influenza
▁resurrect
▁synagogue
▁confession
▁disruption
▁semifinals
▁installations
HD
cu
▁Lj
▁MB
▁Tyr
▁Fing
▁Heis
▁Myth
▁Rapt
▁rift
ectors
▁Inver
▁skysc
▁Dunder
▁marker
▁baseman
▁chaired
▁Millwall
▁infinite
▁mistress
▁smallpox
▁Ukrainian
▁cognitive
▁freighter
▁processed
▁susceptible
▁highlighting
Der
lli
▁Eck
▁GDP
▁wax
▁Doom
▁brack
▁fiber
▁teleg
urgical
▁Shelby
▁Reports
▁mandate
▁patrons
▁pottery
▁prefers
▁Nicaragua
▁threatens
▁sensitivity
▁demonstrates
EP
eod
nsic
▁Uem
▁Yak
▁dur
hello
isors
uliar
▁MDOT
tering
▁Habit
▁chick
▁Escape
▁Laurie
▁Nights
▁Stefan
▁divert
▁Hawkins
▁infants
▁surreal
▁Holloway
▁occupies
▁altitudes
▁skeptical
▁Dictionary
▁osc
▁Nice
▁evid
▁helm
intage
▁borne
▁scler
▁Alpine
▁Monkey
▁Sister
▁edible
▁slogan
▁stairs
▁superm
▁yearly
▁Barkley
▁Cornish
▁severed
▁taxation
▁simplified
▁Tchaikovsky
DerW
eled
▁Euc
inker
▁Into
▁Miff
▁wagon
▁lifesp
▁martin
▁nuclei
▁Cruiser
▁Uematsu
▁militar
▁pirates
▁reprise
▁Mangalore
▁geography
▁Previously
▁acknowledge
▁Wilhelmshaven
▁Chu
▁Cris
▁Grav
▁Rule
▁cher
▁glad
▁Herod
▁bored
▁tones
▁Acting
▁Elliot
▁ninety
▁restra
▁slated
▁raiders
▁steamed
▁tenants
▁widening
▁immigrant
▁undivided
▁reinstated
▁inauguration
ESCO
▁Fut
▁Lys
▁Caled
▁Lille
▁Cyprus
▁erotic
▁influx
▁please
▁VanDerW
▁applies
▁fertile
▁Penguins
▁Zeppelin
▁Marketing
▁Radiohead
▁hostility
▁packaging
▁underside
▁entreprene
▁millimetre
▁violations
▁negotiating
▁principally
▁Czechoslovakia
bys
neg
enery
geons
▁Tram
▁Kuala
▁Rifle
▁Rouge
▁Shell
▁masts
▁thank
▁booked
▁eroded
▁subway
▁Contest
▁chooses
▁premium
▁Manufact
▁sunlight
▁stylistic
Ms
guy
▁Mec
▁Amor
▁Hare
▁unac
opotam
roleum
▁Coral
▁Lemon
▁Pasha
▁Scapa
▁Wheat
▁lungs
▁vapor
▁Unable
▁motors
▁scarce
▁swords
▁Spaniel
▁reissue
▁Pleasant
▁Torchwood
▁backstage
▁torpedoed
▁dismantled
▁distribute
▁Yellowstone
▁respiratory
▁demonstrating
aned
▁Iro
▁fug
rades
steen
▁Nile
▁Shet
▁Them
▁arid
▁peac
▁tatt
holder
▁Ricky
▁Russo
▁bride
▁tails
▁Amanda
▁Excell
▁Marvin
▁Robbie
▁shower
▁Hammers
▁monkeys
▁motives
▁touches
▁Archives
▁inadvert
▁disguised
▁employers
▁guerrilla
▁disability
▁penetrated
▁VanDerWerff
▁aristocracy
▁endorsement
▁investigators
his
ogo
unks
▁Jub
▁Moe
forth
ptions
▁Carlo
▁drafts
▁Wallach
▁crashes
▁empower
▁paleont
▁wherein
▁reprised
▁unsigned
▁Sovereign
▁gentleman
▁intending
▁reproduce
▁symbolism
öl
▁BW
arya
chan
▁Bug
▁Gue
▁Rhe
▁Ruf
zhnev
▁Levi
▁Qing
▁brew
▁Nadal
▁Title
▁feast
▁silly
▁shafts
▁Nicolas
▁stealth
▁Hercules
▁affirmed
▁deserved
▁dialects
▁symmetry
▁Episcopal
▁Gateshead
▁prevailed
▁selective
▁Sutherland
owl
cely
pace
▁Ath
▁Neo
▁mun
enium
▁Eust
▁stal
author
▁Scale
▁Valve
▁Bomber
▁Frankf
▁Nobody
▁enjoys
▁pirate
▁seldom
▁wisdom
▁Michele
▁invites
▁upright
ventional
▁Coulthard
▁Resources
▁Volunteer
▁accolades
▁proceeding
▁prototypes
▁segregation
▁disorganized
fu
avo
adia
gart
▁Hos
▁Kne
▁Orb
▁umb
assis
▁Wire
▁plac
▁Ahmed
▁chant
▁fused
▁module
activity
leutnant
▁Baghdad
▁abdomen
▁densely
▁salvage
▁Ministers
▁confusing
▁extracted
▁stretches
▁truncated
▁nationalism
▁synthesizers
▁GB
nick
ools
▁Fuj
▁Pab
▁ace
▁vom
▁Blow
▁Shut
▁moll
ancies
risons
▁Flora
▁futur
▁Falcon
▁Purana
▁UNESCO
▁Yankee
missions
▁Corinth
▁Upanish
mentioned
▁Downtown
▁Marseille
▁communism
▁neutrality
▁selections
oors
▁AAA
▁Kai
▁Drug
▁Roch
▁Dalmat
▁canvas
▁Alberto
▁Vampire
▁Vatican
▁extrater
▁ratified
▁Programme
▁numerical
▁transcend
▁conceptual
PR
alm
sha
▁GA
▁Abs
▁Twe
▁Pasc
▁Sava
▁Shap
▁Soap
▁aide
▁pent
▁warb
achlan
▁Barth
▁Merit
▁Ramsay
▁bailey
▁casino
▁detach
▁superf
▁Whether
▁ethical
▁kicking
▁trusted
▁homeland
▁reverted
▁synchron
▁neighbours
▁undertaking
▁withdrawing
▁fi
▁Save
▁pinn
Malley
ubbing
▁Below
▁Reign
▁tolls
▁trams
▁Jakarta
▁robbery
▁Material
▁survivor
▁takeover
▁chronicle
▁landscapes
▁Territorial
▁humanitarian
rops
▁Coc
▁lia
▁nem
▁sar
pense
▁Luck
▁Mesa
▁rans
▁Woody
lighten
▁Isabel
▁Movies
▁facade
▁Nirvana
▁Rosberg
▁flanked
▁infring
▁Steelers
▁accusing
▁toxicity
▁interceptions
guez
mind
ogist
▁Capt
▁tempt
▁Bungie
▁Khalid
▁Willow
▁relies
▁Katrina
▁StarCraft
▁Sylvester
▁inventory
▁hemisphere
▁republican
▁researcher
▁incarnation
ilo
▁Bio
▁UBS
▁Lara
▁Leth
▁Mate
▁Bulld
▁Fruit
▁Thess
▁niece
▁Havana
▁clashes
▁propose
▁timeslot
▁Antarctica
▁inexperienced
▁WA
iola
itti
rens
▁Gos
▁Farn
▁Harm
▁Hick
▁Pawn
▁lobb
▁obit
▁pand
▁Favre
▁Spock
▁cadet
▁shame
idelity
▁Dalton
▁disple
▁oscill
▁Kitchen
▁merging
▁shutout
▁declares
▁pleasant
▁shoreline
▁yellowish
▁suppression
ruz
▁Mey
▁Tik
▁bee
▁thy
▁BAFTA
▁Rodrí
▁crush
inement
▁canyon
▁deluxe
▁plague
▁Antoine
▁solving
▁Spitfire
▁donation
▁incoming
▁peculiar
▁annexation
▁compartments
▁Certifications
cker
▁Noah
▁tast
racing
▁Boyle
▁Clair
▁curse
▁stipe
▁strat
ulators
▁Cannon
▁Consid
▁upward
▁Melissa
▁Winners
▁calibre
▁elegant
▁primates
▁Rodríguez
▁aluminium
▁relocation
▁concessions
▁choreographed
arse
kiss
▁CGI
▁lamp
▁Tulsa
▁aston
▁blunt
▁Bakshi
▁Border
▁Keller
▁Lisbon
▁Müller
▁Beverly
▁Fortune
▁Eastwood
▁holdings
▁pitchers
▁inspiring
▁quadruple
▁favourites
▁journalism
▁linguistic
▁initiatives
▁supervising
leep
ylus
▁Ips
▁TAR
▁Peel
▁Tirp
▁cane
▁burns
▁Hirosh
▁Manson
▁Virgil
cipation
▁Buccane
▁Plateau
▁Patriots
▁asteroid
▁misunder
▁respects
▁Historians
anta
olini
ramer
umper
▁Burt
▁Visc
anking
▁remar
▁Rhythm
▁Severn
▁foster
▁hearts
▁indict
▁Tirpitz
▁chancel
▁equator
▁Armament
▁destined
▁entities
▁interval
▁reissued
▁reliance
▁Rodrigues
▁Exhibition
▁physicians
▁authenticity
▁comparatively
▁Sora
▁Influ
▁Terra
▁clich
▁Abbott
▁Hamlin
▁quotes
▁strang
rovision
▁drained
▁rockets
▁brownish
▁nutrients
▁landowners
▁summarized
▁eligibility
▁Thanksgiving
ska
▁IL
hole
▁gem
agree
▁cutsc
▁figur
▁gloss
▁Darius
▁Harlem
▁Willam
▁comply
▁sparse
▁wolves
iterated
▁Balkans
▁Bridges
▁Unknown
▁Lutheran
▁recounted
▁conspicuous
▁Lincolnshire
ID
br
gt
yx
heus
uria
orian
▁Cody
▁Disp
▁beak
▁damp
▁Ellie
▁seism
▁warns
▁Chance
▁astrol
▁bricks
▁graded
occupied
▁Legends
▁Nigeria
▁bypassed
▁foremost
▁Timbaland
▁emigrated
▁amendments
▁conferences
▁Expeditionary
uen
▁Rw
▁VT
icol
▁Fro
viate
▁Dong
▁Nguy
▁enam
▁peat
lation
▁Combs
▁Keats
▁Timor
▁actin
▁Rafael
▁quarry
▁tyrann
▁fulfilled
▁monitored
▁protector
▁withstand
▁Eh
moil
▁limb
▁Paula
▁Horace
▁Sawyer
▁clover
▁enlist
▁errone
▁buttons
▁textile
orporated
▁Maritime
▁invading
▁celestial
▁customary
▁Aboriginal
▁sacrifices
▁transverse
▁genetically
zky
▁Gé
▁Faw
▁twe
▁Frem
ospace
▁Sleep
▁advers
▁Augusta
▁coincide
▁epidemic
▁feminine
▁academics
▁acquitted
▁localized
▁stereotyp
ucus
▁Olaf
▁buoy
▁puff
linary
▁Hobbs
▁Nomura
▁Sophie
▁dental
▁dramat
stitutes
▁Cheroke
▁Traffic
▁Massacre
▁Stargate
▁bathroom
▁workshop
▁nightclub
▁committing
▁accordingly
alam
▁MIT
acies
▁Mask
▁Stad
▁orth
ithers
ouring
ysical
▁Notes
▁arrow
▁defic
▁Barlow
▁Tyrann
▁busiest
heasterly
▁archives
▁apartments
▁conflicting
▁synthesized
▁illegitimate
éd
abl
▁Him
▁Kou
opods
print
▁Haas
▁Keen
▁arcs
▁whis
brough
screen
▁Speer
▁serge
▁Malaya
▁tightly
▁whitish
▁Fighters
▁holidays
▁readings
▁Philosophy
law
ften
oder
▁Ida
▁Kro
▁Cain
▁Reef
▁heal
▁obey
▁rage
▁Leone
▁Browne
▁Flyers
▁Roland
▁Sigism
▁Ulster
▁incomp
▁radial
▁disagree
▁imagined
▁portable
▁Icelandic
▁evaluated
▁predictable
▁unconstitution
azi
aduct
odeon
▁Hulk
▁Lund
▁Sims
▁Stur
▁lens
▁mosa
umbers
▁Satan
▁alpine
▁impose
▁occult
▁Dramatic
▁Lockheed
▁Schwartz
▁disguise
▁tortured
▁Dangerous
▁objection
airy
etsu
▁Hut
▁Lot
▁Mugh
▁Raja
▁plaint
▁spines
▁Burnham
▁Mifflin
▁Virtual
▁Christie
▁Paraguay
▁charters
▁offerings
▁selecting
▁assassinated
eche
fton
orio
▁Kaf
▁Ode
▁Zap
▁Dyer
▁Pius
▁Wies
▁pear
ribing
▁Lucky
▁Phyll
▁gland
▁mound
▁Billie
▁Luxemb
▁Sanche
▁Scrant
▁Wiggins
▁inmates
▁paratro
▁renewal
▁Appalach
▁Elements
▁punished
▁clarified
▁retailers
▁incorporation
CAR
bet
▁PM
ndez
tter
zman
▁Ves
ogens
▁mold
iative
▁beams
▁vener
▁Alison
▁Belize
▁Priory
▁Chilean
▁Sanchez
▁unfavor
▁Brezhnev
▁firearms
▁forwards
▁distributor
▁tuberculosis
▁GT
▁Irv
▁Herr
▁ruth
▁Helms
▁Ranch
▁downs
▁rides
▁Santos
▁breakup
▁hardest
▁cellular
▁obstruct
▁timeline
▁Greenwich
▁enclosure
▁SL
houn
ixed
▁Byp
▁Ike
▁myc
▁Amar
▁Boss
▁Flat
▁Frey
▁Jagd
▁Kare
▁Were
▁Bloody
▁Lights
▁Morales
▁condemn
▁pairing
▁quarterf
▁milestone
▁undergone
▁formidable
▁Nickelodeon
▁SO
▁Dul
▁Tao
races
▁Masc
▁Clara
▁Kling
▁hated
▁intersp
▁mechanic
▁scrutiny
▁galleries
▁Instrument
▁appreciate
rö
alla
roup
▁PSP
▁vine
ivores
▁Connor
▁Temper
▁Brendan
▁Budapest
▁Officers
▁Scranton
▁migrated
▁privilege
bernatorial
▁hereditary
▁promotions
▁experimentation
▁Intercontinental
isi
wic
islav
▁Sieg
▁caud
▁forc
▁Atlas
▁Bourn
▁ceded
▁trait
▁Compar
▁circus
▁faults
▁impair
▁Monitor
▁defines
▁Invasion
▁Tomorrow
▁Whatever
▁inactive
▁discrimin
▁partition
▁repeating
▁receptions
▁incorrectly
cad
cham
▁Mog
▁Lump
▁Slow
▁funn
▁Irwin
akening
▁Bavaria
▁Perkins
▁dislike
▁eternal
▁Smithson
▁Destroyer
▁emphasised
▁enrollment
▁morphological
▁Ges
▁Samus
▁Sands
▁snout
▁traps
clusive
▁Keating
▁monopoly
▁regulars
▁responds
▁equations
▁Briarcliff
ecd
jina
▁Hoy
aines
eming
▁Cary
▁Guns
▁apoc
▁Lives
tefacts
▁Judith
▁curving
▁Hamasaki
▁lacrosse
▁captaincy
▁disturbing
▁consecrated
▁unidentified
▁progressively
uga
▁Blo
▁Eli
▁XIV
▁nud
acula
▁Suez
▁Allah
▁Cindy
▁Flint
▁capit
▁wards
▁Kosovo
▁Commando
▁friction
▁initiate
▁justices
▁pamphlet
▁populace
▁Currently
▁Fantastic
▁ourselves
▁Gettysburg
▁Opposition
eni
▁Iv
egro
inny
▁Haj
▁ACLU
▁Devi
▁Koch
▁Omar
▁bent
▁hors
ailles
brides
illary
▁Anzac
▁Breed
▁Eaton
▁pants
▁porch
▁Select
▁denial
daughter
▁Barbados
▁betrayed
▁finalist
▁gradient
▁ventures
▁Greenwood
▁Hiroshima
▁confessed
▁terrorism
omenclature
▁confirming
▁federation
▁foreigners
▁recipients
▁predictions
▁contaminated
hra
ilyn
rama
▁Joa
▁Wik
grims
icism
▁Mard
▁void
raphic
rehend
▁Agnes
▁Blitz
▁Giles
▁Ninja
▁Uttar
▁straw
▁Monaco
▁Terrace
▁amassed
▁onstage
▁Guinness
▁Investig
▁attested
▁Exposition
▁Montenegro
▁northwards
▁calculations
▁RT
▁Hyp
comes
▁Dioc
▁Piet
▁taxa
opardy
▁bunch
▁digging
▁Hebrides
▁judgement
▁taxonomic
▁Willamette
▁abandoning
▁distracted
▁irrigation
▁signatures
▁ideological
hab
vic
▁Ló
▁Anj
▁Elm
▁Lah
asers
ofsky
▁Bois
▁Dies
▁bulb
▁Twins
▁brush
▁outsp
▁Kraków
▁Oilers
▁Uranus
▁Romance
▁Witness
▁turmoil
▁Everybody
▁workshops
▁defenceman
▁mistakenly
▁wilderness
▁originating
nis
herty
▁Dipl
▁Iber
▁Madh
▁Usta
▁Vand
▁plea
infeld
▁Enemy
▁Gavin
▁Guang
enaries
▁Kerala
ultimate
▁Sellers
▁costing
▁feather
▁updates
▁utterly
▁Paterson
▁Thriller
▁ambushed
▁extravag
▁muscular
▁chocolate
▁saxophone
▁convective
▁Agricultural
ews
mega
opper
ummer
▁Indo
▁Kras
▁Milo
▁logs
ateful
▁Himal
▁Sioux
▁Split
▁Rodney
▁harmon
▁phones
▁pitted
▁earnest
▁harmful
▁diplomat
▁Egyptians
▁histories
▁Kensington
▁infectious
▁satellites
▁discouraged
▁magnificent
▁proclamation
▁Archaeological
▁reconciliation
cke
aning
ueger
▁Cash
▁Funk
▁Greco
▁Wills
▁Juvent
▁Mercer
▁Nablus
▁neglig
▁Android
▁Playboy
▁dignity
▁resided
▁secrets
▁Stirling
▁advocacy
▁optional
▁weaponry
▁cartridge
▁exclusion
▁graphical
▁pioneered
▁Eurovision
▁likelihood
▁sustainable
▁invertebrates
▁tox
illan
izoph
▁Wave
▁chip
▁corv
gement
▁dynam
▁hears
▁resup
▁turbo
▁Casual
▁Whilst
▁Yorker
▁lethal
▁Walking
▁alerted
▁dangers
▁grazing
▁Leonardo
▁Monmouth
▁activism
▁contests
▁applauded
▁evidenced
▁Activision
▁prediction
▁rebellious
▁broadcaster
alu
fman
▁nod
nesty
river
▁Pull
▁bags
▁lamb
▁Becky
▁Porto
▁Royce
▁ashes
▁Cannes
▁Events
▁Saxons
▁asleep
▁podium
▁Ecology
▁Ipswich
▁boycott
▁spelled
▁Midlands
▁dictator
▁farewell
▁fielding
▁scuttled
▁sweeping
▁bacterial
▁insurgents
▁developmental
▁representations
ttes
atine
elton
▁Hogg
▁mice
estead
iocene
▁Homic
▁Johor
▁Sarat
▁Sched
▁angel
amiliar
▁Satell
▁Telesc
▁fronts
▁raises
▁Citizen
▁chaotic
▁rejects
▁Fountain
▁critique
▁deprived
▁lifespan
▁restruct
▁Fairbanks
▁algorithm
▁ambulance
▁accidental
▁practicing
▁renumbered
▁storyboard
▁encouragement
eker
gard
nitz
uder
▁bod
ropic
▁Pere
▁Sime
▁Wain
▁grip
aguchi
▁Knock
▁Rolls
▁laure
rifying
▁Abrams
▁Carbon
▁Dancing
▁lifting
▁summers
▁Sterling
▁backstory
▁partnered
▁sensation
▁satisfaction
▁Asc
arette
▁Forum
anguard
▁Connie
▁scouts
fighters
izophren
▁Mikhail
▁Rollins
▁chiefly
▁eyewall
▁lithium
▁scenery
ographics
▁Monaster
▁vigorous
▁diffusion
▁courthouse
▁flashbacks
▁futuristic
▁fashionable
▁biographical
▁Gloucestershire
ppo
aean
▁Ars
inkel
▁Béla
▁HMAS
▁Pure
ignant
▁Grass
▁Kirby
▁brake
▁guess
▁nasal
▁Arkham
▁Except
▁blades
▁lesson
▁splend
▁Trouble
▁imaging
▁Drummond
▁Hertford
▁Homicide
▁incurred
▁forecasts
▁intervened
▁Progressive
▁archaeology
▁phylogenetic
game
rard
amore
▁Hens
▁Sens
▁akin
▁rust
ifolia
▁Burma
▁berth
▁Becket
▁Larkin
▁Severe
▁dispro
▁stocks
▁winged
▁Flemish
▁vaccine
▁Extension
▁Strategic
▁finalists
▁proposing
▁medication
▁Livingstone
▁philanthrop
▁considerations
nh
iaz
eneg
▁Obl
dings
encia
▁Bhar
▁Borg
▁curs
▁rhin
▁soup
▁surm
anthan
▁brave
▁Hubble
▁McCool
▁Orient
▁Velvet
▁cosmic
▁Carlton
▁Guevara
▁Laurent
▁Compared
▁denoting
▁manpower
▁sandwich
▁inundated
▁ironclads
▁contractor
▁researched
▁installments
▁aforementioned
▁cinematographer
▁GP
arky
ilee
isto
izza
▁DeL
▁Dir
▁Ech
▁Shi
▁Thai
▁Stras
▁ranch
▁scram
▁Editor
▁eagles
▁martyr
▁receip
▁Natalie
▁enables
▁downward
▁drowning
▁headline
▁connector
Hz
gans
▁Lea
▁Wet
ariat
cerpt
▁Cove
▁Garn
▁este
oulder
▁López
istance
umbling
▁Clause
▁sticks
▁arrests
▁uninter
▁dividing
▁Arlington
▁lucrative
▁purported
▁scoreless
▁elevations
▁penultimate
▁prehistoric
▁explanations
angs
▁Jas
▁Orr
▁gir
aghan
iards
▁Assy
▁hesit
▁traum
▁spinal
▁Fairfax
▁GameSpy
▁Santana
▁pumping
▁Monsters
▁murderer
▁Crusaders
▁headlining
▁participant
▁Constitutional
US
cia
▁TA
bits
ocus
▁Jal
ewski
▁Drop
▁Gros
▁Ramb
▁Vide
▁Vita
izzard
▁Jonas
▁Semin
▁batch
▁kicks
▁stain
▁vague
▁Cobain
▁Labrad
▁clinic
▁Dunstan
▁Jardine
▁Midwest
▁Trenton
▁citadel
▁gunners
▁sampled
▁Domestic
▁fluoride
▁freezing
▁imperson
▁Archibald
▁Neolithic
▁expertise
▁dissatisfied
▁perpendicular
apo
obia
▁Nur
▁Qur
▁Wyn
▁Doct
▁Faul
▁Maid
▁Shim
▁Chloe
▁Fanny
▁Iroqu
▁Rogue
▁Sting
▁loops
keeping
▁Anglia
▁Aurora
▁Carell
▁Göring
▁Portra
▁Settle
▁domains
▁melanch
mentation
▁Cherokee
▁Creative
▁Inspired
▁guarding
▁improper
▁regulate
▁Christgau
▁responding
▁gubernatorial
uve
amon
enas
izon
osem
▁cyn
▁lun
frame
▁Punj
▁lets
▁Chain
▁Penny
▁Pérez
▁Salon
▁pumps
▁rolls
▁Points
▁arrows
▁autism
▁Attempt
▁Strauss
▁Favorite
▁Thatcher
▁analogous
▁theological
▁inadvertently
▁cinematography
▁unconstitutional
DIS
sohn
ucle
unga
▁Asp
▁Cag
▁Kul
▁Draw
▁Herb
▁Isis
▁Pens
chwitz
hammer
▁Actors
▁Elaine
▁Hoover
▁Landis
▁Martín
▁NASCAR
▁brands
▁checks
▁crying
▁genome
▁intake
▁Extreme
▁recipes
▁Rockwell
▁debuting
▁journeys
▁contrasts
▁beginnings
▁stereotypes
▁overshadowed
las
umm
▁KC
ianc
odic
opsy
▁Gol
▁Nes
▁POW
▁Rij
▁pile
▁Chili
▁Scher
▁Titus
▁lucky
▁masks
▁wires
▁Banner
▁ignore
▁queens
▁stamps
▁lobbied
▁Fielding
▁implying
▁thematic
▁revisions
▁reasonably
▁overlapping
▁DM
iale
sein
vier
▁thw
inald
ocide
▁Boer
▁Fest
▁Mist
oncile
▁Clive
▁Fermi
▁Saraj
▁catap
▁riffs
▁Inters
▁Sutton
▁refres
▁Cancell
▁Emerald
▁Younger
▁beloved
▁nursery
▁privacy
▁cautious
▁counting
▁libretto
▁Avalanche
▁anarchist
▁apparatus
▁reconcile
▁beautifully
comm
shop
ukes
▁Jod
▁Map
▁Shu
atore
▁Epic
▁Theft
▁hooks
▁loads
▁pools
▁Jaguar
▁Royale
▁Toledo
▁Zimmer
▁replen
▁intoxic
▁Saratoga
▁knocking
▁delighted
▁harmonies
▁supernova
eco
hog
▁HC
▁NR
▁TC
dock
▁Sob
aford
ogues
▁Gadd
▁Ibra
▁slab
optera
▁Daley
▁Wanna
▁belts
▁Libert
▁relics
▁unused
▁Oriental
▁handheld
▁trailers
▁Sigismund
▁hydraulic
▁invisible
▁capitalism
▁pioneering
▁unfamiliar
▁predominant
▁philosophers
itas
moor
▁Pig
ollah
othed
▁Mons
▁Ragn
▁foli
▁tech
▁Entry
▁humid
▁wells
renched
▁Towers
▁evolve
▁booklet
▁chorale
▁horizon
▁nowhere
▁peasant
▁titular
▁Marathon
▁McGovern
▁infamous
▁precious
▁Priestley
▁Commanding
▁prosecutor
ako
emi
▁AJ
▁Lox
▁Glam
▁Nate
▁grit
▁Newsp
▁Ships
▁atroc
▁brood
▁Sandra
▁imagin
▁reused
▁Coaches
▁Leading
▁royalty
iscovered
▁Stephanie
▁amusement
▁fisheries
▁supplying
▁SD
agus
aldi
odus
onet
▁Cun
▁Kag
▁Siv
▁Swe
▁gag
▁bits
closed
▁Elias
▁König
▁Owens
▁arrog
▁troph
▁Hubert
▁McGill
▁affirm
▁ported
▁Tourism
▁turtles
▁grenades
▁obsessed
▁partisan
▁reptiles
▁conferred
▁travelers
bh
iso
fest
oust
group
ugging
▁Edith
▁Shepp
▁Trump
▁piers
▁Croats
▁refuel
▁relent
lishment
▁Odyssey
▁Reginald
▁aluminum
▁Armenians
▁barbettes
▁statutory
▁Smallville
▁assistants
▁preserving
▁certifications
▁Ov
▁Bom
▁Jov
▁Maw
▁MiG
▁aro
affen
ribes
space
▁Hots
▁Katy
▁Tide
▁Tipp
▁Wigg
▁bron
▁detr
abetes
▁Flair
▁Imper
▁Often
▁Wendy
▁raced
iership
▁Hobart
▁recons
▁reggae
▁rooted
▁amalgam
▁Royalist
▁declines
▁deputies
▁impaired
▁wetlands
▁Versailles
▁pilgrimage
▁sanctioned
▁restriction
▁mythological
▁archaeologists
▁dé
▁pH
bore
kamp
▁dip
oderm
▁Gunn
urring
▁Buddy
▁garde
▁intro
▁sacks
▁litter
itudinal
▁fathers
▁commuter
▁Different
▁encourages
▁legitimacy
▁uncredited
▁expectation
▁facilitated
tex
▁ze
▁Lal
▁VRS
ooner
umont
▁Chat
▁Doub
▁upro
islaus
market
onduct
▁domes
▁footh
▁mourn
leading
▁expose
▁uncont
▁Desmond
▁analogy
▁conceal
▁tablets
▁vitamin
▁Kerrigan
▁analysts
▁midfield
▁artefacts
▁genuinely
▁socialism
▁streaming
▁meditation
▁degenerated
▁commemorating
cus
aski
onel
▁SPA
▁viv
▁Alma
▁Dash
▁Nico
▁cake
▁seaf
▁toug
▁unex
intosh
▁Faust
▁Novak
▁Yorke
▁antis
▁fianc
▁hards
▁Antiqu
▁Dundee
▁Ripley
▁condom
▁ostens
▁Lombard
▁Turning
▁anxious
▁permits
▁Browning
▁Goldberg
▁Yorktown
▁reciproc
▁hilarious
lightenment
▁ecosystems
▁paranormal
▁Bournemouth
▁songwriters
▁Lichtenstein
▁disagreements
ün
ryl
▁ZX
oped
iocre
pless
▁Deer
▁Whip
▁faded
▁flora
▁gamma
▁unimp
▁Doming
▁Donkey
▁Pleist
▁eclips
▁newcom
illusion
▁prayers
▁Wolfgang
▁captures
▁orthodox
▁surgical
▁gatehouse
▁operative
▁routinely
▁unsuitable
▁GS
idus
▁Emm
utant
▁Candy
▁Falun
▁Maver
▁avant
▁hides
ascular
▁Confuc
▁Effect
▁Medina
▁Padres
▁Ramsey
▁Recogn
▁Theoph
▁intest
▁Marilyn
▁succumb
▁Highways
▁Underwood
▁Macedonian
▁collegiate
▁interspersed
▁unconventional
beg
coe
ciss
opic
▁Dil
▁Pup
▁Tec
▁gel
▁nec
emate
rably
▁Plus
▁jets
▁shit
inwall
▁Manch
▁Roses
▁Samoa
▁myths
▁worry
taining
▁Baxter
▁lonely
▁sortie
▁wholes
▁Lansing
▁Danielle
▁Tactical
▁Triangle
▁molecule
▁Generally
▁Patriarch
▁Sepinwall
▁chancellor
▁periodically
mus
arra
nets
▁AHL
▁Alv
▁ink
combe
▁Björ
▁Neum
▁Witt
▁epile
breaker
▁Susque
▁comets
▁teaser
▁urgent
▁daytime
▁denying
▁paradox
▁animations
▁Scarborough
iba
ogl
vich
▁RAN
▁Sof
▁fir
odian
▁Alps
▁Bisc
▁Hadd
▁Push
▁glut
▁lips
▁lure
▁Chaos
▁Clash
▁scept
▁spared
▁definite
▁imposing
▁weekends
▁strengths
emis
▁BWV
▁Aden
▁Lamp
ologic
▁Flags
▁Vogue
▁staple
▁Valuable
▁conveyed
▁exploits
▁Auschwitz
▁Mesopotam
▁chronicler
▁necessitated
▁vulnerability
auld
enko
ibus
▁bald
▁oste
▁Hours
▁energ
▁semic
▁Carmen
▁Mahler
▁grasses
▁hearted
▁pillars
▁Friedman
▁Thornton
▁exposing
▁neutrons
▁scouting
▁sociology
▁relativity
gre
atio
▁IMA
▁Sach
▁Yeah
abouts
imation
ratives
▁Scenic
▁abnorm
▁dramas
▁Chennai
▁Crusade
▁Wilfrid
▁Speedway
▁affinity
▁admitting
▁chartered
▁Coronation
▁Luxembourg
▁publicized
▁classifications
zyn
▁SW
▁Za
▁cos
ighty
illus
▁Bahá
▁Llan
▁Sval
▁tire
▁Bella
▁capac
▁unite
▁Termin
▁Whereas
▁desires
▁Shetland
▁fixtures
▁Gentlemen
▁Transform
▁secession
▁deposition
oko
ruk
▁Lup
croft
vable
▁Tier
ologne
▁Anast
▁Golds
▁Ninth
▁pector
▁weighs
▁Ibrahim
▁Results
▁inspire
▁Sarajevo
▁mastered
▁supersed
▁desirable
▁mutations
▁remarkably
▁Pleistocene
▁Smithsonian
▁renovations
alc
eri
kap
uire
▁Abe
▁Help
▁Pied
▁Pool
▁bony
▁misf
▁sack
▁Parts
▁clues
▁forfe
▁redsh
▁spars
▁Jenner
▁Seneca
▁bunker
▁outlet
▁Riverside
▁liberties
▁domination
▁presidents
▁compartment
fig
airn
ermo
▁Sgt
▁Sho
▁Tej
▁Wic
asium
uffle
▁Dard
▁Lact
▁Spar
▁lust
buster
▁doses
▁valve
▁Irvine
▁potent
▁regent
▁Farrell
▁Martine
▁Roberto
▁Whitman
▁combust
▁glacier
▁stature
▁wishing
▁forehead
▁mutation
▁seizures
▁Athenians
▁Byzantium
▁competent
▁cylinders
▁recession
▁dependence
▁alternatives
abis
▁Cao
▁Tae
▁lam
▁lyn
adors
educt
▁Easy
▁Went
▁harv
igated
▁Seoul
▁TARDIS
▁fishes
▁gifted
▁molars
▁Milford
▁takeoff
▁useless
▁Uprising
▁bordered
▁hindered
▁literacy
▁Marceline
▁semifinal
▁chronicles
▁obligation
▁regimental
▁biographers
▁mercenaries
▁Thunderbirds
iak
lag
irez
rable
ullah
▁Hels
▁Meat
▁aust
▁Moran
▁frost
▁Barbar
▁Depend
▁Naruto
▁Richie
▁bursts
▁flavor
▁Gilmour
▁outlook
▁spheres
▁torrent
▁Birthday
▁Spectrum
▁colorful
▁globally
▁salaries
▁Buccaneers
▁Regardless
▁Brandenburg
▁Discography
yg
▁ACE
▁Gur
▁fel
▁Cors
▁Gome
▁usur
▁Alley
▁Gorge
▁barge
▁shake
▁Gemini
▁hunger
▁glasses
▁imports
▁needing
▁Iroquois
▁communal
▁detonated
▁entrances
▁activation
▁identities
▁linebacker
▁popularized
▁archaeologist
Pro
▁LM
erog
▁Buk
aiman
cutta
falls
▁Bean
▁Chit
▁Loud
▁Perl
▁Sust
▁traw
▁wash
▁Arbor
▁Ringo
▁hypoc
▁Beauch
▁cooked
▁gotten
▁Dominic
▁Yardley
▁layered
▁reclass
▁Beatrice
▁orbiting
▁Spitfires
▁simulation
▁frequencies
▁subscription
▁UM
gars
rion
tham
gment
▁Elis
▁Huss
▁Zeus
▁ting
▁yoga
▁Firth
▁Stead
▁sidel
ographs
▁Soccer
▁clutch
▁commod
▁repeal
▁Carrier
▁Cowboys
▁Drivers
▁Earlier
▁migrate
▁Portable
▁Reaction
▁Musically
▁reluctance
▁collaborators
▁administrators
eer
▁Gin
▁Pec
▁Caen
▁Como
▁Juno
▁Tres
inners
▁Freak
▁Omega
▁annih
▁crane
fecture
▁Blamey
▁Pretty
▁Rudolf
▁Triton
▁Burnley
▁intends
▁marshes
▁parkway
▁cerebral
▁parishes
▁validity
▁Companion
▁interfered
▁noticeable
▁complaining
▁Confederates
OP
eous
heid
▁Eno
▁Gap
▁Tou
▁Slip
▁Toll
▁reed
iating
▁Laden
▁Score
▁shade
onshire
▁Kimber
▁Madame
▁Stakes
▁reside
▁uneven
▁Ballard
▁Fashion
▁Mandela
▁fragile
▁Collegiate
fan
jah
nia
▁Rö
▁eg
imar
▁BCS
ecker
▁Leng
▁subc
iosity
▁Amman
▁Baird
▁Schul
▁Templ
▁defer
▁quint
▁skate
▁Horton
▁Slovak
▁Werner
▁senate
▁Ramirez
▁Slovakia
▁counters
▁emperors
▁Frankfurt
▁induction
▁purchases
▁weaknesses
▁directorial
▁reservation
▁aristocratic
gee
▁Ik
▁Mt
▁Phi
▁Tup
▁wra
iamen
▁gimm
▁pars
▁Bills
▁anecd
▁robin
▁thigh
Donnell
writers
▁Audrey
▁Balkan
▁saints
▁corpses
▁harness
▁pennant
▁winters
▁Caldwell
▁Crossing
▁assemble
▁disinteg
▁guardian
▁obstacle
▁generator
▁patriotic
▁screaming
▁subfamily
▁Wainwright
▁definitions
aram
mars
▁Cot
▁Fon
▁Job
▁Psy
▁vib
▁xen
acruz
oresc
▁Amir
▁Watt
▁neon
▁Alive
▁Hello
▁props
▁Jesuit
▁Mosque
▁Cologne
▁hybrids
▁rescues
▁Calcutta
▁Filmfare
▁narration
▁workforce
▁transitions
jin
▁MR
full
lift
oter
▁Eup
▁Pir
▁Vor
▁Educ
▁melt
▁snap
▁vibe
▁Depot
▁Leaves
▁Monter
▁Rodden
▁bosses
▁hinted
▁skulls
▁Problem
▁Uruguay
▁fatigue
▁Thirteen
▁breeders
▁dispatch
▁attribute
▁disappears
▁petitioned
▁corresponds
▁impressions
▁schizophren
As
ís
▁IJ
▁zeb
araoh
ollen
▁Sidd
▁Thin
▁lawn
estown
▁Josef
▁Sihan
▁focal
▁maple
▁splin
▁squir
▁vowel
fulness
▁Nissan
▁parrot
▁Diocese
▁eminent
▁cassette
▁sickness
▁announces
▁courtship
▁escalated
▁Competition
▁Traditional
▁flexibility
▁intensifying
bee
▁RN
eaux
ifix
▁Agn
▁Rez
▁Rik
▁unb
elier
▁Beer
▁Lily
▁Mona
▁Zhou
▁Coler
▁Luzon
▁Matsu
▁Teddy
porters
▁Barric
▁Cancer
▁grunge
▁invite
▁seller
▁Batavia
▁Epsilon
▁Simmons
▁assigns
▁theolog
▁Gilligan
▁hostages
▁inventor
▁adulthood
▁Accordingly
▁photographic
iq
tta
dard
▁NDH
adder
▁Move
▁René
igator
▁Badge
▁Gomez
▁Katie
▁Mafia
▁Kelley
▁cracks
▁lovely
▁oceans
▁Hillary
▁Shearer
▁asymmet
▁visions
▁Soldiers
▁Veracruz
▁assassin
▁sergeant
▁dictators
▁informing
▁flourished
▁miniseries
▁professionally
alom
ieft
▁Tot
▁bou
▁Levy
▁Roma
▁orch
▁pend
▁Angus
▁Therm
▁Whale
▁brace
▁unint
lifting
▁Amtrak
▁Bowman
▁Oricon
▁Powder
▁Rocket
▁medall
▁Calhoun
▁Emanuel
▁mortars
▁Chetniks
▁humidity
▁reworked
▁Woodstock
▁finalized
▁showcased
▁vertically
▁transparent
▁ventilation
▁documentation
▁IN
▁Zen
icent
ships
▁Guer
phones
▁mixes
edience
▁Morrow
▁onward
▁cocaine
▁masonry
▁Sihanouk
▁ascended
▁bestowed
▁Construct
▁confesses
▁obsession
▁subsidies
▁Indigenous
▁Hr
asim
mast
▁Thi
▁Veh
▁Wen
erton
herly
▁Sikh
▁eyed
▁reel
ocalyp
▁Comes
▁Palmy
▁Ptole
▁abbot
▁veins
▁whist
erunner
▁Kriegs
▁Hotspur
▁emerges
▁escorts
▁capsized
▁reactors
▁Directions
▁Publishers
It
WS
arty
pill
wara
▁CMLL
▁Cron
▁Gods
▁Guth
▁Keep
▁Riot
▁coma
▁pays
oubted
▁Braat
▁Calig
▁Dress
▁Think
▁chalk
▁dwind
▁edged
▁scary
▁taped
nington
▁Malone
▁Mathew
▁Oakley
▁cooled
▁liquor
▁Reflect
▁rewards
▁Episodes
▁confeder
▁shortest
▁Provision
▁charities
▁royalties
▁inaccurate
▁prostitution
▁contamination
▁mitochondrial
olin
▁Cis
▁Kum
▁Lae
liner
▁Wadd
▁Wish
▁sums
▁waist
▁Portal
▁melted
▁robots
▁rudder
▁Olympus
▁excerpt
▁spanned
▁spurred
▁Mustaine
▁betrayal
▁listener
▁mediocre
▁navigate
▁unsatisf
▁Etymology
▁antiquity
▁container
▁favorites
▁deliveries
▁parameters
▁designations
▁indefinitely
FO
▁TF
mium
▁Ary
▁Rak
rices
▁DVDs
▁Feel
▁Loss
▁leng
▁null
▁seaw
atable
▁Chong
▁indec
▁penis
atorium
oughton
ursions
▁Enough
▁Hector
▁Rabaul
▁addict
▁barges
▁brakes
▁upbeat
▁Amateur
▁anymore
▁Nagasaki
▁delaying
▁standout
▁illegally
▁vocabulary
▁Controversy
▁Roddenberry
▁exacerbated
▁legislators
acl
▁RM
loid
werp
▁ate
▁mas
▁Gaut
▁odor
▁pony
▁vain
▁vern
yrinth
▁Chapp
▁Cyber
▁Kafka
▁Lunar
▁Megad
▁hints
▁reefs
▁Mutual
▁Speech
▁fueled
▁crusade
▁logging
▁refrain
▁advisers
▁geometric
▁renewable
▁spectacle
▁birthplace
▁professors
▁unreliable
▁orchestrated
▁recognizable
▁institutional
gel
rily
▁Bee
birth
onyms
▁Spee
▁bubb
▁fits
icable
▁Elton
▁Junta
eration
▁amidst
▁Prelude
▁kissing
▁newborn
▁monarchs
▁unaccept
▁peripheral
mie
ayne
▁fol
icorn
ández
▁Nero
▁Ston
▁Merry
▁Panic
▁Quant
▁undis
▁wakes
hampton
orously
overing
▁Active
▁Darryl
▁Pocket
▁ridden
▁Courage
▁Process
▁antagon
▁pathway
▁pinfall
▁savings
▁stemmed
▁utilize
▁evaluate
▁incompet
▁injuring
▁perished
▁treatise
▁Afterward
▁mastering
▁prejudice
▁possessing
▁catastrophic
▁encountering
escu
gean
▁Ces
▁Dag
▁Zoe
rents
▁Toro
▁aven
▁kins
astics
▁Clown
▁Elgar
▁Honda
▁Horns
▁Prote
▁clone
▁hypot
▁intra
▁Employ
▁Harmon
▁exited
▁loaned
▁resurg
ocalypse
▁Natasha
▁Patriot
▁analyst
▁bravery
▁confess
▁pigeons
▁praises
▁twisted
▁vintage
▁Merchant
▁minimize
▁applicable
▁cloverleaf
▁Organisation
▁deteriorating
jav
seau
▁Lum
▁Elsa
▁duct
aughty
▁claws
▁foxes
▁grams
▁Pawnee
▁neared
▁overhe
▁Alexios
▁default
▁Filipino
▁Selected
▁anterior
▁lengthen
▁namesake
▁wardrobe
▁Directors
▁latitudes
▁reliability
HO
osey
Pants
quito
▁Cous
▁Hezb
ellery
▁Ansel
▁Polar
▁caric
▁recol
ourably
▁Dioclet
▁Estonia
▁Murdoch
▁literal
▁Coolidge
▁pectoral
▁receptor
▁Beauchamp
▁Rosenberg
▁salvation
▁shattered
▁Neighbours
▁consistency
▁degradation
EV
▁--
▁ug
rach
sson
▁Aid
▁PPV
▁Amid
▁Kara
▁tyre
▁Luton
▁Pusan
▁caste
▁semin
▁Bypass
▁carpet
▁closes
▁scroll
▁stripe
▁tanker
esterday
▁Counter
▁Returns
▁oceanic
▁Clements
▁antibody
▁Justinian
▁popularly
▁Diocletian
▁prostitute
▁medications
▁modernization
orks
▁Sán
aceut
▁Henn
▁cone
▁unsc
makers
redict
▁fried
▁shrub
▁Advert
▁Applic
▁Chevro
▁Reichs
▁Antwerp
▁Sánchez
▁foliage
▁Gardiner
▁Innocent
▁Slovenia
▁awarding
▁botanist
▁diabetes
▁sampling
▁wreckage
▁brigadier
▁flowering
▁Geological
▁creativity
ographically
▁Hammerstein
▁collaborate
LI
had
ahaw
leck
will
▁FIA
eterm
ewide
ocles
▁Fans
athing
ockets
prints
▁imply
▁salts
osaurids
otherapy
▁Editing
▁Neumann
▁discern
▁strains
▁Megadeth
▁crushing
▁obituary
▁shocking
▁endurance
▁injection
▁messenger
▁remarking
▁Resistance
▁aggregator
▁discontent
▁transforms
▁coordinates
▁northernmost
▁Middlesbrough
▁Characteristics
itri
imoto
▁Earn
▁sire
odrome
ointed
▁Jules
▁Mouse
▁Pelop
▁Welch
▁Wreck
▁magma
▁niche
▁torch
rupting
▁Handel
▁Rabbit
▁Sexual
▁Should
▁Sunset
▁gliders
▁famously
▁handsome
▁Hezbollah
▁incapable
▁occupants
▁advocating
▁apprentice
▁compassion
▁prosperous
▁abandonment
▁disillusion
▁localization
HF
komm
tory
▁Dat
iland
▁Frog
▁Regg
▁leap
▁rupt
stairs
▁Croft
▁Klaus
ausible
ocating
▁Briggs
▁panned
▁segreg
▁sermon
▁Taliban
▁chassis
▁hastily
▁Philippe
▁Treasure
▁Winthrop
▁awaiting
▁befriended
▁narratives
▁posthumous
▁approximate
▁granddaughter
uti
etes
ushi
▁iod
actor
avern
▁Prec
▁Spur
▁germ
▁Dodge
▁Lilly
▁Luigi
▁Rowan
▁Rufus
▁spoof
▁stark
▁Henrik
▁corros
▁rubble
▁Conquer
▁Deutsch
▁Habitat
▁Tillman
▁mankind
▁replies
▁swimmer
▁Goebbels
▁Thorough
▁honorable
▁logistics
▁excellence
▁monumental
▁Barrichello
▁Confessions
▁advancement
▁controllers
▁credibility
▁Encyclopedia
wat
▁TB
ürst
▁Als
▁Azt
▁CDs
▁Sop
anson
rious
▁Nant
▁benz
▁hadn
marked
▁Petit
▁Winds
▁elbow
▁rites
▁Dubrov
▁Object
▁Strand
▁Theres
▁gamers
▁heroin
▁nerves
▁despair
▁winding
▁Designed
▁ignoring
▁patrolled
▁contenders
▁recaptured
▁repetition
▁voluntarily
anj
won
▁IT
grup
lace
▁Ske
▁Wad
▁Beds
▁Lima
▁airc
▁amen
▁cran
▁cues
▁vend
violet
▁Forth
▁Yemen
▁doctr
▁mined
▁voter
▁Smythe
▁finite
▁forage
▁scaled
▁Galland
▁vacated
▁Oryzomys
▁flanking
▁horrible
▁lawsuits
▁parental
▁Satellite
▁Stockport
▁attendees
▁cutscenes
▁intricate
▁outspoken
▁sustaining
▁witchcraft
ahi
nen
▁IW
▁NJ
vald
xtap
▁Mup
ffiti
gebra
▁Voor
▁shoe
▁herds
▁pleas
▁Toulon
▁Waffen
▁deport
▁hiking
▁virgin
▁Pickett
▁bullets
▁Hannibal
▁circuits
▁comrades
▁laughing
▁Dubrovnik
▁Townshend
▁fractured
▁nocturnal
▁paperback
▁remembers
▁unpredict
▁Stephenson
▁mentioning
▁Northampton
▁prospective
▁provocative
▁collaborations
iov
utic
▁Dug
▁Fou
▁rim
▁tan
▁Kuch
▁Rudd
▁Lucia
opposed
umption
▁Reeves
▁Goodbye
▁Renault
▁parodied
▁relocate
▁ceasefire
▁liberated
▁migratory
▁periphery
▁Hammersmith
▁replacements
▁accompaniment
ku
has
agin
ieri
▁Rae
▁ads
amboo
▁Dief
▁Ingl
▁Lill
▁Soci
▁malf
▁Paras
▁Sigma
▁exert
▁insec
▁uniqu
▁Mosley
▁arched
▁behave
▁docked
▁suffix
▁Embassy
▁Feeling
▁colloqu
▁motions
▁Mysterio
▁Stamford
▁modeling
▁spontane
▁asserting
▁behaviors
▁corrected
▁northerly
▁retrospect
▁interacting
▁Reconnaissance
▁Ai
luor
ovac
oway
reep
step
▁Fol
arivo
human
otism
yster
▁Bain
▁Hodg
▁Otis
▁Rica
ocytes
▁Rubin
▁asset
▁portf
▁raven
▁sorts
duction
▁Kramer
▁flawed
▁induce
▁ponies
▁Bombard
▁Diefenb
▁mirrors
▁posture
▁quartet
▁repatri
▁revital
icultural
▁Coventry
▁mainline
▁Braathens
▁Buildings
▁Chevrolet
▁pressured
▁southernmost
▁transforming
rs
uni
▁NH
long
quit
▁Orn
▁Tic
amara
plain
▁Pris
▁damn
▁nect
asties
planes
▁Santo
▁abdom
▁inequ
▁Dunham
▁geared
▁uphold
▁defunct
▁coherent
▁terrific
▁Treatment
▁landmarks
▁skeletons
▁transfers
▁Diefenbaker
▁specialised
▁aggressively
▁conspirators
▁distinguishing
raf
anca
hler
oxic
▁Flu
▁Lug
▁Tap
▁cov
▁Chau
▁Gage
▁scal
▁whip
führer
linson
▁Dwarf
▁Jared
▁Kalam
▁heirs
▁scent
▁shelf
▁Shakur
▁sailor
▁Chicken
▁adorned
▁curious
▁forcibly
▁cartoonist
▁resentment
eme
rea
▁BR
adas
akan
ldon
▁McH
▁Paw
Radar
▁Chew
▁Jaws
▁Kors
▁MacG
ettled
▁Ethan
▁Rural
▁drill
▁perce
▁rhyme
▁tumor
▁unequ
▁Hilary
▁Rahman
▁clitor
▁indist
▁laughs
▁taller
▁Sundays
▁envelope
▁Described
▁landslide
▁patriarch
▁ostensibly
▁SquarePants
▁affiliation
▁businessmen
▁depressions
dorf
uler
▁Aar
▁Ead
▁Ler
▁eve
atism
ietal
▁Dunk
▁Fate
▁Text
nected
▁Bauer
▁Brant
▁Civic
▁Nikki
▁Parry
▁Ramon
▁socio
▁truss
▁Seeing
▁garner
▁sticky
▁yields
▁arising
▁bottles
▁estuary
▁persist
▁pivotal
▁reunite
▁Articles
▁Hinduism
▁Honorary
▁brighter
▁forensic
▁narrated
▁sculpted
▁skeletal
▁volatile
▁bulkheads
▁residency
▁metabolism
▁importantly
▁unfavorable
▁Preservation
xi
fat
▁RF
akin
▁Hul
▁riv
reeze
▁Feld
▁Korn
▁unhe
kkinen
ronics
▁Gator
▁Juven
▁awful
▁rainy
▁Bethle
▁Hilton
▁Revolt
▁Target
▁sultan
▁Ganesha
▁Goddess
▁Orioles
▁Trigger
▁thorium
▁Conquest
▁Pavilion
▁mandated
▁wrestled
▁Residents
▁Cancellara
▁meaningful
▁Publication
▁deterioration
▁establishments
▁BK
▁BN
park
▁Pug
▁idi
▁nig
▁wal
andum
esque
▁Malm
▁tant
ingale
▁Freed
▁Ninet
▁Parth
▁Sasha
▁antit
▁poses
▁pulls
▁safer
anelles
▁Flower
▁Laguna
▁Linden
▁lining
▁nurses
▁Tibetan
▁endings
▁obverse
▁refugee
▁Ordnance
▁interned
▁wounding
▁Fingleton
▁Telescope
▁garrisons
▁recapture
▁encompasses
▁LT
ecia
thor
▁Fri
arcer
▁Blaz
▁Door
▁Polo
▁Schn
▁gown
▁neat
inched
▁Erich
▁Rebel
▁Trick
▁Verdi
▁Aubrey
▁Lumpur
▁Melody
▁Titans
▁ambigu
▁toilet
▁troupe
fficient
▁Barrier
▁Bengali
▁Whitlam
▁squares
▁Everyone
▁Rockstar
▁modelled
▁resupply
▁Chemistry
▁alliances
▁unopposed
▁Darlington
▁underparts
▁Scandinavia
▁mathematician
▁Superintendent
iken
ogne
ewalk
unate
▁Krup
▁puck
▁ribs
▁Caval
▁Hyper
▁Jorge
▁Paine
▁Yahoo
▁encro
▁molar
▁mortg
classic
itaries
▁Aegean
▁Sumner
▁Tallon
▁summed
▁Airplay
▁Forward
▁Walters
▁Bethlehem
▁reclaimed
▁undoubted
▁variables
▁greenhouse
▁overseeing
▁consolidate
▁disciplines
▁illuminated
▁denominations
ád
zep
ayas
week
▁hid
vings
▁Liam
course
▁Denny
▁Forty
▁Straw
▁boron
▁sells
▁Asylum
▁Goebel
▁Merlin
▁Xavier
▁pollen
changing
▁Anaheim
▁liaison
▁Elephant
▁cyclonic
▁expulsion
▁contractors
▁undisclosed
▁questionable
jon
uku
▁MO
▁Ayy
▁Fasc
▁Loth
▁Yong
▁Yuan
▁furt
▁Bolet
▁Image
▁Jeter
▁Lydia
▁Pablo
▁Ultra
▁blows
▁Humber
▁Königs
▁Sirius
▁bodied
▁purity
▁spaced
▁Clapton
▁Console
▁bounded
▁fielded
▁grabbed
▁lanthan
▁shootout
▁Syndicate
▁jewellery
▁munitions
▁bridgehead
▁heightened
▁Universities
▁examinations
▁extraterrestrial
fit
psy
riv
▁AH
ibia
▁DLC
▁LeM
▁Sot
▁Furn
▁Vert
▁duly
enthal
▁Bronx
▁Miley
▁Ryder
▁Strip
▁Zappa
▁Mormon
▁pardon
affected
▁archety
▁eclipse
▁Atkinson
▁invasive
▁insisting
▁Battalions
▁concussion
▁determines
▁scheduling
▁vernacular
▁sentimental
Ds
see
andi
auri
▁Tea
▁apex
angelo
osures
▁Cyril
▁Gregg
▁Liszt
▁Whigs
▁abort
▁libel
ellular
▁Androm
▁Covent
▁Sharks
▁basket
▁christ
▁excuse
▁sights
▁Hussein
▁gateway
▁Churches
▁Learning
▁Mortimer
▁Stephens
▁backward
▁dictated
▁lobbying
▁Believing
▁Sanctuary
▁executions
▁undermined
▁Commissioners
▁conservatives
▁TI
jans
tyre
ieves
trans
▁Bore
▁Dise
▁Laun
▁Nurs
▁Seph
▁Stav
▁nets
imates
utable
▁Ducks
▁Gonzá
▁Mores
▁Wagga
▁empir
▁flats
▁secre
▁Gotham
▁Mozart
▁Nansen
▁disarm
▁outset
▁shrubs
▁unreal
▁Andreas
▁airstri
▁chemist
▁witches
▁Document
▁Sibelius
▁rhetoric
▁stylized
▁Francesco
▁unemployed
▁Appalachian
▁drastically
▁Tyrannosaurus
hne
owe
▁Vu
▁Gus
▁gaz
▁Gail
▁Juda
▁Raim
▁Temp
▁Zerg
▁panc
▁topp
▁Doubt
▁Nails
▁Stacy
▁minig
▁ropes
▁skins
▁Aleppo
▁motive
▁Concept
▁Markham
▁Requiem
▁SummerS
▁angrily
▁González
▁Saunders
▁Svalbard
▁battered
▁refitted
▁uploaded
▁arbitrary
▁invasions
▁receptors
▁compressed
▁Peterborough
▁proportional
des
uish
▁Gel
▁Joc
chens
▁Clin
▁Dogs
▁Kali
▁Lask
▁Raph
▁ston
eneuve
▁Bulls
▁cared
▁plank
▁Loxton
▁Wilkes
▁modify
function
▁Broncos
▁Cinemat
▁Fishing
▁Meeting
▁haunted
▁Biblical
▁Dockyard
▁Francisc
▁Historia
▁disperse
▁textures
▁Aristotle
▁codenamed
▁entrusted
▁organising
▁fascinating
▁Kriegsmarine
▁differential
▁longitudinal
ibu
hoff
jack
uced
▁Sci
▁Zhu
▁avi
inkle
▁Seal
▁olig
▁tric
christ
▁Claus
▁Dawla
▁Foley
stellar
▁Alexis
▁daring
▁forged
▁massac
▁Gretzky
▁Prairie
▁Shadows
▁setlist
antically
▁Andersen
▁doubling
▁invaders
▁brightest
▁restraint
▁Associates
▁internally
▁restrained
▁superintendent
emn
▁EF
orrh
▁Dro
arten
cence
corrh
gehog
nyder
▁Pump
▁Susp
▁chop
▁erad
broken
oglyph
orical
▁Eliza
▁alder
▁flees
▁Harlan
▁Sacred
▁Trials
▁capita
▁digits
▁pestic
ondition
▁defects
▁incarcer
▁Treehouse
▁contended
▁explorers
▁metabolic
▁militants
▁treasurer
▁SummerSlam
▁astronauts
▁deficiency
▁formulated
▁frustrating
▁DR
oler
▁CAP
▁Gne
▁Mew
▁Rig
athus
▁Wint
▁prow
▁Kathy
▁Manga
▁thumb
estrian
▁Meadow
▁abused
ceptions
▁Dracula
▁Famitsu
▁Marxist
▁Minutes
▁amusing
▁terrace
▁Corridor
▁fertility
▁programmed
▁synonymous
▁resolutions
oil
▁BT
cony
iero
▁AOL
▁Kob
▁Lod
▁Oss
▁Poc
▁gum
▁Dial
▁Hume
▁Rout
▁empl
▁tile
▁tore
▁typh
iduous
ionage
ricted
vation
▁Roche
▁Troop
▁fines
▁icons
▁smile
▁sonic
▁Anarky
▁Hawker
▁angels
▁defens
▁micros
▁spikes
▁stereo
▁Osborne
▁cousins
▁drunken
▁handing
▁paramil
▁subcont
▁Counties
▁Stranger
▁blessing
▁cemented
▁pioneers
▁Companies
▁inconsist
▁threshold
▁Invincible
▁luminosity
▁compromised
DR
▁Bib
▁Yel
erxes
▁Aali
▁Mald
▁Mids
▁Pett
▁Purd
▁Samp
▁deaf
▁turf
▁Ewing
▁otter
▁rests
▁goalsc
▁pastor
▁testify
▁battling
▁easterly
▁planting
▁propriet
▁stallion
▁botanical
▁bypassing
▁receivers
▁vegetable
▁Springsteen
▁refurbished
▁superficial
heny
teau
▁Bew
▁Bets
▁Graf
▁buzz
▁moor
uaries
▁Divas
▁Hands
▁endow
▁Levels
▁Moment
▁caudal
▁detain
▁grains
▁rushes
▁Bolivia
▁Schmidt
▁monolog
▁citation
▁licenses
▁organise
▁Weinstein
▁crossings
▁integrate
▁shortstop
▁simulated
▁supremacy
▁Dardanelles
▁Filmography
▁Provisional
▁encompassing
▁satisfactory
eti
▁DO
ouin
pret
▁Ort
▁Pip
▁aph
bling
ptive
rites
▁Baba
▁Feed
▁Kolk
▁Mott
▁Sham
utsche
▁Floor
▁Mamlu
▁bland
▁feral
▁Chaluk
▁Courts
▁Nellie
▁flocks
▁exiting
▁staunch
▁Coldplay
▁lowering
▁outcomes
▁masculine
wal
▁CW
▁Tō
apul
city
ikos
▁Baj
▁Ein
strom
▁Djok
▁Rost
▁Vest
▁aria
ursion
volent
▁Guill
▁Worst
▁slept
▁vicar
▁honeye
▁orator
▁passer
▁poured
▁techno
▁Aaliyah
▁Burnett
▁Maximum
▁Passion
▁builder
▁dresses
▁reputed
▁steered
▁Djokovic
▁treasury
▁Worldwide
▁eastwards
▁sanctions
▁sidelined
▁magistrate
▁organizers
▁Susquehanna
▁consultation
zak
ourt
wave
▁Ide
▁mya
▁Leno
▁Mamm
▁Meck
▁hypn
cephal
monary
▁Ayles
▁Maybe
▁Rapid
▁delta
▁disob
iencies
▁Hearst
▁Ledger
▁alloys
▁bikini
▁redund
▁camping
▁erratic
▁procure
▁rallied
▁shrines
▁Labrador
▁Portrait
▁crippled
▁phosphate
▁Villeneuve
▁biographies
▁conditioning
▁conscription
▁shareholders
▁HP
arno
▁Bit
▁Find
▁Mood
▁muds
▁Beeth
▁Brick
▁laden
▁timed
cadilly
roscopy
▁Apache
▁demean
▁reconn
▁Chatham
▁GamePro
ellations
▁Idolator
▁populous
▁shouting
▁auditions
▁selectors
▁Piccadilly
▁elliptical
▁qualifications
tel
alky
etah
isma
▁Cey
▁Lun
▁Opt
ignon
ivism
▁Cats
▁Kiev
▁Mimi
fellow
▁Magna
▁Pagan
▁Teams
▁Tense
▁miser
▁alkali
▁derive
▁majors
▁reduct
▁Penguin
▁subdued
▁Maharash
▁statutes
▁schooling
▁separates
▁amphibians
▁fascinated
▁kidnapping
▁Establishment
assa
hore
▁nav
bergh
stood
tones
ussen
▁moss
▁pret
▁stew
▁Birch
▁Paige
▁reinc
▁shrim
▁sorry
▁tutor
▁tweet
alyptic
▁Mughal
▁Reznor
▁Riding
▁Voyage
▁airmen
▁barris
▁juxtap
▁neurol
▁rabbit
▁Krajina
▁arthrop
▁capsule
▁expands
▁explode
▁forbade
▁helpful
▁recuper
▁Spotnitz
▁feminism
▁ordained
▁stepping
▁switches
▁Sutcliffe
▁assertion
▁superiors
▁compliance
▁continents
▁crustaceans
▁differentiate
gum
yst
aryn
▁Viz
▁jar
▁ket
asket
estab
iffle
taker
▁Calc
▁Fier
▁fost
▁latt
aunted
▁Bowen
▁Claim
▁Elena
▁trash
ounting
▁Rother
▁marred
▁recipe
▁Pembroke
▁dopamine
▁glorious
▁sporadic
▁Fleetwood
▁desperately
▁controversies
Or
SC
▁CI
▁GH
oupe
sell
▁Oro
olulu
▁Ding
▁Prat
▁Shik
▁Tart
▁Wich
▁fork
▁padd
▁Alone
▁Scene
▁Vukov
▁clans
▁Schles
▁Sentin
▁Tennis
▁pacing
▁tastes
▁vassal
embrance
▁polymer
▁rewrite
▁Infinity
▁grouping
▁mystical
▁directional
▁recognizing
aiy
jak
▁AW
iggs
lean
requ
▁Alm
▁Cic
aptor
ouses
▁worm
▁Reach
▁apple
▁Carrie
▁pseudo
▁Antanan
▁Housing
▁Radical
▁Redding
▁cinemas
▁disgust
▁grooves
▁impract
▁midship
▁shadows
▁silicon
▁tuition
▁washing
erogative
▁wherever
▁Beethoven
▁Whitehall
▁unacceptable
▁recommissioned
ívar
▁Jop
▁yes
brate
gaard
ucent
▁Padd
▁Sire
▁bury
anders
▁Ernie
▁Exche
▁Judah
▁knees
▁unple
▁Sylvia
▁famine
▁pepper
▁Gibbons
▁regroup
▁rodents
estically
▁crashing
▁Exchequer
▁fundament
▁retrieved
▁logistical
▁abbreviated
▁intentional
▁Christchurch
▁grandchildren
▁reinforcement
▁LW
▁UA
▁iv
▁Wig
antle
▁Bold
▁Kink
▁Luna
▁Tusc
▁Weis
▁dash
imatum
▁Chest
▁Keyes
▁Rosem
▁Sides
▁cocon
▁plund
isively
▁Argyll
▁Ravens
▁unspec
▁Dickens
▁Vukovar
▁markers
▁Countess
▁activate
▁schooner
▁denomination
▁disadvantage
▁differentiated
▁dissatisfaction
log
▁MN
▁pa
stra
▁Upd
ndish
▁Maud
▁flux
▁owls
▁slim
▁Bride
▁Deleg
▁Named
▁Spieg
▁Arjona
▁Assess
▁Bubble
▁Caucas
▁Frozen
▁Snyder
▁Stream
▁impass
▁nectar
▁scenic
▁trades
▁vulgar
gettable
omorphic
▁Setting
▁Tornado
▁marshal
▁Woodward
▁engraved
▁insignia
▁randomly
▁recounts
▁trophies
▁highlands
▁utilizing
▁violating
▁manipulation
▁Ecu
▁IRA
andez
ayers
enser
▁Babe
▁Fury
▁Pare
▁cyan
isenau
▁Mixed
▁Novel
▁juice
▁reset
▁soror
isexual
▁evenly
▁lively
ositions
▁Abbasid
▁Algeria
▁Finding
▁Jubilee
▁Marquis
▁emulate
▁varsity
illingham
▁Martinez
▁McNamara
▁excommun
▁frontman
▁locality
▁poisoned
▁suspense
▁Coleridge
▁Reviewing
▁membranes
▁Supporters
▁brightness
▁litigation
▁reflective
▁stereotype
▁apprentices
▁positioning
▁Thoroughbred
otov
▁dow
▁toe
▁Done
▁Jade
▁Klan
▁Tail
inders
ippers
▁Suite
▁Thief
▁deeds
▁tires
▁Allman
▁Copper
▁Kruger
▁Regent
▁Turing
▁acidic
▁hydrox
▁intert
▁Christi
▁Gaddafi
▁Killing
▁Kolkata
▁batters
▁demobil
▁Glorious
▁cannibal
▁Gneisenau
▁Regiments
▁liability
▁posterior
▁Antananarivo
▁reclassified
▁regeneration
▁Traditionally
dar
yad
urgy
▁Bin
liche
▁Mori
▁Poss
▁Trey
▁dean
▁sage
elance
▁Strom
▁joked
▁motte
▁polyg
ussions
▁Corpus
▁Raynor
▁Tanaka
▁hyster
▁posing
▁unfold
▁vandal
pectives
▁Pyramid
▁Toshack
▁conject
▁grenade
▁imprint
▁Bordeaux
▁Concerto
▁Juventus
▁Mariners
▁Slavonia
▁pastoral
▁plotting
▁residing
▁semester
▁unauthor
▁Criticism
▁certainty
▁executing
▁metamorph
▁symphonic
▁Battleship
▁Phonographic
lio
nde
ouf
▁GE
avis
itra
note
▁McQ
▁Bloc
▁Ging
▁Holm
▁MacM
▁Pile
▁Tanz
quirer
▁Blink
▁Gujar
▁Truck
▁ingen
▁metro
▁teens
irement
ulously
▁Latino
▁Sakura
▁Stevie
▁Teller
ortunate
▁Tripoli
▁ballots
▁jewelry
▁Sherlock
▁knockout
▁mythical
▁nonsense
▁Defensive
▁firepower
▁lyrically
▁prevalence
▁sensational
▁overwhelmingly
▁Zu
inaw
lins
plan
▁AFI
▁Bok
▁XXX
ervis
onius
▁Chis
▁bids
herson
ipedia
ottest
▁Areas
▁Morse
▁dairy
▁salam
▁scare
▁Megami
▁Refuge
▁advise
▁devoid
▁lizard
▁unseen
▁Moresby
▁Robbins
▁backlash
▁immortal
▁militant
▁prepares
▁rebelled
▁registry
▁disasters
▁translates
▁exemplified
▁originality
NO
eo
▁OB
▁RE
adys
irrh
utan
▁Dip
▁EPA
▁ect
creen
itans
▁Fuji
▁Sita
▁Tant
▁pert
leston
▁Pseud
▁Spurs
▁USAAF
▁Vista
▁evade
▁worms
chanted
parents
▁attire
▁babies
▁Silence
▁Tunisia
▁quicker
▁seizing
▁Weinberg
▁inverted
▁inviting
▁abdominal
▁dispersal
▁Mainstream
▁Terminator
▁prosecuted
▁hospitalized
▁contradictory
▁strategically
aye
▁Qa
rico
sing
▁Mug
▁Zam
▁dri
▁euk
arton
▁Fell
▁Vine
▁chol
▁hack
▁sway
▁Beebe
▁Oasis
▁Schen
▁Sense
▁guild
▁redef
▁spill
▁Sevent
▁Strang
▁forbid
▁Donovan
▁swiftly
▁Grossman
▁Sunshine
▁casualty
▁cheating
▁packaged
▁traverse
▁Mussolini
▁hazardous
▁judiciary
▁Scientists
▁adequately
▁implicated
▁choreographer
▁Worcestershire
afa
yth
auré
regn
▁Sym
achim
raeli
▁Bare
▁Heid
▁ausp
▁Cable
▁Lohan
▁coats
▁stump
▁Laurel
▁Simone
▁envoys
▁senses
▁servic
▁swamps
▁tuning
▁Foraker
▁Phyllis
▁Scratch
▁Thessal
▁Watford
▁balcony
▁bolster
▁burials
▁detract
▁Costello
▁immature
▁offences
▁offended
▁taxonomy
▁petroleum
▁distinctly
▁electorate
▁torrential
▁disapproved
▁unification
▁acceleration
obo
▁WB
agos
▁Jug
▁Zer
▁axe
▁bip
▁Mast
▁Tann
▁Wors
▁dumb
▁pads
tenden
▁Brund
▁Hasan
▁Maure
▁paler
▁thief
ungsten
ustomed
▁Appear
▁Felipe
▁Superm
▁fumble
▁intrud
▁ironic
▁saddle
▁Brennan
▁genital
▁palaces
▁Kathleen
▁drumming
▁indicted
▁nominees
▁sighting
▁screenings
▁topography
▁efficiently
▁entertained
▁undoubtedly
lé
nall
roat
▁Bye
▁Cir
▁Tuc
▁eup
▁Hide
▁Parv
▁Shat
▁fren
▁para
flower
resist
▁Jovan
▁mercy
▁thorn
▁Esther
▁Haakon
▁merits
▁priced
▁quests
▁rugged
▁seeded
▁Harmony
▁abusive
▁convict
▁crested
▁hormone
▁mapping
▁Africans
▁Confucian
▁attorneys
▁deciduous
▁viewpoint
▁disabilities
▁transitional
▁concentrating
ío
hov
heng
idea
▁Mét
▁Nug
▁Sek
▁sci
▁Fion
▁Gond
▁IMAX
▁Kick
▁Puck
▁Wait
antino
▁Lange
▁Maker
▁Sinai
▁famed
opathic
▁Melina
▁coated
▁eukary
▁mystic
▁stunts
▁Monarch
▁Weapons
▁removes
▁traject
▁Breaking
▁Shearman
▁Weymouth
▁adapting
▁alienated
▁GamesRadar
▁dominating
▁inflammatory
▁Staffordshire
▁acknowledging
zon
▁GR
itha
▁UFC
▁Gest
▁Mush
▁Sass
▁Vall
▁avid
▁rink
▁smok
eworld
▁Adler
▁Codex
▁aisle
▁setup
▁Convoy
▁Harley
▁Sevast
▁finely
westerly
▁Feature
▁craters
▁Savannah
▁telegram
▁Nightmare
▁Trenchard
▁smuggling
▁Huntington
▁exposition
▁manipulate
▁unpleasant
▁projectiles
▁ratification
▁transcription
▁Gj
uinn
▁Yun
▁Abby
▁Brab
▁Bute
▁Liqu
▁heel
▁Beers
▁Haifa
▁forum
▁laund
▁logar
▁ponds
▁reaff
▁Wester
▁ribbon
▁stumps
▁Boycott
▁lowland
▁rotated
▁teaches
▁Barracks
▁Dungeons
▁alleging
▁incompat
▁roadways
▁sabotage
▁Ladislaus
▁preaching
▁showrunner
▁paratroopers
▁collaborating
ryn
▁CV
hift
ritt
ymph
▁Pag
▁shp
erate
esity
▁Cars
▁Repl
▁Trav
▁Trem
▁Zool
▁curt
▁duke
▁vows
ormann
▁Cobra
▁Quinc
▁Swing
▁shipw
▁solos
rawling
▁Breath
▁Jessie
▁Reason
▁Talent
▁basalt
▁postal
▁recomb
▁sunset
bringing
ventions
ynthesis
▁Scarlet
▁Skander
▁Sleaford
▁Influence
▁computing
▁doctorate
▁readiness
iodiversity
▁Königsberg
▁accelerate
▁syndicated
▁contributes
▁convenience
aju
lik
lis
aeus
▁Odd
▁nin
▁rip
herst
horse
▁Fres
▁Happ
▁Itza
▁Schl
▁Wide
▁biom
▁eats
▁uter
▁wary
▁Curie
▁Peruv
▁grasp
▁pulse
▁spong
elssohn
▁Jungle
▁Manzan
[...]
